{
  "version": "1.0",
  "truncation": null,
  "padding": null,
  "added_tokens": [
    {
      "id": 0,
      "content": "<|endoftext|>",
      "single_word": false,
      "lstrip": false,
      "rstrip": false,
      "normalized": false,
      "special": true
    }
  ],
  "normalizer": null,
  "pre_tokenizer": {
    "type": "ByteLevel",
    "add_prefix_space": true,
    "trim_offsets": true,
    "use_regex": true
  },
  "post_processor": {
    "type": "TemplateProcessing",
    "single": [
      {
        "Sequence": {
          "id": "A",
          "type_id": 0
        }
      },
      {
        "SpecialToken": {
          "id": "<|endoftext|>",
          "type_id": 0
        }
      }
    ],
    "pair": [
      {
        "Sequence": {
          "id": "A",
          "type_id": 0
        }
      },
      {
        "Sequence": {
          "id": "B",
          "type_id": 1
        }
      }
    ],
    "special_tokens": {
      "<|endoftext|>": {
        "id": "<|endoftext|>",
        "ids": [
          0
        ],
        "tokens": [
          "<|endoftext|>"
        ]
      }
    }
  },
  "decoder": {
    "type": "ByteLevel",
    "add_prefix_space": true,
    "trim_offsets": true,
    "use_regex": true
  },
  "model": {
    "type": "BPE",
    "dropout": null,
    "unk_token": null,
    "continuing_subword_prefix": null,
    "end_of_word_suffix": null,
    "fuse_unk": false,
    "byte_fallback": false,
    "ignore_merges": false,
    "vocab": {
      "<|endoftext|>": 0,
      "!": 1,
      "\"": 2,
      "#": 3,
      "$": 4,
      "%": 5,
      "&": 6,
      "'": 7,
      "(": 8,
      ")": 9,
      "*": 10,
      "+": 11,
      ",": 12,
      "-": 13,
      ".": 14,
      "/": 15,
      "0": 16,
      "1": 17,
      "2": 18,
      "3": 19,
      "4": 20,
      "5": 21,
      "6": 22,
      "7": 23,
      "8": 24,
      "9": 25,
      ":": 26,
      ";": 27,
      "<": 28,
      "=": 29,
      ">": 30,
      "?": 31,
      "@": 32,
      "A": 33,
      "B": 34,
      "C": 35,
      "D": 36,
      "E": 37,
      "F": 38,
      "G": 39,
      "H": 40,
      "I": 41,
      "J": 42,
      "K": 43,
      "L": 44,
      "M": 45,
      "N": 46,
      "O": 47,
      "P": 48,
      "Q": 49,
      "R": 50,
      "S": 51,
      "T": 52,
      "U": 53,
      "V": 54,
      "W": 55,
      "X": 56,
      "Y": 57,
      "Z": 58,
      "[": 59,
      "\\": 60,
      "]": 61,
      "^": 62,
      "_": 63,
      "`": 64,
      "a": 65,
      "b": 66,
      "c": 67,
      "d": 68,
      "e": 69,
      "f": 70,
      "g": 71,
      "h": 72,
      "i": 73,
      "j": 74,
      "k": 75,
      "l": 76,
      "m": 77,
      "n": 78,
      "o": 79,
      "p": 80,
      "q": 81,
      "r": 82,
      "s": 83,
      "t": 84,
      "u": 85,
      "v": 86,
      "w": 87,
      "x": 88,
      "y": 89,
      "z": 90,
      "{": 91,
      "|": 92,
      "}": 93,
      "~": 94,
      "¡": 95,
      "¢": 96,
      "£": 97,
      "¤": 98,
      "¥": 99,
      "¦": 100,
      "§": 101,
      "¨": 102,
      "©": 103,
      "ª": 104,
      "«": 105,
      "¬": 106,
      "®": 107,
      "¯": 108,
      "°": 109,
      "±": 110,
      "²": 111,
      "³": 112,
      "´": 113,
      "µ": 114,
      "¶": 115,
      "·": 116,
      "¸": 117,
      "¹": 118,
      "º": 119,
      "»": 120,
      "¼": 121,
      "½": 122,
      "¾": 123,
      "¿": 124,
      "Â": 125,
      "Ã": 126,
      "Ä": 127,
      "Å": 128,
      "Æ": 129,
      "Ç": 130,
      "È": 131,
      "É": 132,
      "Ê": 133,
      "Ë": 134,
      "Ì": 135,
      "Í": 136,
      "Î": 137,
      "Ï": 138,
      "Ð": 139,
      "Ñ": 140,
      "Ò": 141,
      "Ó": 142,
      "Ô": 143,
      "Õ": 144,
      "Ö": 145,
      "×": 146,
      "Ø": 147,
      "Ù": 148,
      "Û": 149,
      "Ü": 150,
      "Ý": 151,
      "Þ": 152,
      "ß": 153,
      "à": 154,
      "á": 155,
      "â": 156,
      "ã": 157,
      "ä": 158,
      "å": 159,
      "æ": 160,
      "ç": 161,
      "è": 162,
      "é": 163,
      "ê": 164,
      "ë": 165,
      "ì": 166,
      "í": 167,
      "î": 168,
      "ï": 169,
      "ð": 170,
      "Ċ": 171,
      "Ġ": 172,
      "Ģ": 173,
      "ģ": 174,
      "Ĥ": 175,
      "ĥ": 176,
      "Ħ": 177,
      "ħ": 178,
      "Ĩ": 179,
      "ĩ": 180,
      "Ī": 181,
      "ī": 182,
      "Ĭ": 183,
      "ĭ": 184,
      "Į": 185,
      "į": 186,
      "İ": 187,
      "ı": 188,
      "Ĳ": 189,
      "ĳ": 190,
      "Ĵ": 191,
      "ĵ": 192,
      "Ķ": 193,
      "ķ": 194,
      "ĸ": 195,
      "Ĺ": 196,
      "ĺ": 197,
      "Ļ": 198,
      "ļ": 199,
      "Ľ": 200,
      "ľ": 201,
      "Ŀ": 202,
      "ŀ": 203,
      "Ł": 204,
      "ł": 205,
      "Ń": 206,
      "Ġt": 207,
      "he": 208,
      "Ġa": 209,
      "in": 210,
      "Ġs": 211,
      "Ġw": 212,
      "Ġthe": 213,
      "re": 214,
      "ou": 215,
      "ed": 216,
      "Ġo": 217,
      "Ġh": 218,
      "nd": 219,
      "Ġb": 220,
      "er": 221,
      "Ġm": 222,
      "ing": 223,
      "Ġf": 224,
      "at": 225,
      "Ġc": 226,
      "Ġto": 227,
      "it": 228,
      "is": 229,
      "Ġhe": 230,
      "Ġd": 231,
      "en": 232,
      "on": 233,
      "as": 234,
      "Ġl": 235,
      "ll": 236,
      "an": 237,
      "ĠI": 238,
      "or": 239,
      "Ġand": 240,
      "Ġth": 241,
      "ar": 242,
      "Ġp": 243,
      "es": 244,
      "Ġ\"": 245,
      "Ġof": 246,
      "Ġin": 247,
      "Ġg": 248,
      "Ġn": 249,
      "om": 250,
      "ad": 251,
      "ow": 252,
      "id": 253,
      "Ġy": 254,
      "Ġbe": 255,
      "ot": 256,
      "le": 257,
      "Ġwas": 258,
      "ld": 259,
      "Ġe": 260,
      "gh": 261,
      "Ġyou": 262,
      "Ġher": 263,
      "ac": 264,
      "ve": 265,
      "im": 266,
      "Ġon": 267,
      "st": 268,
      "ĠT": 269,
      "et": 270,
      "ic": 271,
      "ly": 272,
      "Ġst": 273,
      "Ġit": 274,
      "ay": 275,
      ".\"": 276,
      "ut": 277,
      "Ġu": 278,
      "al": 279,
      "Ġthat": 280,
      "ĠS": 281,
      "Ġhis": 282,
      "'s": 283,
      "se": 284,
      "ĠH": 285,
      "Ġre": 286,
      "ver": 287,
      "Ġha": 288,
      "ir": 289,
      "ght": 290,
      "Ġr": 291,
      "oo": 292,
      "out": 293,
      "Ġas": 294,
      "ent": 295,
      "'t": 296,
      "ith": 297,
      "ke": 298,
      "ould": 299,
      "Ġwh": 300,
      "Ġshe": 301,
      "ĠA": 302,
      "Ġwe": 303,
      "Ġme": 304,
      "Ġfor": 305,
      "Ġwith": 306,
      "Ġhad": 307,
      "ĠThe": 308,
      "ur": 309,
      "am": 310,
      "ion": 311,
      "Ġmy": 312,
      "Ġk": 313,
      "Ġat": 314,
      "Ġan": 315,
      "ight": 316,
      "her": 317,
      "Ġsh": 318,
      "Ġsa": 319,
      "all": 320,
      "if": 321,
      "ĠM": 322,
      "Ġhim": 323,
      "Ġfr": 324,
      "Ġse": 325,
      "ĠHe": 326,
      "ro": 327,
      "red": 328,
      "ill": 329,
      "ain": 330,
      "ch": 331,
      "Ġnot": 332,
      "il": 333,
      "pp": 334,
      "ĠB": 335,
      "ked": 336,
      "ce": 337,
      "Ġdo": 338,
      "ter": 339,
      "?\"": 340,
      ",\"": 341,
      "el": 342,
      "ack": 343,
      "ĠW": 344,
      "ore": 345,
      "Ġsaid": 346,
      "Ġne": 347,
      "ant": 348,
      "Ġli": 349,
      "âĢ": 350,
      "Ġbut": 351,
      "Ġis": 352,
      "Ġkn": 353,
      "ome": 354,
      "ĠC": 355,
      "Ġout": 356,
      "ri": 357,
      "ard": 358,
      "Ġup": 359,
      "ĠShe": 360,
      "ust": 361,
      "Ġso": 362,
      "rou": 363,
      "us": 364,
      "Ġhave": 365,
      "ra": 366,
      "Ġfrom": 367,
      "un": 368,
      "ct": 369,
      "hing": 370,
      "Ġj": 371,
      "ie": 372,
      "one": 373,
      "king": 374,
      "ind": 375,
      "ess": 376,
      "to": 377,
      "ge": 378,
      "Ġab": 379,
      "Ġde": 380,
      "Ġle": 381,
      "ĠD": 382,
      "Ġwere": 383,
      "hen": 384,
      "Ġwould": 385,
      "and": 386,
      "Ġall": 387,
      "Ġdid": 388,
      "Ġcould": 389,
      "hed": 390,
      "ell": 391,
      "Ġsu": 392,
      "Ġthey": 393,
      "ĠL": 394,
      "qu": 395,
      "own": 396,
      "Ġal": 397,
      "ide": 398,
      "Ġthis": 399,
      "ab": 400,
      "ss": 401,
      "our": 402,
      "Ġch": 403,
      "art": 404,
      "ood": 405,
      "Ġgo": 406,
      "ers": 407,
      "Ġloo": 408,
      "lo": 409,
      "Ġback": 410,
      "pe": 411,
      "ast": 412,
      "Ġno": 413,
      "ul": 414,
      "âĢĶ": 415,
      "Ġv": 416,
      "Ġlike": 417,
      "Ġone": 418,
      "hat": 419,
      "'d": 420,
      "Ġ'": 421,
      "Ġwhat": 422,
      "ck": 423,
      "Ġthem": 424,
      "est": 425,
      "um": 426,
      "Ġcon": 427,
      "em": 428,
      "ĠN": 429,
      "ĠR": 430,
      "You": 431,
      "Ġinto": 432,
      "ry": 433,
      "Ġwor": 434,
      "ace": 435,
      "Ġex": 436,
      "Ġag": 437,
      "Ġfe": 438,
      "ong": 439,
      "ĠG": 440,
      "ist": 441,
      "ven": 442,
      "ĠE": 443,
      "Ġknow": 444,
      "ĠP": 445,
      "ig": 446,
      "Ġor": 447,
      "Ġbeen": 448,
      "ĠJ": 449,
      "au": 450,
      "ĠIt": 451,
      "Ġabout": 452,
      "ep": 453,
      "ĠF": 454,
      "ake": 455,
      "way": 456,
      "Ġhand": 457,
      "Ġif": 458,
      "Ġun": 459,
      "ate": 460,
      "ol": 461,
      "ame": 462,
      "ag": 463,
      "ally": 464,
      "very": 465,
      "Ġyour": 466,
      "Ġcan": 467,
      "Ġover": 468,
      "Ġany": 469,
      "Ġro": 470,
      "ap": 471,
      "Ġthere": 472,
      "ation": 473,
      "are": 474,
      "ous": 475,
      "Ġpl": 476,
      "ice": 477,
      "Ġtim": 478,
      "Ġsp": 479,
      "Ġman": 480,
      "Ġdown": 481,
      "op": 482,
      "Ġare": 483,
      "sel": 484,
      "Ġbl": 485,
      "ĠO": 486,
      "Ġwhen": 487,
      "Ġwho": 488,
      "Ġby": 489,
      "Ġtoo": 490,
      "urn": 491,
      "Ġwant": 492,
      "Ġsm": 493,
      "Ġcom": 494,
      "ort": 495,
      "ive": 496,
      "Ġey": 497,
      "Ġjust": 498,
      "Ġagain": 499,
      "Ġsome": 500,
      "ak": 501,
      "Ġthou": 502,
      "ink": 503,
      "Ġoff": 504,
      "Ġmo": 505,
      "Ġqu": 506,
      "here": 507,
      "ine": 508,
      "'m": 509,
      "Ġthen": 510,
      "Ġget": 511,
      "Ġlo": 512,
      "Ġtime": 513,
      "ound": 514,
      "Ġbo": 515,
      "Ġtheir": 516,
      "Ġco": 517,
      "ther": 518,
      "Ġus": 519,
      "self": 520,
      "round": 521,
      "Ġmore": 522,
      "itt": 523,
      "Ġar": 524,
      "ick": 525,
      "other": 526,
      "Ġdidn": 527,
      "ure": 528,
      "ull": 529,
      "te": 530,
      "ĠK": 531,
      "led": 532,
      "Ġpo": 533,
      "pt": 534,
      "Ġtr": 535,
      "Ġhead": 536,
      "ved": 537,
      "Ġbr": 538,
      "Ġeyes": 539,
      "Ġsee": 540,
      "Ġcl": 541,
      "pped": 542,
      "ass": 543,
      "Ġsl": 544,
      "th": 545,
      "dd": 546,
      "Ġsc": 547,
      "Ġtw": 548,
      "Ġen": 549,
      "Ġdon": 550,
      "nder": 551,
      "Ġnow": 552,
      "fore": 553,
      "reat": 554,
      "ile": 555,
      "Ġsay": 556,
      "ire": 557,
      "'re": 558,
      "ĠBut": 559,
      "ĠAnd": 560,
      "Ġway": 561,
      "ade": 562,
      "Ġother": 563,
      "ear": 564,
      "nt": 565,
      "Ġthan": 566,
      "Ġwill": 567,
      "Ġpro": 568,
      "Ġpre": 569,
      "ff": 570,
      "omet": 571,
      "Ġfl": 572,
      "Ġbefore": 573,
      "ving": 574,
      "ite": 575,
      "ip": 576,
      "rough": 577,
      "ich": 578,
      "'ll": 579,
      "Ġeven": 580,
      "ity": 581,
      "Ġ.": 582,
      "Ġthrough": 583,
      "Ġthink": 584,
      "ies": 585,
      "Ġhere": 586,
      "Ġonly": 587,
      "ted": 588,
      "fter": 589,
      "Ġgr": 590,
      "Ġaround": 591,
      "ft": 592,
      "Ġturn": 593,
      "Ġthought": 594,
      "ered": 595,
      "ang": 596,
      "Ġsw": 597,
      "ward": 598,
      "Ġpr": 599,
      "ue": 600,
      "ble": 601,
      "able": 602,
      "ave": 603,
      "wn": 604,
      "Ġhow": 605,
      "Ġright": 606,
      "Ġlooked": 607,
      "ew": 608,
      "Ġthing": 609,
      "iz": 610,
      "ks": 611,
      "Ġshould": 612,
      "Ġgoing": 613,
      "Ġlong": 614,
      "Ġac": 615,
      "os": 616,
      "Ġaway": 617,
      "Ġevery": 618,
      "Ġneed": 619,
      "Ġsomet": 620,
      "Ġmu": 621,
      "Ġim": 622,
      "Ġgl": 623,
      "ect": 624,
      ".'": 625,
      "ach": 626,
      "dy": 627,
      "age": 628,
      "Ġface": 629,
      "Ġstill": 630,
      "iss": 631,
      "act": 632,
      "ened": 633,
      "Ġwat": 634,
      "ree": 635,
      "Ġdoor": 636,
      "ance": 637,
      "Ġpe": 638,
      "ough": 639,
      "Ġbec": 640,
      "ĠYou": 641,
      "Ġdis": 642,
      "thing": 643,
      "ment": 644,
      "ond": 645,
      "ting": 646,
      "ause": 647,
      "ather": 648,
      "ark": 649,
      "ath": 650,
      "Ġbet": 651,
      "ated": 652,
      "ĠThey": 653,
      "'ve": 654,
      "Ġke": 655,
      "Ġclo": 656,
      "ru": 657,
      "ittle": 658,
      "ched": 659,
      "Ġnever": 660,
      "ared": 661,
      "ber": 662,
      "Ġmade": 663,
      "ne": 664,
      "ĠTh": 665,
      "Ġsomething": 666,
      "pl": 667,
      "ose": 668,
      "Ġop": 669,
      "ious": 670,
      "Ġgot": 671,
      "Ġunder": 672,
      "Ġho": 673,
      "av": 674,
      "Ġrem": 675,
      "Ġtwo": 676,
      "ady": 677,
      "ress": 678,
      "Ġlittle": 679,
      "Ġfo": 680,
      "Ġday": 681,
      "Ġfir": 682,
      "Ġmuch": 683,
      "Ġasked": 684,
      "ning": 685,
      "air": 686,
      "ild": 687,
      "Ġafter": 688,
      "Ġwhere": 689,
      "Ġam": 690,
      "ord": 691,
      "Ġgu": 692,
      "ife": 693,
      "gg": 694,
      "Ġlet": 695,
      "Ġche": 696,
      "be": 697,
      "Ġfeel": 698,
      "aking": 699,
      "âĢ¦": 700,
      "side": 701,
      "Ġgood": 702,
      "Ġarm": 703,
      "Ġroom": 704,
      "per": 705,
      "ried": 706,
      "Ġour": 707,
      "ĠWe": 708,
      "ence": 709,
      "!\"": 710,
      "ied": 711,
      "ng": 712,
      "Ġknew": 713,
      "Ġtell": 714,
      "Ġmake": 715,
      "Ġlook": 716,
      "ĠV": 717,
      "ans": 718,
      "Ġcont": 719,
      "Ġfirst": 720,
      "ase": 721,
      "ia": 722,
      "ish": 723,
      "Ġte": 724,
      "elt": 725,
      "Ġcall": 726,
      "Ġwa": 727,
      "What": 728,
      "Ġwhich": 729,
      "Ġcome": 730,
      "Ġhas": 731,
      "Ġvo": 732,
      "ty": 733,
      "Ġcar": 734,
      "The": 735,
      "row": 736,
      "ily": 737,
      "ling": 738,
      "Ġtake": 739,
      "ud": 740,
      "Ġtook": 741,
      "Ġseem": 742,
      "Ġwom": 743,
      "ĠHis": 744,
      "Ġwasn": 745,
      "ves": 746,
      "oth": 747,
      "ook": 748,
      "uck": 749,
      "Ġapp": 750,
      "ople": 751,
      "Ġhands": 752,
      "anc": 753,
      "Ġhapp": 754,
      "Ġcame": 755,
      "Ġdes": 756,
      "sh": 757,
      "ĠIn": 758,
      "ĠThere": 759,
      "Ġown": 760,
      "ise": 761,
      "Ġturned": 762,
      "It": 763,
      "Ġnight": 764,
      "Ġagainst": 765,
      "ost": 766,
      "Ġfelt": 767,
      "Ġmom": 768,
      "Ġmight": 769,
      "ps": 770,
      "Ġspe": 771,
      "ĠCh": 772,
      "ross": 773,
      "ens": 774,
      "ful": 775,
      "Ġper": 776,
      "Ġtold": 777,
      "hes": 778,
      "Ġbecause": 779,
      "Ġtal": 780,
      "Ġleft": 781,
      "Ġsk": 782,
      "ple": 783,
      "les": 784,
      "Ġpart": 785,
      "Ġpeople": 786,
      "Ġsur": 787,
      "hy": 788,
      "Ġvery": 789,
      "Ġwal": 790,
      "ouse": 791,
      "ions": 792,
      "bb": 793,
      "fe": 794,
      "we": 795,
      "Ġput": 796,
      "Ġhel": 797,
      "Ġvoice": 798,
      "ears": 799,
      "uc": 800,
      "Ġstart": 801,
      "Ġwent": 802,
      "ĠHer": 803,
      "Ġbel": 804,
      "Ġem": 805,
      "Ġwell": 806,
      "az": 807,
      "ness": 808,
      "Ġlast": 809,
      "orm": 810,
      "Ġbeh": 811,
      "Ġmoment": 812,
      "ign": 813,
      "ah": 814,
      "Ġres": 815,
      "ary": 816,
      "Ġsec": 817,
      "Ġwanted": 818,
      "igh": 819,
      "ĠSt": 820,
      "Ġpull": 821,
      "Ġhard": 822,
      "Ġcou": 823,
      "Ġfind": 824,
      "Ġits": 825,
      "Ġcr": 826,
      "Ġold": 827,
      "Ġtry": 828,
      "Ġstr": 829,
      "owed": 830,
      "Ġenough": 831,
      "ren": 832,
      "ĠThat": 833,
      "Ġword": 834,
      "ail": 835,
      "Ġwr": 836,
      "irl": 837,
      "Ġanother": 838,
      "Ġside": 839,
      "Ġsure": 840,
      "arm": 841,
      "Ġlight": 842,
      "Ġsaw": 843,
      "Ġreal": 844,
      "get": 845,
      "Ġfew": 846,
      "Ġbeg": 847,
      "ont": 848,
      "Ġel": 849,
      "ian": 850,
      "aw": 851,
      "od": 852,
      "int": 853,
      "ons": 854,
      "xt": 855,
      "No": 856,
      "Ġatt": 857,
      "ank": 858,
      "Ġcouldn": 859,
      "ways": 860,
      "Ġwhile": 861,
      "pect": 862,
      "ory": 863,
      "Ġhelp": 864,
      "Ġbehind": 865,
      "Ġlife": 866,
      "Ġunt": 867,
      "Ġbeing": 868,
      "Ġcle": 869,
      "Ġad": 870,
      "ĠMy": 871,
      "Ġwait": 872,
      "outh": 873,
      "ĠY": 874,
      "He": 875,
      "Ġanything": 876,
      "Ġkeep": 877,
      "Ġnew": 878,
      "Ġdark": 879,
      "Ġthough": 880,
      "co": 881,
      "ned": 882,
      "Ġsn": 883,
      "Ġbody": 884,
      "ĠIf": 885,
      "ching": 886,
      ",'": 887,
      "Ġreally": 888,
      "ince": 889,
      "Ġdoes": 890,
      "Ġgirl": 891,
      "ee": 892,
      "Ġbed": 893,
      "tain": 894,
      "Ġbreat": 895,
      "Ġtoward": 896,
      "Ġnothing": 897,
      "Ġwoman": 898,
      "Ġfound": 899,
      "Ġhimself": 900,
      "Ġdr": 901,
      "?'": 902,
      "Ġthings": 903,
      "Ġmust": 904,
      "Ġend": 905,
      "Ġset": 906,
      "ĠWhen": 907,
      "ci": 908,
      "ool": 909,
      "ĠWhat": 910,
      "Ġthose": 911,
      "ever": 912,
      "Ġuntil": 913,
      "aught": 914,
      "ower": 915,
      "Ġent": 916,
      "ner": 917,
      "Ġopen": 918,
      "Ġplace": 919,
      "Ġsound": 920,
      "Ġbu": 921,
      "Ġstre": 922,
      "Ġfing": 923,
      "ĠAs": 924,
      "Ġfin": 925,
      "Ġmind": 926,
      "Ġclos": 927,
      "Ġhair": 928,
      "Ġmat": 929,
      "aybe": 930,
      "Ġste": 931,
      "Ġcour": 932,
      "Ġsil": 933,
      "iv": 934,
      "aring": 935,
      "ĠNo": 936,
      "We": 937,
      "Ġimp": 938,
      "Ġalways": 939,
      "Ġcare": 940,
      "Ġhouse": 941,
      "ors": 942,
      "Ġmen": 943,
      "rew": 944,
      "less": 945,
      "dded": 946,
      "ĠAn": 947,
      "ung": 948,
      "ĠThen": 949,
      "Ġwind": 950,
      "Ġever": 951,
      "Ġwork": 952,
      "ween": 953,
      "ier": 954,
      "Ġmost": 955,
      "Ġkill": 956,
      "Ġseemed": 957,
      "ating": 958,
      "Ġgra": 959,
      "Ġcur": 960,
      "iend": 961,
      "Ġear": 962,
      "Ġjo": 963,
      "Ġbetween": 964,
      "ised": 965,
      "Ġsame": 966,
      "Ġsmall": 967,
      "Ġsat": 968,
      "ĠU": 969,
      "Ġpass": 970,
      "Ġret": 971,
      "Ġhome": 972,
      "Ġwhy": 973,
      "Ġdec": 974,
      "Ġact": 975,
      "Ġfriend": 976,
      "Ġheard": 977,
      "Ġass": 978,
      "Ġmouth": 979,
      "ange": 980,
      "Ġdra": 981,
      "Ġyears": 982,
      "amp": 983,
      "Ġwithout": 984,
      "Ġrest": 985,
      "Ġonce": 986,
      "up": 987,
      "ings": 988,
      "And": 989,
      "Ġser": 990,
      "ream": 991,
      "most": 992,
      "Ġboth": 993,
      "Ġlooking": 994,
      "ix": 995,
      "Ġnext": 996,
      "Ġrun": 997,
      "ict": 998,
      "ub": 999,
      "Ġacross": 1000,
      "Ġrel": 1001,
      "ible": 1002,
      "ale": 1003,
      "Ġlove": 1004,
      "Ġph": 1005,
      "so": 1006,
      "Ġstand": 1007,
      "Ġmin": 1008,
      "Ġflo": 1009,
      "That": 1010,
      "Ġfront": 1011,
      "ĠThis": 1012,
      "sw": 1013,
      "Ġwall": 1014,
      "pr": 1015,
      "Ġhold": 1016,
      "ĠSo": 1017,
      "Ġheart": 1018,
      "ually": 1019,
      "Ġfather": 1020,
      "iled": 1021,
      "Ġbit": 1022,
      "Ġmother": 1023,
      "ably": 1024,
      "Ġsle": 1025,
      "alf": 1026,
      "ott": 1027,
      "bo": 1028,
      "oc": 1029,
      "ĠBe": 1030,
      "Ġstood": 1031,
      "Ġlau": 1032,
      "Ġgi": 1033,
      "Ġbre": 1034,
      "Ġcor": 1035,
      "Ġmean": 1036,
      "ĠMr": 1037,
      "Ġchild": 1038,
      "Ġgave": 1039,
      "Ġinside": 1040,
      "Ġblood": 1041,
      "ater": 1042,
      "ped": 1043,
      "Ġfam": 1044,
      "Ġbetter": 1045,
      "Ġcomp": 1046,
      "Ġsays": 1047,
      "ready": 1048,
      "ib": 1049,
      "Ġherself": 1050,
      "Th": 1051,
      "Ġhu": 1052,
      "Ġfar": 1053,
      "Ġeach": 1054,
      "Ġelse": 1055,
      "Ġdone": 1056,
      "Ġblack": 1057,
      "Ġsupp": 1058,
      "Ġthree": 1059,
      "pping": 1060,
      "Ġseen": 1061,
      "Ġbelie": 1062,
      "Ġfoll": 1063,
      "ows": 1064,
      "Ġalmost": 1065,
      "Ġob": 1066,
      "Ġkind": 1067,
      "used": 1068,
      "Ġinst": 1069,
      "Ġexp": 1070,
      "umb": 1071,
      "Ġdeep": 1072,
      "Ġalready": 1073,
      "Ġremem": 1074,
      "ĠAl": 1075,
      "Ġansw": 1076,
      "Ġmar": 1077,
      "Ġmyself": 1078,
      "Ġwater": 1079,
      "Ġgive": 1080,
      "Ġsto": 1081,
      "na": 1082,
      "Ġtrying": 1083,
      "Ġsomeone": 1084,
      "ense": 1085,
      "Yes": 1086,
      "Ġtra": 1087,
      "ult": 1088,
      "Ġmany": 1089,
      "ĠNot": 1090,
      "âĢĵ": 1091,
      "ached": 1092,
      "Ġpain": 1093,
      "Ġdif": 1094,
      "aps": 1095,
      "ĠSh": 1096,
      "ully": 1097,
      "ike": 1098,
      "ical": 1099,
      "..": 1100,
      "ger": 1101,
      "Ġfeet": 1102,
      "Ġboy": 1103,
      "iet": 1104,
      "Ġair": 1105,
      "ished": 1106,
      "der": 1107,
      "Ġdro": 1108,
      "Ġacc": 1109,
      "But": 1110,
      "Ġworld": 1111,
      "ized": 1112,
      "med": 1113,
      "Ġthese": 1114,
      "Ġunderst": 1115,
      "ĠMar": 1116,
      "ene": 1117,
      "Ġquest": 1118,
      "gether": 1119,
      "gs": 1120,
      "Ġwords": 1121,
      "ained": 1122,
      "Ġwouldn": 1123,
      "Ġpulled": 1124,
      "Ġtried": 1125,
      "Ġmet": 1126,
      "de": 1127,
      "ured": 1128,
      "Ġsecond": 1129,
      "Ġnear": 1130,
      "Ġclose": 1131,
      "Ġple": 1132,
      "Ġarms": 1133,
      "ret": 1134,
      "Ġsuch": 1135,
      "ither": 1136,
      "owing": 1137,
      "Ġgreat": 1138,
      "Ġheld": 1139,
      "ash": 1140,
      "ced": 1141,
      "Ġhalf": 1142,
      "Ġpers": 1143,
      "Ġhadn": 1144,
      "Ġdist": 1145,
      "Ġwar": 1146,
      "Ġname": 1147,
      "Ġbreath": 1148,
      "Ġint": 1149,
      "Ġcourse": 1150,
      "ently": 1151,
      "Ġhur": 1152,
      "oke": 1153,
      "cept": 1154,
      "Ġsmile": 1155,
      "iver": 1156,
      "Ġsho": 1157,
      "Ġnodded": 1158,
      "Ġgone": 1159,
      "akes": 1160,
      "Ġinc": 1161,
      "ial": 1162,
      "Ġpus": 1163,
      "Ġtou": 1164,
      "rent": 1165,
      "Ġquick": 1166,
      "ho": 1167,
      "Ġhear": 1168,
      "Ġtable": 1169,
      "mer": 1170,
      "Ġsince": 1171,
      "Ġstay": 1172,
      "ount": 1173,
      "Ġbig": 1174,
      "att": 1175,
      "Ġdoing": 1176,
      "Ġcalled": 1177,
      "inking": 1178,
      "Ġalong": 1179,
      "Ġyoung": 1180,
      "man": 1181,
      "Ġmor": 1182,
      "ying": 1183,
      "Ġhum": 1184,
      "âĢĶ\"": 1185,
      "Ġeverything": 1186,
      "Ġmon": 1187,
      "irt": 1188,
      "Ġtogether": 1189,
      "icked": 1190,
      "Ġinv": 1191,
      "ny": 1192,
      "ined": 1193,
      "Ġbegan": 1194,
      "ph": 1195,
      "Ġplay": 1196,
      "Ġdead": 1197,
      "ĠOn": 1198,
      "ual": 1199,
      "ek": 1200,
      "ĠAt": 1201,
      "dden": 1202,
      "ention": 1203,
      "ged": 1204,
      "Ġyet": 1205,
      "Ġfloor": 1206,
      "Ġfore": 1207,
      "Ġpast": 1208,
      "ane": 1209,
      "Ġstarted": 1210,
      "Ġcomm": 1211,
      "Ġbar": 1212,
      "Ġminut": 1213,
      "gged": 1214,
      "day": 1215,
      "ters": 1216,
      "eth": 1217,
      "Ġconf": 1218,
      "ason": 1219,
      "Ġreturn": 1220,
      "Ġsqu": 1221,
      "rie": 1222,
      "ition": 1223,
      "Ġhour": 1224,
      "Ġwalked": 1225,
      "ertain": 1226,
      "rest": 1227,
      "ins": 1228,
      "Ġfingers": 1229,
      "uff": 1230,
      "Ġstop": 1231,
      "ĠâĢĵ": 1232,
      "aced": 1233,
      "Ġra": 1234,
      "Ġeas": 1235,
      "Ġdri": 1236,
      "Ġfire": 1237,
      "Ġlot": 1238,
      "Ġslow": 1239,
      "Ġmove": 1240,
      "Ġposs": 1241,
      "Ġter": 1242,
      "Ġalso": 1243,
      "cc": 1244,
      "Ġaw": 1245,
      "Oh": 1246,
      "Ġleave": 1247,
      "Ġlips": 1248,
      "ĠRe": 1249,
      "ĠRo": 1250,
      "Ġrep": 1251,
      "Ġrec": 1252,
      "Ġbro": 1253,
      "Ġtalk": 1254,
      "Ġleast": 1255,
      "Ġbus": 1256,
      "idd": 1257,
      "Ġ1": 1258,
      "ired": 1259,
      "ents": 1260,
      "Ġwon": 1261,
      "Ġbad": 1262,
      "ĠHow": 1263,
      "Ġused": 1264,
      "Ġwhis": 1265,
      "ction": 1266,
      "Ġhor": 1267,
      "ering": 1268,
      "ĠFor": 1269,
      "Ġwhite": 1270,
      "Ġdoesn": 1271,
      "Ġread": 1272,
      "ately": 1273,
      "aut": 1274,
      "aken": 1275,
      "Ġstra": 1276,
      "Ġperson": 1277,
      "She": 1278,
      "Ġfall": 1279,
      "tered": 1280,
      "Ġshook": 1281,
      "ĠJo": 1282,
      "Ġide": 1283,
      "ipped": 1284,
      "Ġev": 1285,
      "Ġdays": 1286,
      "ets": 1287,
      "Ġinf": 1288,
      "Ġtre": 1289,
      "no": 1290,
      "fully": 1291,
      "ĠFr": 1292,
      "Ġcoming": 1293,
      "head": 1294,
      "bably": 1295,
      "Ġeye": 1296,
      "Ġstep": 1297,
      "ĠBr": 1298,
      "Ġunderstand": 1299,
      "Ġkiss": 1300,
      "Ġmorning": 1301,
      "Ã©": 1302,
      "Ġswe": 1303,
      "ax": 1304,
      "ars": 1305,
      "ĠDe": 1306,
      "Ġmoved": 1307,
      "Ġbest": 1308,
      "Ġask": 1309,
      "ĠAr": 1310,
      "Ġsmiled": 1311,
      "Ġinter": 1312,
      "Ġhappened": 1313,
      "Ġsim": 1314,
      "Ġsoft": 1315,
      "ĠAll": 1316,
      "Ġsoon": 1317,
      "uth": 1318,
      "Ġpol": 1319,
      "kay": 1320,
      "cked": 1321,
      "ening": 1322,
      "Ġcons": 1323,
      "Ġvis": 1324,
      "Ġred": 1325,
      "app": 1326,
      "Ġhigh": 1327,
      "Ġlist": 1328,
      "vers": 1329,
      "ations": 1330,
      "Ġgre": 1331,
      "Ġsudden": 1332,
      "Ġpress": 1333,
      "Ġbelieve": 1334,
      "Ġsleep": 1335,
      "ided": 1336,
      "ĠWith": 1337,
      "itting": 1338,
      "Ġpat": 1339,
      "Ġdiffe": 1340,
      "Ġopened": 1341,
      "ĠOr": 1342,
      "Ġes": 1343,
      "Ġpoint": 1344,
      "Ġreached": 1345,
      "its": 1346,
      "vel": 1347,
      "ift": 1348,
      "Ġins": 1349,
      "Ġkept": 1350,
      "haps": 1351,
      "So": 1352,
      "Ġstopped": 1353,
      "Ġneeded": 1354,
      "Ġref": 1355,
      "Ġlater": 1356,
      "Ġskin": 1357,
      "Ġchest": 1358,
      "Ġmag": 1359,
      "Ġpower": 1360,
      "Ġsurpr": 1361,
      "aned": 1362,
      "iness": 1363,
      "orry": 1364,
      "Ġfell": 1365,
      "Ġclear": 1366,
      "ove": 1367,
      "orn": 1368,
      "Ġdire": 1369,
      "ird": 1370,
      "Ġanyone": 1371,
      "Ġfamily": 1372,
      "Ġmaking": 1373,
      "Ġed": 1374,
      "room": 1375,
      "Ġcut": 1376,
      "aster": 1377,
      "Ġremember": 1378,
      "Ġground": 1379,
      "Ġwo": 1380,
      "Ġcontin": 1381,
      "Ġforward": 1382,
      "How": 1383,
      "Ġtight": 1384,
      "airs": 1385,
      "ĠZ": 1386,
      "Ġmiss": 1387,
      "ead": 1388,
      "Ġgetting": 1389,
      "Ġ(": 1390,
      "Ġgaz": 1391,
      "Ġinte": 1392,
      "Ġquiet": 1393,
      "ize": 1394,
      "Ġconc": 1395,
      "where": 1396,
      "Ġap": 1397,
      "ĠNow": 1398,
      "Ġcat": 1399,
      "Ġdel": 1400,
      "the": 1401,
      "Ġfull": 1402,
      "iously": 1403,
      "Ġmeet": 1404,
      "Ġmay": 1405,
      "Well": 1406,
      "Ġguy": 1407,
      "ery": 1408,
      "ister": 1409,
      "alm": 1410,
      "oney": 1411,
      "Ġreg": 1412,
      "Ġshoulder": 1413,
      "ĠGod": 1414,
      "arl": 1415,
      "Ġuse": 1416,
      "Ġexpect": 1417,
      "ards": 1418,
      "Ġidea": 1419,
      "arge": 1420,
      "Ġfact": 1421,
      "aid": 1422,
      "Ġmur": 1423,
      "Ġpres": 1424,
      "Ġcold": 1425,
      "arent": 1426,
      "ifted": 1427,
      "ime": 1428,
      "ken": 1429,
      "oud": 1430,
      "rought": 1431,
      "als": 1432,
      "Ġprobably": 1433,
      "Ġdet": 1434,
      "Ġran": 1435,
      "anced": 1436,
      "Ġsun": 1437,
      "ĠTo": 1438,
      "Ġfight": 1439,
      "ĠLe": 1440,
      "ĠâĢĶ": 1441,
      "Ġphone": 1442,
      "Ġalone": 1443,
      "mb": 1444,
      "ield": 1445,
      "Ġprot": 1446,
      "Ġneck": 1447,
      "fort": 1448,
      "io": 1449,
      "ĠâĢ¦": 1450,
      "Ġquestion": 1451,
      "Ġsign": 1452,
      "Ġmatter": 1453,
      "ĠCl": 1454,
      "Ġbrother": 1455,
      "Ġfeeling": 1456,
      "ures": 1457,
      "Ġtaken": 1458,
      "itc": 1459,
      "bbed": 1460,
      "Ġclosed": 1461,
      "Ġable": 1462,
      "ĠSe": 1463,
      "Ġcertain": 1464,
      "ued": 1465,
      "Ġexpl": 1466,
      "Do": 1467,
      "ips": 1468,
      "Ġplan": 1469,
      "Ġdress": 1470,
      "ten": 1471,
      "Ġthro": 1472,
      "ĠEl": 1473,
      "iff": 1474,
      "Ġbrought": 1475,
      "Ġperf": 1476,
      "Ġcoll": 1477,
      "Ġwhole": 1478,
      "Ġglass": 1479,
      "Ġtri": 1480,
      "Ġtop": 1481,
      "old": 1482,
      "Ġpur": 1483,
      "Ġdem": 1484,
      "unt": 1485,
      "Ġsit": 1486,
      "Ġwatched": 1487,
      "Ġonto": 1488,
      "ush": 1489,
      "ĠAfter": 1490,
      "Ġdou": 1491,
      "vered": 1492,
      "ically": 1493,
      "Ġdeath": 1494,
      "ident": 1495,
      "enty": 1496,
      "Ġlow": 1497,
      "ased": 1498,
      "ĠBl": 1499,
      "Ġhot": 1500,
      "read": 1501,
      "Ġtaking": 1502,
      "Why": 1503,
      "Ġsent": 1504,
      "Ġwrong": 1505,
      "Not": 1506,
      "uring": 1507,
      "Ġland": 1508,
      "Ġfour": 1509,
      "illed": 1510,
      "Ġsub": 1511,
      "Ġless": 1512,
      "Ġpar": 1513,
      "ump": 1514,
      "ĠDo": 1515,
      "ric": 1516,
      "Ġoutside": 1517,
      "Ġthinking": 1518,
      "Ġru": 1519,
      "ĠOne": 1520,
      "Ġstared": 1521,
      "Ġcomple": 1522,
      "ates": 1523,
      "ik": 1524,
      "Ġcaught": 1525,
      "Ġhaving": 1526,
      "Ġlost": 1527,
      "Ġlay": 1528,
      "ants": 1529,
      "Ġwonder": 1530,
      "Ġwarm": 1531,
      "eah": 1532,
      "ject": 1533,
      "Ġeither": 1534,
      "Ġdifferent": 1535,
      "Ġreason": 1536,
      "inted": 1537,
      "ey": 1538,
      "ited": 1539,
      "Ġfur": 1540,
      "Ġrepl": 1541,
      "ides": 1542,
      "Ġquite": 1543,
      "Ġcra": 1544,
      "Ġmaybe": 1545,
      "Ġroll": 1546,
      "Ġwindow": 1547,
      "If": 1548,
      "Ġbes": 1549,
      "Ġimag": 1550,
      "Ġtimes": 1551,
      "body": 1552,
      "Ġsch": 1553,
      "ape": 1554,
      "ular": 1555,
      "Ġhurt": 1556,
      "cess": 1557,
      "ison": 1558,
      "aces": 1559,
      "br": 1560,
      "Ġmus": 1561,
      "oun": 1562,
      "Ġquickly": 1563,
      "Ġshort": 1564,
      "Ġcap": 1565,
      "ames": 1566,
      "Ġfree": 1567,
      "Ġago": 1568,
      "ots": 1569,
      "Ġfinally": 1570,
      "eared": 1571,
      "Ġothers": 1572,
      "ony": 1573,
      "aving": 1574,
      "Ġfig": 1575,
      "osed": 1576,
      "Ġtalking": 1577,
      "Ġwomen": 1578,
      "irc": 1579,
      "Ġang": 1580,
      "ton": 1581,
      "Ġprom": 1582,
      "ces": 1583,
      "Ġisn": 1584,
      "land": 1585,
      "Ġwaiting": 1586,
      "ug": 1587,
      "Ġlaugh": 1588,
      "ines": 1589,
      "Ġbuild": 1590,
      "nded": 1591,
      "ĠGr": 1592,
      "iding": 1593,
      "They": 1594,
      "Ġslowly": 1595,
      "iling": 1596,
      "Ġmeant": 1597,
      "Ġanswer": 1598,
      "Ġcount": 1599,
      "Ġwood": 1600,
      "Ġburn": 1601,
      "Ġbur": 1602,
      "Ġpri": 1603,
      "Ġfre": 1604,
      "Ġexc": 1605,
      "night": 1606,
      "Ġminutes": 1607,
      "ĠQ": 1608,
      "Ġspeak": 1609,
      "anger": 1610,
      "ĠJust": 1611,
      "ĠIs": 1612,
      "Ġhell": 1613,
      "acked": 1614,
      "gn": 1615,
      "Ġthroat": 1616,
      "bed": 1617,
      "Ġbring": 1618,
      "ze": 1619,
      "Ġlegs": 1620,
      "Ġcase": 1621,
      "Ġstraight": 1622,
      "aughter": 1623,
      "ghed": 1624,
      "oll": 1625,
      "Ġresp": 1626,
      "Ġbott": 1627,
      "imes": 1628,
      "ought": 1629,
      "ina": 1630,
      "Ġunc": 1631,
      "There": 1632,
      "Ġlear": 1633,
      "Ġfoot": 1634,
      "els": 1635,
      "Ġshow": 1636,
      "Ġbreak": 1637,
      "Ġbeaut": 1638,
      "ief": 1639,
      "Ġ*": 1640,
      "Ġready": 1641,
      "Ġstanding": 1642,
      "my": 1643,
      "Ġpret": 1644,
      "Ġchair": 1645,
      "Ġhall": 1646,
      "Ġwhe": 1647,
      "anged": 1648,
      "Ġbare": 1649,
      "Ġcross": 1650,
      "Ġgaze": 1651,
      "Ġupon": 1652,
      "Ġblo": 1653,
      ".\"\"": 1654,
      "ara": 1655,
      "Ġmem": 1656,
      "Ġblue": 1657,
      "Ġsorry": 1658,
      "Ġsuddenly": 1659,
      "ĠWh": 1660,
      "Ġdam": 1661,
      "Ġstrong": 1662,
      "pered": 1663,
      "Ġstru": 1664,
      "og": 1665,
      "eks": 1666,
      "Ġhope": 1667,
      "Ġhop": 1668,
      "by": 1669,
      "ression": 1670,
      "Ġbab": 1671,
      "ĠEm": 1672,
      "Ġsense": 1673,
      "Ġkid": 1674,
      "nding": 1675,
      "Ġele": 1676,
      "Ġthr": 1677,
      "Ġadm": 1678,
      "Ġlead": 1679,
      "Ġheav": 1680,
      "ha": 1681,
      "Ġfollowed": 1682,
      "but": 1683,
      "aged": 1684,
      "ucking": 1685,
      "Ġdisc": 1686,
      "Ġsing": 1687,
      "oy": 1688,
      "Ġdef": 1689,
      "Ġmine": 1690,
      "ĠEven": 1691,
      "Ġguess": 1692,
      "Ġcol": 1693,
      "Ġwalk": 1694,
      "Ġlonger": 1695,
      "Ġeveryone": 1696,
      "Ġreco": 1697,
      "ern": 1698,
      "ĠWhy": 1699,
      "Ġind": 1700,
      "any": 1701,
      "ĠMaybe": 1702,
      "Don": 1703,
      "Ġmoney": 1704,
      "Ġbene": 1705,
      "Ġdream": 1706,
      "Ġsort": 1707,
      "Ġclot": 1708,
      "rol": 1709,
      "Ġpap": 1710,
      "ĠSome": 1711,
      "ones": 1712,
      "res": 1713,
      "Ġinterest": 1714,
      "Ġson": 1715,
      "Ġmess": 1716,
      "Ġfear": 1717,
      "Ġgen": 1718,
      "Ġcirc": 1719,
      "This": 1720,
      "Ġdisapp": 1721,
      "Ġabove": 1722,
      "Ġstepped": 1723,
      "Ġlaughed": 1724,
      "Ġexact": 1725,
      "Ġhuman": 1726,
      "Ġgiven": 1727,
      "Ġline": 1728,
      "Ġschool": 1729,
      "Ġwatching": 1730,
      "Ġlarge": 1731,
      "Ġappro": 1732,
      "Ġeff": 1733,
      "Ġfine": 1734,
      "Ġbeside": 1735,
      "Ġpretty": 1736,
      "Ġcent": 1737,
      "ndred": 1738,
      "Ġglanced": 1739,
      "Ġscream": 1740,
      "iced": 1741,
      "Ġsy": 1742,
      "apped": 1743,
      "Ġform": 1744,
      "Ġfriends": 1745,
      "Ġmonth": 1746,
      "bs": 1747,
      "arp": 1748,
      "Ġgrin": 1749,
      "Ġwatch": 1750,
      "Ġtrue": 1751,
      "Ġknown": 1752,
      "Ġhit": 1753,
      "cause": 1754,
      "Ġtrou": 1755,
      "gy": 1756,
      "Ġcry": 1757,
      "Ġdoub": 1758,
      "Ġhours": 1759,
      "Ġlooks": 1760,
      "Ġchildren": 1761,
      "ror": 1762,
      "iles": 1763,
      "Ġyes": 1764,
      "ches": 1765,
      "Ġsmell": 1766,
      "iew": 1767,
      "Ġsaying": 1768,
      "Ġcity": 1769,
      "rist": 1770,
      "Ġsitting": 1771,
      "Ġhung": 1772,
      "Ġten": 1773,
      "Ġroad": 1774,
      "ient": 1775,
      "Ġentire": 1776,
      "not": 1777,
      "ising": 1778,
      "ĠUn": 1779,
      "ĠEvery": 1780,
      "Ġpie": 1781,
      "ats": 1782,
      "Ġspoke": 1783,
      "Ġholding": 1784,
      "Ġshad": 1785,
      "Ġfinger": 1786,
      "arr": 1787,
      "Ġattention": 1788,
      "Ġcomplete": 1789,
      "aked": 1790,
      "Ġtouch": 1791,
      "cy": 1792,
      "Ġve": 1793,
      "ains": 1794,
      "Ġpassed": 1795,
      "cks": 1796,
      "isted": 1797,
      "Ġfun": 1798,
      "Ġwhispered": 1799,
      "ster": 1800,
      "Ġshut": 1801,
      "Ġdeal": 1802,
      "Ġleaned": 1803,
      "Ġrather": 1804,
      "ility": 1805,
      "itchen": 1806,
      "me": 1807,
      "Ġfive": 1808,
      "ushed": 1809,
      "Ġsus": 1810,
      "tern": 1811,
      "iful": 1812,
      "ann": 1813,
      "ement": 1814,
      "Ġsix": 1815,
      "Ġhundred": 1816,
      "Ġactually": 1817,
      "Ġrealized": 1818,
      "Ġyear": 1819,
      "erv": 1820,
      "Ġapart": 1821,
      "Ġshru": 1822,
      "Ġkitchen": 1823,
      "Ġrunning": 1824,
      "Ġarri": 1825,
      "uss": 1826,
      "Ġsens": 1827,
      "Ġslight": 1828,
      "ts": 1829,
      "Ġlive": 1830,
      "Ġperfect": 1831,
      "otion": 1832,
      "light": 1833,
      "Ġshoulders": 1834,
      "Ġsafe": 1835,
      "My": 1836,
      "Ġraised": 1837,
      "selves": 1838,
      "blem": 1839,
      "Ġkilled": 1840,
      "Ġesc": 1841,
      "Ġpushed": 1842,
      "Ġsever": 1843,
      "Ġbag": 1844,
      "Ġoffice": 1845,
      "Ġshot": 1846,
      "lex": 1847,
      "Ġliving": 1848,
      "Ġocc": 1849,
      "Ġsex": 1850,
      "Ġwife": 1851,
      "Ġchance": 1852,
      "ien": 1853,
      "Ġjob": 1854,
      "Ġir": 1855,
      "Ġtem": 1856,
      "iny": 1857,
      "Ġbusiness": 1858,
      "Ġprotect": 1859,
      "Ġgun": 1860,
      "arth": 1861,
      "raid": 1862,
      "ute": 1863,
      "Ġempt": 1864,
      "ments": 1865,
      "ists": 1866,
      "Ġwin": 1867,
      "Ġexactly": 1868,
      "ley": 1869,
      "ging": 1870,
      "Ġseveral": 1871,
      "Ġdraw": 1872,
      "Ġcho": 1873,
      "Ġtown": 1874,
      "Ġadv": 1875,
      "Ġpa": 1876,
      "aves": 1877,
      "lease": 1878,
      "ience": 1879,
      "Yeah": 1880,
      "Ġtruth": 1881,
      "Ġfast": 1882,
      "Ġaf": 1883,
      "Ġadd": 1884,
      "Ġdin": 1885,
      "Ġcreat": 1886,
      "Ġce": 1887,
      "Ġedge": 1888,
      "amed": 1889,
      "Ġbeneath": 1890,
      "zy": 1891,
      "ler": 1892,
      "Is": 1893,
      "ĠAm": 1894,
      "ili": 1895,
      "ĠWill": 1896,
      "Ġcontinued": 1897,
      "Ġdropped": 1898,
      "Ġyourself": 1899,
      "ĠAd": 1900,
      "Ġpleas": 1901,
      "Ġbook": 1902,
      "Ġround": 1903,
      "Ġcloser": 1904,
      "Ġproblem": 1905,
      "Ġlate": 1906,
      "ider": 1907,
      "ilt": 1908,
      "aining": 1909,
      "Ġtor": 1910,
      "Ä±": 1911,
      "ices": 1912,
      "Ġchange": 1913,
      "Ġext": 1914,
      "Ġworking": 1915,
      "Ġbegin": 1916,
      "Ġwond": 1917,
      "Ġstory": 1918,
      "ĠDon": 1919,
      "Ġbright": 1920,
      "antly": 1921,
      "Ġyell": 1922,
      "ĠJack": 1923,
      "ashed": 1924,
      "Ġque": 1925,
      "hel": 1926,
      "ait": 1927,
      "Ġshout": 1928,
      "ĠPer": 1929,
      "Ġla": 1930,
      "Ġcouple": 1931,
      "Ġsister": 1932,
      "Ġsilence": 1933,
      "Ġokay": 1934,
      "Ġdirect": 1935,
      "Ġcorner": 1936,
      "Ġtrust": 1937,
      "Ġexper": 1938,
      "sit": 1939,
      "ork": 1940,
      "Ġgold": 1941,
      "Ġwide": 1942,
      "Ġstreet": 1943,
      "Ġ-": 1944,
      "Ġpay": 1945,
      "Ġbaby": 1946,
      "use": 1947,
      "Ġhappy": 1948,
      "Ġwra": 1949,
      "orrow": 1950,
      "Ġmoving": 1951,
      "Ġsight": 1952,
      "Ġmagic": 1953,
      "Ġleaving": 1954,
      "Ġdecided": 1955,
      "Ġkne": 1956,
      "umber": 1957,
      "itch": 1958,
      "Ġ2": 1959,
      "Are": 1960,
      "irty": 1961,
      "Ġreturned": 1962,
      "Ġtrans": 1963,
      "Ġfucking": 1964,
      "Ġgreen": 1965,
      "Ġcrow": 1966,
      "Ġsecret": 1967,
      "ĠMrs": 1968,
      "Ġfood": 1969,
      "lf": 1970,
      "Ġcontrol": 1971,
      "ĠSu": 1972,
      "Ġwithin": 1973,
      "Ġbeautiful": 1974,
      "ities": 1975,
      "Ġdrink": 1976,
      "Ġstone": 1977,
      "Ġdie": 1978,
      "Ġpossible": 1979,
      "sy": 1980,
      "hn": 1981,
      "band": 1982,
      "ĠLord": 1983,
      "Ġreplied": 1984,
      "aim": 1985,
      "Ġbecome": 1986,
      "ask": 1987,
      "Ġpicked": 1988,
      "Ġhon": 1989,
      "Ġmakes": 1990,
      "ages": 1991,
      "Ġord": 1992,
      "Ġinform": 1993,
      "Ġthick": 1994,
      "Ġforg": 1995,
      "Ġteeth": 1996,
      "Ġperhaps": 1997,
      "ative": 1998,
      "ĠMe": 1999,
      "Ġexpression": 2000,
      "âĢ¦\"": 2001,
      "Ġrose": 2002,
      "Ġopp": 2003,
      "Ġav": 2004,
      "unk": 2005,
      "oul": 2006,
      "unch": 2007,
      "Ġsword": 2008,
      "olo": 2009,
      "Ġstud": 2010,
      "Ġfilled": 2011,
      "Ġsharp": 2012,
      "Ġknows": 2013,
      "Ġdied": 2014,
      "ipp": 2015,
      "ĠPr": 2016,
      "cial": 2017,
      "arrow": 2018,
      "Ġlifted": 2019,
      "ooks": 2020,
      "Ġworked": 2021,
      "ĠMa": 2022,
      "Ġstom": 2023,
      "aled": 2024,
      "Ġaff": 2025,
      "Ġled": 2026,
      "ma": 2027,
      "ances": 2028,
      "yond": 2029,
      "Ġseat": 2030,
      "ator": 2031,
      "Ġtoday": 2032,
      "Ġimport": 2033,
      "Ġcre": 2034,
      "Ġsky": 2035,
      "rief": 2036,
      "Ġwondered": 2037,
      "Ġsweet": 2038,
      "Ġclothes": 2039,
      "ighed": 2040,
      "Ġclim": 2041,
      "Ġtwenty": 2042,
      "how": 2043,
      "Ġsupposed": 2044,
      "Ġdanger": 2045,
      "Ġwaited": 2046,
      "Ġabs": 2047,
      "Ġparent": 2048,
      "Ġafraid": 2049,
      "Ġinstead": 2050,
      "gan": 2051,
      "Ġfuck": 2052,
      "ĠHar": 2053,
      "Ġnews": 2054,
      "Ġstrange": 2055,
      "ories": 2056,
      "Ġnearly": 2057,
      "Ġign": 2058,
      "Ġempty": 2059,
      "let": 2060,
      "ĠTw": 2061,
      "Ġnice": 2062,
      "Ġsear": 2063,
      "acing": 2064,
      "son": 2065,
      "iddle": 2066,
      "Ġheavy": 2067,
      "aint": 2068,
      "Ġcoff": 2069,
      "though": 2070,
      "Ġwhatever": 2071,
      "Ġbox": 2072,
      "Ġpict": 2073,
      "Ġtong": 2074,
      "Ġstro": 2075,
      "medi": 2076,
      "Ġdesk": 2077,
      "Ġhus": 2078,
      "Ġsett": 2079,
      "Ġweek": 2080,
      "Ġsold": 2081,
      "Ġspr": 2082,
      "Ġserv": 2083,
      "sed": 2084,
      "ĠDan": 2085,
      "ert": 2086,
      "ĠSc": 2087,
      "Ġpock": 2088,
      "Ġeat": 2089,
      "ĠSam": 2090,
      "Ġgri": 2091,
      "umped": 2092,
      "ific": 2093,
      "Ġgrow": 2094,
      "ĠLuc": 2095,
      "Ġfrown": 2096,
      "Ġmist": 2097,
      "Ġshirt": 2098,
      "Ġca": 2099,
      "Ġgas": 2100,
      "Ġleg": 2101,
      "Ġstaring": 2102,
      "mm": 2103,
      "zz": 2104,
      "Ġstri": 2105,
      "Ġhang": 2106,
      "ĠSomet": 2107,
      "ude": 2108,
      "rupt": 2109,
      "Ġbuilding": 2110,
      "ship": 2111,
      "iam": 2112,
      "ĠDr": 2113,
      "Ġloved": 2114,
      "Ġstuff": 2115,
      "ĠCar": 2116,
      "atur": 2117,
      "ald": 2118,
      "Ġcrowd": 2119,
      "gr": 2120,
      "ply": 2121,
      "Ġguard": 2122,
      "lin": 2123,
      "Ġpaper": 2124,
      "bered": 2125,
      "Ġwalls": 2126,
      "Ġdoubt": 2127,
      "Ġpointed": 2128,
      "ified": 2129,
      "Ġconvers": 2130,
      "Ġhappen": 2131,
      "Ġorder": 2132,
      "Be": 2133,
      "Ġmut": 2134,
      "aded": 2135,
      "Ġsmo": 2136,
      "ctor": 2137,
      "Ġpolice": 2138,
      "ĠCon": 2139,
      "rand": 2140,
      "ney": 2141,
      "Ġgrabbed": 2142,
      "Ġgirls": 2143,
      "itted": 2144,
      "yn": 2145,
      "Ġtonight": 2146,
      "Ġeasy": 2147,
      "Ġcomfort": 2148,
      "Ġchar": 2149,
      "Ġwish": 2150,
      "oof": 2151,
      "Ġbecame": 2152,
      "Ġking": 2153,
      "Ġpressed": 2154,
      "Ġlim": 2155,
      "Ġclean": 2156,
      "Ġworry": 2157,
      "eral": 2158,
      "Ġtears": 2159,
      "Ġrecogn": 2160,
      "Ġnose": 2161,
      "Ġstomach": 2162,
      "ĠNe": 2163,
      "Ġsighed": 2164,
      "ues": 2165,
      "Ġfa": 2166,
      "Ġappeared": 2167,
      "ract": 2168,
      "Ġbeyond": 2169,
      "Ġshall": 2170,
      "ai": 2171,
      "Ġdep": 2172,
      "Ġmount": 2173,
      "ĠSp": 2174,
      "Ġparents": 2175,
      "iting": 2176,
      "Ġnoticed": 2177,
      "Ġgrand": 2178,
      "Ġtongue": 2179,
      "Ġcoun": 2180,
      "Did": 2181,
      "Ġimmedi": 2182,
      "like": 2183,
      "ital": 2184,
      "ĠTr": 2185,
      "Ġsol": 2186,
      "Ġdest": 2187,
      "Ġoffic": 2188,
      "hered": 2189,
      "add": 2190,
      "sing": 2191,
      "Ġamong": 2192,
      "ky": 2193,
      "ĠJohn": 2194,
      "Ġhaven": 2195,
      "Ġtrees": 2196,
      "Ġagre": 2197,
      "Ġnumber": 2198,
      "...": 2199,
      "Ġhusband": 2200,
      "Ġspot": 2201,
      "Ġobv": 2202,
      "reen": 2203,
      "Ġsteps": 2204,
      "Ġmonths": 2205,
      "Ġcast": 2206,
      "Ġill": 2207,
      "Ġtelling": 2208,
      "ored": 2209,
      "icking": 2210,
      "Ġloc": 2211,
      "Ġdaughter": 2212,
      "Ġconv": 2213,
      "Ġknees": 2214,
      "Then": 2215,
      "Ġshrugged": 2216,
      "Ġremind": 2217,
      "Ġsimply": 2218,
      "attle": 2219,
      "ior": 2220,
      "Ġfigure": 2221,
      "Ġduring": 2222,
      "empt": 2223,
      "Ġmir": 2224,
      "Ġthoughts": 2225,
      "Ġsurprised": 2226,
      "Ġadded": 2227,
      "Ġer": 2228,
      "Ġwalking": 2229,
      "ousand": 2230,
      "Ġoften": 2231,
      "eng": 2232,
      "Ġship": 2233,
      "Ġbell": 2234,
      "Ġthemselves": 2235,
      "!'": 2236,
      "Ġanyway": 2237,
      "ĠChrist": 2238,
      "Ġsingle": 2239,
      "ucked": 2240,
      "Let": 2241,
      "Ġgro": 2242,
      "oss": 2243,
      "Ġspace": 2244,
      "Ġz": 2245,
      "ision": 2246,
      "Ġmed": 2247,
      "Ġshit": 2248,
      "Ġgiving": 2249,
      "Ġbarely": 2250,
      "Ġcarry": 2251,
      "Ġdev": 2252,
      "Ġtall": 2253,
      "Ġhorse": 2254,
      "Ġnarrow": 2255,
      "erm": 2256,
      "Ġje": 2257,
      "orth": 2258,
      "Ġmiddle": 2259,
      "Ġcoffee": 2260,
      "ĠMiss": 2261,
      "ĠAlex": 2262,
      "umbled": 2263,
      "idence": 2264,
      "Ġchanged": 2265,
      "Ġble": 2266,
      "Ġseeing": 2267,
      "ĠKing": 2268,
      "ggest": 2269,
      "Ġmain": 2270,
      "Ġitself": 2271,
      "Ġweren": 2272,
      "Ġremembered": 2273,
      "Ġgrou": 2274,
      "Ġenj": 2275,
      "ics": 2276,
      "inc": 2277,
      "Ġtrouble": 2278,
      "Ġcompletely": 2279,
      "ote": 2280,
      "ron": 2281,
      "Ġloud": 2282,
      "Ġbroken": 2283,
      "ĠJe": 2284,
      "rence": 2285,
      "Ġspent": 2286,
      "Ġturning": 2287,
      "Ġsuggest": 2288,
      "Ġcover": 2289,
      "Ġanswered": 2290,
      "ĠBy": 2291,
      "sc": 2292,
      "Ġexcept": 2293,
      "Ġart": 2294,
      "Ġkey": 2295,
      "ĠKe": 2296,
      "Ġball": 2297,
      "ails": 2298,
      "ĠDid": 2299,
      "Ġpick": 2300,
      "Ġcomes": 2301,
      "Ġalive": 2302,
      "Ġahead": 2303,
      "Ġforce": 2304,
      "Ġliked": 2305,
      "Ġsilent": 2306,
      "Ġfinished": 2307,
      "ĠQu": 2308,
      "idge": 2309,
      "Ġwearing": 2310,
      "Ġrolled": 2311,
      "Ġstret": 2312,
      "Ġenc": 2313,
      "ĠPe": 2314,
      "Ġminute": 2315,
      "ob": 2316,
      "teen": 2317,
      "Ġimportant": 2318,
      "aped": 2319,
      "Ġthousand": 2320,
      "Ġdrive": 2321,
      "ĠOh": 2322,
      "ĠWas": 2323,
      "ĠNew": 2324,
      "Ġwound": 2325,
      "Ġcop": 2326,
      "Ġpath": 2327,
      "Ġknowing": 2328,
      "Ġtowards": 2329,
      "Where": 2330,
      "more": 2331,
      "Ġbath": 2332,
      "Ġmeans": 2333,
      "Ġspread": 2334,
      "Ġlit": 2335,
      "Ġaccept": 2336,
      "Ġcalm": 2337,
      "ature": 2338,
      "ills": 2339,
      "ĠWell": 2340,
      "Ġtouched": 2341,
      "Ġattack": 2342,
      "ris": 2343,
      "esh": 2344,
      "Ġthreat": 2345,
      "Ġthin": 2346,
      "Ġmis": 2347,
      "Ġevening": 2348,
      "Ġlie": 2349,
      "lic": 2350,
      "orted": 2351,
      "Ġring": 2352,
      "Ġlaw": 2353,
      "Ġstu": 2354,
      "Ġweap": 2355,
      "Ġconversation": 2356,
      "Ġfav": 2357,
      "Ġdrew": 2358,
      "Ġeng": 2359,
      "ming": 2360,
      "Ġreach": 2361,
      "Ġdarkness": 2362,
      "ander": 2363,
      "Ġcovered": 2364,
      "Good": 2365,
      "Ġquestions": 2366,
      "Ġpriv": 2367,
      "tering": 2368,
      "Ġslightly": 2369,
      "Ġfif": 2370,
      "Ġwants": 2371,
      "Ġcheek": 2372,
      "ampire": 2373,
      "Ġones": 2374,
      "Ġsal": 2375,
      "Ġpartic": 2376,
      "nds": 2377,
      "Ġhesit": 2378,
      "Ġpos": 2379,
      "Ġsir": 2380,
      "illy": 2381,
      "Who": 2382,
      "anks": 2383,
      "Ġtast": 2384,
      "Ġprep": 2385,
      "Ġdemand": 2386,
      "yl": 2387,
      "Ġur": 2388,
      "Ġsounded": 2389,
      "Ġcond": 2390,
      "Ġris": 2391,
      "af": 2392,
      "Ġplease": 2393,
      "Ġsick": 2394,
      "upid": 2395,
      "ĠPet": 2396,
      "rible": 2397,
      "Ġwet": 2398,
      "Ġstairs": 2399,
      "Ġwild": 2400,
      "Ġfoc": 2401,
      "Ġfair": 2402,
      "Ġpaused": 2403,
      "ael": 2404,
      "Ġda": 2405,
      "Ġexpected": 2406,
      "Ġanim": 2407,
      "Ġpract": 2408,
      "Ġthrow": 2409,
      "Ġdrag": 2410,
      "cially": 2411,
      "Ġseems": 2412,
      "Ġslid": 2413,
      "In": 2414,
      "Ġwhether": 2415,
      "ives": 2416,
      "Ġsurprise": 2417,
      "Ġview": 2418,
      "ĠDad": 2419,
      "Ġund": 2420,
      "Ġfollow": 2421,
      "ĠEd": 2422,
      "ius": 2423,
      "ges": 2424,
      "aching": 2425,
      "ĠFin": 2426,
      "Ġearly": 2427,
      "osp": 2428,
      "ett": 2429,
      "ously": 2430,
      "ole": 2431,
      "Ġpack": 2432,
      "Ġworse": 2433,
      "Ġrequ": 2434,
      "Ġtone": 2435,
      "Ġsomewhere": 2436,
      "Ġimmediately": 2437,
      "Ġcell": 2438,
      "ining": 2439,
      "ping": 2440,
      "Ġscr": 2441,
      "Ġself": 2442,
      "aul": 2443,
      "ination": 2444,
      "bbing": 2445,
      "Ġtow": 2446,
      "Ġcab": 2447,
      "zen": 2448,
      "Ġpocket": 2449,
      "Ġflat": 2450,
      "Ġbroke": 2451,
      "fic": 2452,
      "Ġrock": 2453,
      "Ġmanaged": 2454,
      "aff": 2455,
      "Ġweeks": 2456,
      "ĠMag": 2457,
      "Ġcompl": 2458,
      "Ġswall": 2459,
      "hys": 2460,
      "nect": 2461,
      "ĠLike": 2462,
      "que": 2463,
      "amb": 2464,
      "uct": 2465,
      "Ġquietly": 2466,
      "Ġgod": 2467,
      "Ġbow": 2468,
      "ĠLet": 2469,
      "men": 2470,
      "ibly": 2471,
      "All": 2472,
      "Ġlived": 2473,
      "Ġgent": 2474,
      "Ġposition": 2475,
      "Ġfle": 2476,
      "Just": 2477,
      "udd": 2478,
      "Ġcannot": 2479,
      "Ġclass": 2480,
      "Ġpan": 2481,
      "cious": 2482,
      "Ġmention": 2483,
      "Ġtiny": 2484,
      "cri": 2485,
      "Ġprof": 2486,
      "cl": 2487,
      "Ġdoors": 2488,
      "Ġluck": 2489,
      "Ġpen": 2490,
      "Ġbrief": 2491,
      "Ġpiece": 2492,
      "Ġtom": 2493,
      "ER": 2494,
      "aven": 2495,
      "Ġeight": 2496,
      "Ġmusc": 2497,
      "Ġdirection": 2498,
      "pecially": 2499,
      "ury": 2500,
      "ana": 2501,
      "aling": 2502,
      "Your": 2503,
      "ĠJul": 2504,
      "yed": 2505,
      "Ġest": 2506,
      "Ġdinner": 2507,
      "Ġdistance": 2508,
      "Ġbelow": 2509,
      "gging": 2510,
      "olf": 2511,
      "Ġmad": 2512,
      "ĠYour": 2513,
      "ĠTom": 2514,
      "Ġsometimes": 2515,
      "iliar": 2516,
      "alk": 2517,
      "Ġcatch": 2518,
      "Ġbottom": 2519,
      "Ġpub": 2520,
      "Ġinformation": 2521,
      "cking": 2522,
      "ĠGe": 2523,
      "Ġcock": 2524,
      "Ġphot": 2525,
      "top": 2526,
      "Ġtree": 2527,
      "Ġvan": 2528,
      "oring": 2529,
      "Ġblank": 2530,
      "Ġgest": 2531,
      "vent": 2532,
      "oned": 2533,
      "ex": 2534,
      "ĠMor": 2535,
      "Ġconst": 2536,
      "oming": 2537,
      "rig": 2538,
      "Ġheat": 2539,
      "Ġrain": 2540,
      "ooking": 2541,
      "ety": 2542,
      "Ġnorm": 2543,
      "Ġpun": 2544,
      "Ġlying": 2545,
      "Ġemb": 2546,
      "ressed": 2547,
      "Ġbra": 2548,
      "Ġfail": 2549,
      "Ġproper": 2550,
      "Ġarrived": 2551,
      "Ġdisco": 2552,
      "Ġstreng": 2553,
      "Ġdry": 2554,
      "Ġstrugg": 2555,
      "Ġstupid": 2556,
      "Ġweak": 2557,
      "Ġsuff": 2558,
      "Ġshowed": 2559,
      "Ġvisit": 2560,
      "ĠÃ": 2561,
      "Ġdi": 2562,
      "Ġbedroom": 2563,
      "Ġsoftly": 2564,
      "idden": 2565,
      "Ġdesp": 2566,
      "Ġknife": 2567,
      "bby": 2568,
      "ica": 2569,
      "Ġbrown": 2570,
      "Ġcas": 2571,
      "fer": 2572,
      "Ġinde": 2573,
      "Ġhuge": 2574,
      "Ġglad": 2575,
      "Ġmurm": 2576,
      "Ġforced": 2577,
      "vern": 2578,
      "iers": 2579,
      "Okay": 2580,
      "Ġtest": 2581,
      "Ġfly": 2582,
      "Ġvampire": 2583,
      "Ġfold": 2584,
      "Ġpalm": 2585,
      "aur": 2586,
      "Ġworth": 2587,
      "Now": 2588,
      "Ġgently": 2589,
      "Ġhide": 2590,
      "Ġcool": 2591,
      "Ġdog": 2592,
      "Ġma": 2593,
      "Ġpale": 2594,
      "Ġsoul": 2595,
      "ager": 2596,
      "Ġangry": 2597,
      "Ġwore": 2598,
      "ishing": 2599,
      "Ġkissed": 2600,
      "Ġtired": 2601,
      "Ġlady": 2602,
      "Ġhers": 2603,
      "Ġspir": 2604,
      "aning": 2605,
      "Ġearth": 2606,
      "Ġthrew": 2607,
      "enn": 2608,
      "When": 2609,
      "Ġcarefully": 2610,
      "gu": 2611,
      "Ġgrew": 2612,
      "ĠGu": 2613,
      "ĠOnce": 2614,
      "ĠOf": 2615,
      "Ġcheck": 2616,
      "Ġriver": 2617,
      "ession": 2618,
      "ively": 2619,
      "Ġgroup": 2620,
      "Ġdiffic": 2621,
      "pper": 2622,
      "Ġfield": 2623,
      "noon": 2624,
      "Ġweight": 2625,
      "Ġsea": 2626,
      "Ġmass": 2627,
      "Ġfurther": 2628,
      "Ġattempt": 2629,
      "Ġaren": 2630,
      "Ġpresent": 2631,
      "ĠFrom": 2632,
      "Ġpulling": 2633,
      "ries": 2634,
      "Ġforget": 2635,
      "Ġnone": 2636,
      "ĠInst": 2637,
      "ocked": 2638,
      "Ġtakes": 2639,
      "ume": 2640,
      "Ġcarried": 2641,
      "Ġsilver": 2642,
      "Ġbreast": 2643,
      "Ġnod": 2644,
      "Ġcup": 2645,
      "irst": 2646,
      "Ġpleasure": 2647,
      "Ġmeeting": 2648,
      "Ġmer": 2649,
      "alth": 2650,
      "Ġage": 2651,
      "Ġspl": 2652,
      "Ġrepe": 2653,
      "kes": 2654,
      "Ġgame": 2655,
      "Ġmid": 2656,
      "Of": 2657,
      "ĠWho": 2658,
      "Ġty": 2659,
      "roll": 2660,
      "Ġterr": 2661,
      "Ġears": 2662,
      "Ġ19": 2663,
      "ĠCom": 2664,
      "Ġcried": 2665,
      "Ġwrapped": 2666,
      "Ġgray": 2667,
      "Ġslipped": 2668,
      "Ġanger": 2669,
      "Ġmemory": 2670,
      "Ġaware": 2671,
      "Ġbeat": 2672,
      "Ġsquee": 2673,
      "Ġdamn": 2674,
      "rey": 2675,
      "Ġsurv": 2676,
      "Ġanymore": 2677,
      "Ġexam": 2678,
      "rid": 2679,
      "Ġodd": 2680,
      "rel": 2681,
      "miss": 2682,
      "action": 2683,
      "ived": 2684,
      "Come": 2685,
      "cted": 2686,
      "acks": 2687,
      "Ġstrength": 2688,
      "Ġlearned": 2689,
      "uation": 2690,
      "Ġallowed": 2691,
      "Ġsnow": 2692,
      "Ġnote": 2693,
      "Ġworried": 2694,
      "Ġvill": 2695,
      "une": 2696,
      "Ġasking": 2697,
      "?\"\"": 2698,
      "Ġequ": 2699,
      "Ġstat": 2700,
      "Ġearl": 2701,
      "Ġparticular": 2702,
      "ingly": 2703,
      "Ġagreed": 2704,
      "Ġcamp": 2705,
      "Ġcommand": 2706,
      "Ġpot": 2707,
      "Ġglo": 2708,
      "Ġlives": 2709,
      "Ġenjoy": 2710,
      "cho": 2711,
      "atch": 2712,
      "Ġhar": 2713,
      "Ġconnect": 2714,
      "Ġbooks": 2715,
      "ils": 2716,
      "mmer": 2717,
      "iol": 2718,
      "Ġgentle": 2719,
      "owers": 2720,
      "Ġtomorrow": 2721,
      "Ġstare": 2722,
      "uke": 2723,
      "Ġsand": 2724,
      "Ġimagine": 2725,
      "Ġsounds": 2726,
      "Ġspo": 2727,
      "Ġsend": 2728,
      "Ġafternoon": 2729,
      "ians": 2730,
      "ĠAng": 2731,
      "Ġplaced": 2732,
      "Ġincl": 2733,
      "Ġchoice": 2734,
      "well": 2735,
      "Ġsuppose": 2736,
      "ÂŃ": 2737,
      "Ġfool": 2738,
      "ock": 2739,
      "Ġsad": 2740,
      "Ġguys": 2741,
      "Ġbattle": 2742,
      "ayed": 2743,
      "ena": 2744,
      "go": 2745,
      "ĠEll": 2746,
      "Ġboys": 2747,
      "Ġcertainly": 2748,
      "Ġsave": 2749,
      "Ġappear": 2750,
      "Ġlip": 2751,
      "attered": 2752,
      "usted": 2753,
      "Ġfut": 2754,
      "Sh": 2755,
      "Ġcrossed": 2756,
      "iel": 2757,
      "ĠCharl": 2758,
      "Ġarea": 2759,
      "Ġreve": 2760,
      "Ġparty": 2761,
      "Ġtu": 2762,
      "ĠPro": 2763,
      "Ġclearly": 2764,
      "Ġcountry": 2765,
      "ises": 2766,
      "pected": 2767,
      "ĠBar": 2768,
      "Ġprov": 2769,
      "Ġfirm": 2770,
      "zed": 2771,
      "Ġwindows": 2772,
      "Ġflesh": 2773,
      "Ġglance": 2774,
      "Ġremained": 2775,
      "Ġinn": 2776,
      "Ġinvol": 2777,
      "Ġdesper": 2778,
      "Ġlad": 2779,
      "Ġchin": 2780,
      "ĠBecause": 2781,
      "Ġwine": 2782,
      "ĠTwo": 2783,
      "using": 2784,
      "Can": 2785,
      "tend": 2786,
      "Thank": 2787,
      "ĠEng": 2788,
      "Ġmusic": 2789,
      "Ġeyeb": 2790,
      "urch": 2791,
      "Ġkeeping": 2792,
      "Ġaside": 2793,
      "Ġbir": 2794,
      "ipping": 2795,
      "Ġfix": 2796,
      "ĠOnly": 2797,
      "Ġoffered": 2798,
      "come": 2799,
      "ancing": 2800,
      "Ġsomehow": 2801,
      "acy": 2802,
      "Ġsurround": 2803,
      "Ġolder": 2804,
      "Ġrece": 2805,
      "Ġlap": 2806,
      "Ġjer": 2807,
      "itely": 2808,
      "Ġdad": 2809,
      "orge": 2810,
      "Ġtreat": 2811,
      "Ġnotice": 2812,
      "ĠWhere": 2813,
      "Ġfresh": 2814,
      "Ġserious": 2815,
      "Ġgoes": 2816,
      "Ġkids": 2817,
      "ĠFl": 2818,
      "Ġjaw": 2819,
      "Ġhun": 2820,
      "cing": 2821,
      "Ġsurf": 2822,
      "ae": 2823,
      "Ġmil": 2824,
      "Ġcompany": 2825,
      "Ġcourt": 2826,
      "ledge": 2827,
      "inct": 2828,
      "leep": 2829,
      "ĠDav": 2830,
      "Ġshaking": 2831,
      "ĠPerhaps": 2832,
      "Ġclaim": 2833,
      "illing": 2834,
      "Ġbeginning": 2835,
      "Ġsnapped": 2836,
      "Ġfamiliar": 2837,
      "Ġbas": 2838,
      "Ġdressed": 2839,
      "arden": 2840,
      "ĠAny": 2841,
      "Ġplaying": 2842,
      "Ġhowever": 2843,
      "ĠLady": 2844,
      "Ġenem": 2845,
      "ism": 2846,
      "Ġwhose": 2847,
      "Ġeffort": 2848,
      "Ġlocked": 2849,
      "Ġmetal": 2850,
      "Ġcheeks": 2851,
      "Maybe": 2852,
      "Ġeasily": 2853,
      "va": 2854,
      "Ġapartment": 2855,
      "Ġobs": 2856,
      "Ġant": 2857,
      "Ġtalked": 2858,
      "usion": 2859,
      "00": 2860,
      "val": 2861,
      "Ġsimple": 2862,
      "Ġpoor": 2863,
      "ĠSomething": 2864,
      "Ġlikely": 2865,
      "Ġavo": 2866,
      "Ġrid": 2867,
      "Ġnerv": 2868,
      "Ġlights": 2869,
      "Ġcam": 2870,
      "ora": 2871,
      "Ġpicture": 2872,
      "ĠAmer": 2873,
      "Ġstick": 2874,
      "Ġlab": 2875,
      "itten": 2876,
      "Ġhoped": 2877,
      "Ġcloud": 2878,
      "Ġgotten": 2879,
      "Ġpost": 2880,
      "Ġthigh": 2881,
      "Ġstayed": 2882,
      "Ġwaist": 2883,
      "stairs": 2884,
      "cher": 2885,
      "str": 2886,
      "ĠSte": 2887,
      "Ġseconds": 2888,
      "ĠMer": 2889,
      "for": 2890,
      "Ġentered": 2891,
      "isf": 2892,
      "Ġsigh": 2893,
      "ĠAg": 2894,
      "ĠPh": 2895,
      "Ġmurder": 2896,
      "Ġearlier": 2897,
      "omed": 2898,
      "Ġhate": 2899,
      "Ġgrinned": 2900,
      "Ġbull": 2901,
      "Ġtoss": 2902,
      "Ġmoon": 2903,
      "Ġlearn": 2904,
      "bl": 2905,
      "Ġusing": 2906,
      "Ġhelped": 2907,
      "Ġeyebrow": 2908,
      "Ġcolor": 2909,
      "Ġbod": 2910,
      "Ġfavor": 2911,
      "Ġgets": 2912,
      "Ġjud": 2913,
      "stem": 2914,
      "Ġleather": 2915,
      "Ġfrowned": 2916,
      "Ġpromise": 2917,
      "Ġphys": 2918,
      "that": 2919,
      "Ġbrain": 2920,
      "ÃŃ": 2921,
      "Ġport": 2922,
      "Ġ.\"": 2923,
      "Ġthird": 2924,
      "Ġsuit": 2925,
      "Ġprison": 2926,
      "Ġice": 2927,
      "Ġjack": 2928,
      "Ġpin": 2929,
      "HE": 2930,
      "Ġshouted": 2931,
      "Ġsuper": 2932,
      "uly": 2933,
      "Ġcenter": 2934,
      "Ġpair": 2935,
      "Ġemer": 2936,
      "Ġvict": 2937,
      "Ġpound": 2938,
      "Ġver": 2939,
      "ye": 2940,
      "Ġbreathing": 2941,
      "Ġspell": 2942,
      "Ġlower": 2943,
      "Ġexplain": 2944,
      "Ġlose": 2945,
      "Ġsmiling": 2946,
      "Ġrecord": 2947,
      "Ġbird": 2948,
      "asm": 2949,
      "wh": 2950,
      "Ġneeds": 2951,
      "Ġrad": 2952,
      "Ġlevel": 2953,
      "Ġscar": 2954,
      "Ġexplo": 2955,
      "As": 2956,
      "inal": 2957,
      "Ġforest": 2958,
      "velo": 2959,
      "ama": 2960,
      "Ġden": 2961,
      "Ġmark": 2962,
      "Ġdifficult": 2963,
      "olog": 2964,
      "rod": 2965,
      "Ġpersonal": 2966,
      "ospital": 2967,
      "Ġgar": 2968,
      "Ġinvest": 2969,
      "Ġfollowing": 2970,
      "Ġreport": 2971,
      "era": 2972,
      "ĠHad": 2973,
      "Ġsituation": 2974,
      "St": 2975,
      "ĠMom": 2976,
      "Ġmotion": 2977,
      "Ġheaded": 2978,
      "bert": 2979,
      "Ġeffect": 2980,
      "Ġthank": 2981,
      "Ġdeser": 2982,
      "ĠYes": 2983,
      "Ġlaid": 2984,
      "Ġhanded": 2985,
      "arently": 2986,
      "Ġbal": 2987,
      "set": 2988,
      "ĠBen": 2989,
      "Ġband": 2990,
      "Ġmarried": 2991,
      "Ġforehead": 2992,
      "hood": 2993,
      "par": 2994,
      "Ġarg": 2995,
      "riage": 2996,
      "inn": 2997,
      "ĠCan": 2998,
      "gen": 2999,
      "Ġshouldn": 3000,
      "Ġsmoke": 3001,
      "otten": 3002,
      "Ġstudy": 3003,
      "Ġbelong": 3004,
      "Ġspecial": 3005,
      "bor": 3006,
      "Ġbottle": 3007,
      "inked": 3008,
      "Ġtun": 3009,
      "che": 3010,
      "yal": 3011,
      "ĠBefore": 3012,
      "Ġdiscuss": 3013,
      "pic": 3014,
      "you": 3015,
      "elle": 3016,
      "igg": 3017,
      "ĠCo": 3018,
      "Ġslam": 3019,
      "Ġviol": 3020,
      "Ġarr": 3021,
      "Ġmot": 3022,
      "van": 3023,
      "asion": 3024,
      "Ġrelax": 3025,
      "Ġalthough": 3026,
      "Ġprop": 3027,
      "Ġsweat": 3028,
      "now": 3029,
      "sidered": 3030,
      "Ġsettled": 3031,
      "Ġshadow": 3032,
      "Ġoffer": 3033,
      "Ġfuture": 3034,
      "ĠStill": 3035,
      "Hey": 3036,
      "ĠMan": 3037,
      "Ġdoctor": 3038,
      "Ġletting": 3039,
      "ifting": 3040,
      "Ġlisten": 3041,
      "ushing": 3042,
      "Ġcrazy": 3043,
      "Ġshoot": 3044,
      "aret": 3045,
      "line": 3046,
      "For": 3047,
      "Ġfighting": 3048,
      "und": 3049,
      "ĠCol": 3050,
      "ĠGo": 3051,
      "cil": 3052,
      "ĠEx": 3053,
      "Ġwear": 3054,
      "Ġburst": 3055,
      "Ġunderstood": 3056,
      "Ġteam": 3057,
      "ĠMo": 3058,
      "ĠAb": 3059,
      "Ġdrop": 3060,
      "Ġmere": 3061,
      "Ġwhisper": 3062,
      "ĠHen": 3063,
      "ĠPl": 3064,
      "Ġstate": 3065,
      "Ġdust": 3066,
      "ĠTheir": 3067,
      "Ġhist": 3068,
      "Ġhat": 3069,
      "oured": 3070,
      "aming": 3071,
      "Ġnormal": 3072,
      "uit": 3073,
      "aire": 3074,
      "Ġexplained": 3075,
      "Ġfalling": 3076,
      "Ġfit": 3077,
      "ration": 3078,
      "Ġstar": 3079,
      "Ġcru": 3080,
      "Ġimposs": 3081,
      "ope": 3082,
      "Ġusual": 3083,
      "Ġescape": 3084,
      "Ġhips": 3085,
      "ĠOl": 3086,
      "Ġrealize": 3087,
      "Ġfro": 3088,
      "Ġfaint": 3089,
      "Ġhardly": 3090,
      "Ġconsidered": 3091,
      "Ġspec": 3092,
      "Ġdestro": 3093,
      "Ġener": 3094,
      "Ġconsider": 3095,
      "anted": 3096,
      "Ġsystem": 3097,
      "astic": 3098,
      "Ġways": 3099,
      "yr": 3100,
      "Ġasks": 3101,
      "Ġdrove": 3102,
      "Ġdear": 3103,
      "Ġnor": 3104,
      "Ġcounter": 3105,
      "Ġdefe": 3106,
      "Ġcollect": 3107,
      "Ġbathroom": 3108,
      "rap": 3109,
      "Ġevent": 3110,
      "ept": 3111,
      "Ġgener": 3112,
      "Ġpal": 3113,
      "ĠInstead": 3114,
      "ades": 3115,
      "Ã¼": 3116,
      "Ġdesire": 3117,
      "lish": 3118,
      "Ġtele": 3119,
      "Ġhandle": 3120,
      "acher": 3121,
      "ĠNothing": 3122,
      "ading": 3123,
      "bing": 3124,
      "Ġcontact": 3125,
      "olute": 3126,
      "Ġplaces": 3127,
      "lock": 3128,
      "Ġstation": 3129,
      "aine": 3130,
      "Ġdangerous": 3131,
      "oint": 3132,
      "Ġgrass": 3133,
      "Ġtot": 3134,
      "Ġnoise": 3135,
      "umed": 3136,
      "ength": 3137,
      "Ġcand": 3138,
      "bit": 3139,
      "Ġshop": 3140,
      "Ġmissing": 3141,
      "ls": 3142,
      "Ġdim": 3143,
      "Ġespecially": 3144,
      "ĠCap": 3145,
      "ses": 3146,
      "olly": 3147,
      "Ġrespond": 3148,
      "ĠSim": 3149,
      "ĠMary": 3150,
      "Ġgh": 3151,
      "Ġusually": 3152,
      "Ġbent": 3153,
      "Ġpresence": 3154,
      "ĠSar": 3155,
      "Ġfaces": 3156,
      "acted": 3157,
      "ring": 3158,
      "ashing": 3159,
      "Ġblind": 3160,
      "Ġmuttered": 3161,
      "Ġthirty": 3162,
      "Ġmessage": 3163,
      "Ġjour": 3164,
      "Ġlock": 3165,
      "rian": 3166,
      "Ġuns": 3167,
      "Ġrele": 3168,
      "ĠDar": 3169,
      "orses": 3170,
      "Ġroof": 3171,
      "Ġtea": 3172,
      "amn": 3173,
      "Ġcoat": 3174,
      "atic": 3175,
      "Ġfil": 3176,
      "ding": 3177,
      "Ġentr": 3178,
      "Ġhospital": 3179,
      "ĠSl": 3180,
      "Because": 3181,
      "ĠMc": 3182,
      "izing": 3183,
      "urity": 3184,
      "Ġstore": 3185,
      "Ġterrible": 3186,
      "yle": 3187,
      "ĠTe": 3188,
      "Ġhoping": 3189,
      "Ġbelieved": 3190,
      "Ġprod": 3191,
      "Ġchuck": 3192,
      "Ġbuy": 3193,
      "what": 3194,
      "Ġburned": 3195,
      "Ġturns": 3196,
      "Ġride": 3197,
      "Ġnecess": 3198,
      "Ġemp": 3199,
      "oose": 3200,
      "Ġgrim": 3201,
      "Ġstorm": 3202,
      "Ġcalling": 3203,
      "right": 3204,
      "Ġpeace": 3205,
      "Ġunf": 3206,
      "ĠRich": 3207,
      "Ġcrack": 3208,
      "Ġrough": 3209,
      "Ġ3": 3210,
      "reg": 3211,
      "Ġbodies": 3212,
      "Ġshadows": 3213,
      "nde": 3214,
      "unity": 3215,
      "Ġsatisf": 3216,
      "Ġpu": 3217,
      "Ġmaster": 3218,
      "Ġbound": 3219,
      "ĠGab": 3220,
      "Ġguards": 3221,
      "Ġstruck": 3222,
      "Ġwel": 3223,
      "Ġmirror": 3224,
      "Ġrelief": 3225,
      "onna": 3226,
      "Ġfright": 3227,
      "Ġjumped": 3228,
      "Ġfem": 3229,
      "athered": 3230,
      "ral": 3231,
      "Ġtruck": 3232,
      "Ġgrip": 3233,
      "Ġstuck": 3234,
      "atter": 3235,
      "Ġpill": 3236,
      "atural": 3237,
      "omp": 3238,
      "cent": 3239,
      "Ġdisappeared": 3240,
      "Ġhanging": 3241,
      "Ġbusy": 3242,
      "Ġdefin": 3243,
      "Ġletter": 3244,
      "Ġpublic": 3245,
      "ĠBo": 3246,
      "Ġpor": 3247,
      "Ġopening": 3248,
      "Ġspeaking": 3249,
      "Ġann": 3250,
      "Ġreading": 3251,
      "mp": 3252,
      "Ġsurface": 3253,
      "Ġmissed": 3254,
      "ms": 3255,
      "Ġpurp": 3256,
      "Ġappre": 3257,
      "Ġfort": 3258,
      "Ġloose": 3259,
      "Ġputting": 3260,
      "ĠMore": 3261,
      "ĠMart": 3262,
      "icated": 3263,
      "ague": 3264,
      "asing": 3265,
      "ution": 3266,
      "het": 3267,
      "Ġprivate": 3268,
      "Ġsoldiers": 3269,
      "ĠSm": 3270,
      "Ġdescri": 3271,
      "Ġgate": 3272,
      "ka": 3273,
      "rage": 3274,
      "ĠMich": 3275,
      "Ġlord": 3276,
      "asy": 3277,
      "Ġnaked": 3278,
      "Ġhonest": 3279,
      "Ġpush": 3280,
      "Ġwondering": 3281,
      "Ġmach": 3282,
      "rit": 3283,
      "Ġut": 3284,
      "inting": 3285,
      "ners": 3286,
      "Ġmoments": 3287,
      "house": 3288,
      "Ġwhom": 3289,
      "Ġpowerful": 3290,
      "eless": 3291,
      "reet": 3292,
      "wise": 3293,
      "Ġhorses": 3294,
      "Ġlaughing": 3295,
      "frie": 3296,
      "Ġsucc": 3297,
      "Ġrespect": 3298,
      "Ġwit": 3299,
      "Ġasleep": 3300,
      "Ġscreen": 3301,
      "Ġquar": 3302,
      "view": 3303,
      "uce": 3304,
      "Ġmurmured": 3305,
      "--": 3306,
      "Ġsmooth": 3307,
      "Ġlistening": 3308,
      "Ġshock": 3309,
      "Ġyours": 3310,
      "IN": 3311,
      "een": 3312,
      "ĠAsh": 3313,
      "cle": 3314,
      "Ġyellow": 3315,
      "Ġscent": 3316,
      "Ġmill": 3317,
      "Ġimm": 3318,
      "alt": 3319,
      "Ġsummer": 3320,
      "Ġstiff": 3321,
      "inging": 3322,
      "Ġwed": 3323,
      "ests": 3324,
      "Ġleaves": 3325,
      "Ġthumb": 3326,
      "ĠAre": 3327,
      "Ġscared": 3328,
      "Ġforth": 3329,
      "ella": 3330,
      "ĠJames": 3331,
      "board": 3332,
      "Ġvar": 3333,
      "Ġrelation": 3334,
      "Ġtrick": 3335,
      "Ġaut": 3336,
      "Ġblade": 3337,
      "Ġshare": 3338,
      "Ġgrowing": 3339,
      "port": 3340,
      "Ġbear": 3341,
      "onse": 3342,
      "Ġtaste": 3343,
      "Ġcareful": 3344,
      "ibility": 3345,
      "Ġremo": 3346,
      "ij": 3347,
      "Ġhidden": 3348,
      "Ġlines": 3349,
      "Ġimpossible": 3350,
      "lyn": 3351,
      "__": 3352,
      "ĠDes": 3353,
      "Ġwip": 3354,
      "eding": 3355,
      "Ġdeterm": 3356,
      "Ġpop": 3357,
      "Ġended": 3358,
      "Ġneigh": 3359,
      "Ġobject": 3360,
      "Ġfallen": 3361,
      "Ġcard": 3362,
      "Go": 3363,
      "ĠPaul": 3364,
      "Ġwilling": 3365,
      "Ġwished": 3366,
      "Ġburning": 3367,
      "Ch": 3368,
      "Ġneither": 3369,
      "ĠFather": 3370,
      "work": 3371,
      "iot": 3372,
      "Ġfat": 3373,
      "ĠPat": 3374,
      "Ġident": 3375,
      "Please": 3376,
      "roud": 3377,
      "Ġtwisted": 3378,
      "Ġrul": 3379,
      "Ġshifted": 3380,
      "Ġune": 3381,
      "Ġwid": 3382,
      "oph": 3383,
      "Ġboat": 3384,
      "ĠGer": 3385,
      "amber": 3386,
      "ium": 3387,
      "angu": 3388,
      "Ġdiv": 3389,
      "Ġenergy": 3390,
      "ancy": 3391,
      "Ġvol": 3392,
      "Ġforever": 3393,
      "kin": 3394,
      "Ġsleeping": 3395,
      "Ġpaid": 3396,
      "Ġgift": 3397,
      "la": 3398,
      "Ġbirth": 3399,
      "izz": 3400,
      "Ã³": 3401,
      "On": 3402,
      "vie": 3403,
      "Ġheads": 3404,
      "Ġdig": 3405,
      "Ġdru": 3406,
      "Ġscene": 3407,
      "form": 3408,
      "Ġfinal": 3409,
      "Ġdoorway": 3410,
      "Ġfeels": 3411,
      "Ġdemon": 3412,
      "ench": 3413,
      "Ġwooden": 3414,
      "Ġcu": 3415,
      "ables": 3416,
      "Ġtruly": 3417,
      "Ġpink": 3418,
      "Ġoppos": 3419,
      "Ġextra": 3420,
      "Ġjacket": 3421,
      "ĠRy": 3422,
      "ĠMad": 3423,
      "Ġlength": 3424,
      "ooked": 3425,
      "rem": 3426,
      "ays": 3427,
      "ounced": 3428,
      "ĠCal": 3429,
      "ĠMal": 3430,
      "Ġwave": 3431,
      "Ġsubject": 3432,
      "Ġtent": 3433,
      "Ġcig": 3434,
      "Ġdut": 3435,
      "Ġnorth": 3436,
      "Ġswallowed": 3437,
      "fast": 3438,
      "Ġrefle": 3439,
      "ese": 3440,
      "ĠEr": 3441,
      "Ġshape": 3442,
      "Ġgarden": 3443,
      "Ġplayed": 3444,
      "ĠDavid": 3445,
      "Ġwaved": 3446,
      "essed": 3447,
      "wood": 3448,
      "Ġshake": 3449,
      "Ġrepeated": 3450,
      "ĠNick": 3451,
      "Ġharm": 3452,
      "Ġclub": 3453,
      "Ġamaz": 3454,
      "Ġseven": 3455,
      "Ġdelic": 3456,
      "gar": 3457,
      "Ġforgotten": 3458,
      "Ġexperience": 3459,
      "ys": 3460,
      "Ġclimbed": 3461,
      "vin": 3462,
      "Ġcabin": 3463,
      "Ġid": 3464,
      "Ġinvestig": 3465,
      "ĠMost": 3466,
      "Ġtrain": 3467,
      "ĠHel": 3468,
      "Ġinterrupt": 3469,
      "Ġbother": 3470,
      "off": 3471,
      "oot": 3472,
      "eled": 3473,
      "Ġordered": 3474,
      "ĠâĢ": 3475,
      "ĠSil": 3476,
      "arrass": 3477,
      "Ġborn": 3478,
      "itched": 3479,
      "Ġnumb": 3480,
      "Ġobviously": 3481,
      "Ġemotion": 3482,
      "Ġbuilt": 3483,
      "Ġecho": 3484,
      "ĠKate": 3485,
      "Ġrespons": 3486,
      "Ġsides": 3487,
      "Ġclut": 3488,
      "ĠDra": 3489,
      "Ġiron": 3490,
      "Ġcreature": 3491,
      "Ġnur": 3492,
      "Ġhated": 3493,
      "Ġfought": 3494,
      "eping": 3495,
      "ĠSir": 3496,
      "Ġshoes": 3497,
      "Ġcapt": 3498,
      "Ġval": 3499,
      "Ġpul": 3500,
      "Ġallow": 3501,
      "Ġwake": 3502,
      "Ġarmy": 3503,
      "ĠMatt": 3504,
      "Ġblinked": 3505,
      "rop": 3506,
      "Ġobvious": 3507,
      "ĠAnother": 3508,
      "Ġthrust": 3509,
      "ns": 3510,
      "Ġbroad": 3511,
      "Re": 3512,
      "Ġreminded": 3513,
      "eling": 3514,
      "tended": 3515,
      "ĠMichael": 3516,
      "ĠGood": 3517,
      "ĠX": 3518,
      "dom": 3519,
      "Ġindeed": 3520,
      "she": 3521,
      "Ġhappening": 3522,
      "Ġsong": 3523,
      "Ġentirely": 3524,
      "ented": 3525,
      "uced": 3526,
      "ĠVal": 3527,
      "Ġnervous": 3528,
      "ental": 3529,
      "ĠSer": 3530,
      "Ġhole": 3531,
      "Ġregard": 3532,
      "nie": 3533,
      "Ġharder": 3534,
      "Ġevidence": 3535,
      "Ġboard": 3536,
      "anging": 3537,
      "Ġconcer": 3538,
      "Ġprocess": 3539,
      "rench": 3540,
      "Ġsupport": 3541,
      "ĠMel": 3542,
      "Ġgonna": 3543,
      "yer": 3544,
      "ivers": 3545,
      "Ġcouch": 3546,
      "Ġhy": 3547,
      "rer": 3548,
      "Ġghost": 3549,
      "Ġtrack": 3550,
      "Ġtear": 3551,
      "Ġstretched": 3552,
      "ĠCam": 3553,
      "Ġresponse": 3554,
      "Ġblow": 3555,
      "Ġdirectly": 3556,
      "ta": 3557,
      "Ġthinks": 3558,
      "Ġjump": 3559,
      "Ġspend": 3560,
      "Ġspeed": 3561,
      "Ġanywhere": 3562,
      "ilar": 3563,
      "Ġweapon": 3564,
      "Ġtwice": 3565,
      "Ġfinding": 3566,
      "ĠThom": 3567,
      "Ġentrance": 3568,
      "Ġlowered": 3569,
      "ĠBlack": 3570,
      "Ah": 3571,
      "Ġrubbed": 3572,
      "Ġvillage": 3573,
      "Ġjoin": 3574,
      "Ġembarrass": 3575,
      "Ġpray": 3576,
      "Ġdoll": 3577,
      "cer": 3578,
      "Ġcircle": 3579,
      "Ġadmit": 3580,
      "Ġknowledge": 3581,
      "Ġcraw": 3582,
      "Ġnon": 3583,
      "cient": 3584,
      "Ġflash": 3585,
      "Ġscreamed": 3586,
      "Ġfarm": 3587,
      "ids": 3588,
      "Ġelb": 3589,
      "Ġtens": 3590,
      "do": 3591,
      "Ġsuspic": 3592,
      "ĠWhile": 3593,
      "Ġboots": 3594,
      "ĠJon": 3595,
      "Ġtremb": 3596,
      "ĠGl": 3597,
      "Ġcomb": 3598,
      "Ġcause": 3599,
      "ĠQue": 3600,
      "urred": 3601,
      "Ġstarting": 3602,
      "ĠCor": 3603,
      "Ġwrist": 3604,
      "ette": 3605,
      "apter": 3606,
      "Ġwarning": 3607,
      "Ġsearch": 3608,
      "ondon": 3609,
      "ĠMax": 3610,
      "Ġconcern": 3611,
      "Ġdemanded": 3612,
      "Ġlift": 3613,
      "Ġvision": 3614,
      "Ġrap": 3615,
      "asc": 3616,
      "alled": 3617,
      "Ġinclud": 3618,
      "Look": 3619,
      "Ġrising": 3620,
      "Ġpet": 3621,
      "Ġhistory": 3622,
      "Ġprec": 3623,
      "ĠÂ": 3624,
      "Ġcomput": 3625,
      "omfort": 3626,
      "Ġpurpose": 3627,
      "Ġrisk": 3628,
      "Ġaccount": 3629,
      "Ġdance": 3630,
      "Ġswung": 3631,
      "ĠMac": 3632,
      "Ġinterested": 3633,
      "ĠMaster": 3634,
      "ican": 3635,
      "Ġpromised": 3636,
      "Ġsize": 3637,
      "Ġdespite": 3638,
      "ĠMay": 3639,
      "Ġcommon": 3640,
      "Ġlangu": 3641,
      "Ġsne": 3642,
      "Ġlistened": 3643,
      "Ġexist": 3644,
      "Ġdragon": 3645,
      "ouses": 3646,
      "atched": 3647,
      "anda": 3648,
      "agged": 3649,
      "Ġpieces": 3650,
      "Ġstories": 3651,
      "Ġchecked": 3652,
      "ption": 3653,
      "ec": 3654,
      "Ġoccasion": 3655,
      "ĠHenry": 3656,
      "Ġinvolved": 3657,
      "Ġcleared": 3658,
      "EN": 3659,
      "inary": 3660,
      "ham": 3661,
      "Ġwanting": 3662,
      "Ġperfectly": 3663,
      "awn": 3664,
      "Ġtravel": 3665,
      "Ġtip": 3666,
      "Ġpushing": 3667,
      "Ġcarrying": 3668,
      "friend": 3669,
      "ĠCr": 3670,
      "ĠChar": 3671,
      "Ġcorre": 3672,
      "Ġimage": 3673,
      "Tell": 3674,
      "ĠThough": 3675,
      "Ġgrown": 3676,
      "Ġchurch": 3677,
      "Ġrese": 3678,
      "uthor": 3679,
      "Ġpants": 3680,
      "Ġanx": 3681,
      "ato": 3682,
      "ĠLondon": 3683,
      "itude": 3684,
      "Ġgathered": 3685,
      "Ġcost": 3686,
      "Ġsepar": 3687,
      "Ġsecurity": 3688,
      "eps": 3689,
      "ios": 3690,
      "Ġagree": 3691,
      "ĠFrank": 3692,
      "Ġlaughter": 3693,
      "Ġfist": 3694,
      "Ġdisp": 3695,
      "Ġstreets": 3696,
      "ĠOur": 3697,
      "Ġnames": 3698,
      "Ġceiling": 3699,
      "anna": 3700,
      "ipe": 3701,
      "Ġdetect": 3702,
      "Ġapproached": 3703,
      "aly": 3704,
      "igned": 3705,
      "ĠYet": 3706,
      "jor": 3707,
      "Ġlunch": 3708,
      "Ġshower": 3709,
      "allen": 3710,
      "Ġslept": 3711,
      "ov": 3712,
      "Ġsour": 3713,
      "ĠMother": 3714,
      "Ġpant": 3715,
      "Ġwarri": 3716,
      "Ġtrave": 3717,
      "under": 3718,
      "ĠAdam": 3719,
      "Ġdrawn": 3720,
      "Ġsouth": 3721,
      "Ġinnoc": 3722,
      "Ġhallway": 3723,
      "Ġstir": 3724,
      "omb": 3725,
      "ational": 3726,
      "Have": 3727,
      "Ġenemy": 3728,
      "ivered": 3729,
      "Ġmiles": 3730,
      "Ġappreci": 3731,
      "oman": 3732,
      "Ġcrying": 3733,
      "Ġdozen": 3734,
      "Ġtrail": 3735,
      "Ġmovement": 3736,
      "Ġlung": 3737,
      "Ġvictim": 3738,
      "terday": 3739,
      "Ġcolle": 3740,
      "sion": 3741,
      "Ġet": 3742,
      "ulous": 3743,
      "Ġgather": 3744,
      "Ġbase": 3745,
      "Ġopposite": 3746,
      "agger": 3747,
      "Ġbreasts": 3748,
      "omin": 3749,
      "ĠFinally": 3750,
      "itor": 3751,
      "Ġbloody": 3752,
      "Ġsquare": 3753,
      "Ġanimal": 3754,
      "lessly": 3755,
      "Ġrum": 3756,
      "ĠWhich": 3757,
      "Ġabsolute": 3758,
      "Ġleaning": 3759,
      "raw": 3760,
      "Ã¡": 3761,
      "rated": 3762,
      "Ġinj": 3763,
      "ceed": 3764,
      "raph": 3765,
      "ground": 3766,
      "ĠHigh": 3767,
      "Ġstudied": 3768,
      "Ġinstant": 3769,
      "ON": 3770,
      "Ġcust": 3771,
      "oles": 3772,
      "Ġworst": 3773,
      "ĠJes": 3774,
      "ĠWould": 3775,
      "Ġhesitated": 3776,
      "Ġplate": 3777,
      "Ġpleased": 3778,
      "Ġtrip": 3779,
      "of": 3780,
      "ĠWar": 3781,
      "Ġhig": 3782,
      "Ġreply": 3783,
      "Ġrub": 3784,
      "key": 3785,
      "Ġrooms": 3786,
      "Ġfault": 3787,
      "Ġexha": 3788,
      "Ġsteady": 3789,
      "Ġfocus": 3790,
      "Ġjeans": 3791,
      "Ġpool": 3792,
      "uch": 3793,
      "fl": 3794,
      "Ġdriver": 3795,
      "bel": 3796,
      "ĠRed": 3797,
      "Ġgut": 3798,
      "gl": 3799,
      "Ġbuck": 3800,
      "An": 3801,
      "Ġjoined": 3802,
      "Ġhill": 3803,
      "Ġwitness": 3804,
      "Ġqueen": 3805,
      "Ġbelly": 3806,
      "ux": 3807,
      "Ġoper": 3808,
      "Ġcompan": 3809,
      "Ġdefinitely": 3810,
      "Ġmuscles": 3811,
      "Ġbones": 3812,
      "Ġkilling": 3813,
      "Ġhotel": 3814,
      "Ġcorrid": 3815,
      "Ġlar": 3816,
      "Ġgras": 3817,
      "Ġrare": 3818,
      "incess": 3819,
      "Ġhiding": 3820,
      "apping": 3821,
      "ument": 3822,
      "To": 3823,
      "Ġcharge": 3824,
      "Ġdepart": 3825,
      "ĠEn": 3826,
      "ker": 3827,
      "Ġrecognized": 3828,
      "ĠPar": 3829,
      "Ġrich": 3830,
      "Ġyounger": 3831,
      "ĠHouse": 3832,
      "arily": 3833,
      "Ġwritten": 3834,
      "time": 3835,
      "Ġmort": 3836,
      "ĠJen": 3837,
      "Ġfeelings": 3838,
      "Ġaffect": 3839,
      "ĠCaptain": 3840,
      "ĠThese": 3841,
      "Ġrelationship": 3842,
      "Ġshield": 3843,
      "ĠPlease": 3844,
      "Ġspirit": 3845,
      "ĠPo": 3846,
      "Ġbought": 3847,
      "ĠHere": 3848,
      "zing": 3849,
      "ston": 3850,
      "Ġye": 3851,
      "achel": 3852,
      "Ġbeast": 3853,
      "ĠTal": 3854,
      "Ġcomfortable": 3855,
      "Ġbreakfast": 3856,
      "pse": 3857,
      "ĠJan": 3858,
      "ĠTHE": 3859,
      "wards": 3860,
      "umbling": 3861,
      "Ġgreet": 3862,
      "Ġhost": 3863,
      "ĠEnglish": 3864,
      "Ġconcent": 3865,
      "Ġdiscovered": 3866,
      "ĠKat": 3867,
      "ensive": 3868,
      "ĠJess": 3869,
      "Ġclen": 3870,
      "Ġproud": 3871,
      "ĠBes": 3872,
      "riel": 3873,
      "Ġgle": 3874,
      "Ġpossibly": 3875,
      "Ġbeer": 3876,
      "Ġelect": 3877,
      "Ġsuggested": 3878,
      "ĠPeter": 3879,
      "Ġcal": 3880,
      "ache": 3881,
      "Ġtech": 3882,
      "ĠLou": 3883,
      "Ġdying": 3884,
      "Ġevil": 3885,
      "Ġalarm": 3886,
      "Ġregret": 3887,
      "ball": 3888,
      "ĠSw": 3889,
      "Any": 3890,
      "Ġgolden": 3891,
      "Ġfigured": 3892,
      "Ġhearing": 3893,
      "Ġunless": 3894,
      "eg": 3895,
      "Ġdecision": 3896,
      "athan": 3897,
      "iving": 3898,
      "ĠYork": 3899,
      "Ġwoods": 3900,
      "ĠHarry": 3901,
      "Ġprepared": 3902,
      "Ġcigaret": 3903,
      "Ġtar": 3904,
      "ĠMark": 3905,
      "Ġweapons": 3906,
      "Ġshudd": 3907,
      "Ġmemories": 3908,
      "Ġfish": 3909,
      "ĠJoe": 3910,
      "erson": 3911,
      "Ġplain": 3912,
      "Ġcaptain": 3913,
      "Ġcurrent": 3914,
      "Ġbite": 3915,
      "Ġservice": 3916,
      "Ġbetr": 3917,
      "nel": 3918,
      "ĠCharlie": 3919,
      "ĠQueen": 3920,
      "AN": 3921,
      "Ġhurried": 3922,
      "Ġauthor": 3923,
      "Ġdragged": 3924,
      "Ġiss": 3925,
      "Ġdate": 3926,
      "ille": 3927,
      "Ġmale": 3928,
      "Ġshel": 3929,
      "Ġwrite": 3930,
      "Ġnature": 3931,
      "Ġknee": 3932,
      "Ġunable": 3933,
      "hand": 3934,
      "Ġdriving": 3935,
      "Ġprefer": 3936,
      "isa": 3937,
      "ĠAngel": 3938,
      "Ġfully": 3939,
      "Ġdreams": 3940,
      "iant": 3941,
      "Ġaud": 3942,
      "ĠMir": 3943,
      "Ġconcerned": 3944,
      "Ġinstru": 3945,
      "Ġwings": 3946,
      "ĠGeorge": 3947,
      "den": 3948,
      "Ġcrew": 3949,
      "Ġcontinue": 3950,
      "Ġimagined": 3951,
      "arch": 3952,
      "Ġtossed": 3953,
      "ias": 3954,
      "Ġvoices": 3955,
      "Ġstars": 3956,
      "ĠDel": 3957,
      "Ġsac": 3958,
      "inger": 3959,
      "Ġnamed": 3960,
      "Get": 3961,
      "Ġstaff": 3962,
      "ki": 3963,
      "Ex": 3964,
      "Ġdrawing": 3965,
      "Ġnecessary": 3966,
      "Ġcalls": 3967,
      "Ġprotest": 3968,
      "Ġfeat": 3969,
      "racted": 3970,
      "Ġpsy": 3971,
      "Ġwis": 3972,
      "Ġslo": 3973,
      "Ġskirt": 3974,
      "ially": 3975,
      "Ġshift": 3976,
      "ĠRose": 3977,
      "ĠJim": 3978,
      "Ġfinish": 3979,
      "Ġrefused": 3980,
      "Ġdirt": 3981,
      "Ġhom": 3982,
      "pes": 3983,
      "Ġorig": 3984,
      "Ġmel": 3985,
      "Ġremoved": 3986,
      "Ġisland": 3987,
      "Ġexch": 3988,
      "Ġopport": 3989,
      "Ġgrab": 3990,
      "ÅŁ": 3991,
      "Ġeasier": 3992,
      "elve": 3993,
      "Ġmistake": 3994,
      "Ġbast": 3995,
      "AR": 3996,
      "Ġapparently": 3997,
      "ales": 3998,
      "ĠSomeone": 3999,
      "rom": 4000,
      "Ġglim": 4001,
      "Ġaccident": 4002,
      "Sure": 4003,
      "ded": 4004,
      "Ġclaw": 4005,
      "Ġgasped": 4006,
      "Ġgives": 4007,
      "ĠClaire": 4008,
      "Ġfier": 4009,
      "Ġmood": 4010,
      "Ġmostly": 4011,
      "unted": 4012,
      "ĠThomas": 4013,
      "Ġbank": 4014,
      "Ġhappens": 4015,
      "Ġfolded": 4016,
      "iber": 4017,
      "Ġtext": 4018,
      "Ġfaster": 4019,
      "Ġsuccess": 4020,
      "ĠSarah": 4021,
      "Ġrout": 4022,
      "ĠGrand": 4023,
      "Ġsumm": 4024,
      "ĠAnna": 4025,
      "Ġwand": 4026,
      "Ġkicked": 4027,
      "Ġsell": 4028,
      "Ġpassing": 4029,
      "ĠNic": 4030,
      "wo": 4031,
      "itary": 4032,
      "Ġworks": 4033,
      "Ġdispl": 4034,
      "Ġofficer": 4035,
      "antic": 4036,
      "Ġaband": 4037,
      "Ġignored": 4038,
      "Ġbrow": 4039,
      "min": 4040,
      "ĠWithout": 4041,
      "ĠGrace": 4042,
      "Ġadj": 4043,
      "Ġyesterday": 4044,
      "Ġeating": 4045,
      "ĠEverything": 4046,
      "Ġthighs": 4047,
      "Ġgovern": 4048,
      "Ġavoid": 4049,
      "Ġremain": 4050,
      "Ġdirty": 4051,
      "reme": 4052,
      "annah": 4053,
      "Ġcomputer": 4054,
      "One": 4055,
      "ãģ": 4056,
      "Ġbat": 4057,
      "ĠEve": 4058,
      "Ġmod": 4059,
      "ĠIm": 4060,
      "Ġfol": 4061,
      "Ġmountain": 4062,
      "alley": 4063,
      "Ġfifty": 4064,
      "Ġflew": 4065,
      "Ġancient": 4066,
      "Ġlocal": 4067,
      "Ġwinter": 4068,
      "Ġdouble": 4069,
      "Ġfunny": 4070,
      "ĠMon": 4071,
      "ĠPeople": 4072,
      "osen": 4073,
      "Ġdrunk": 4074,
      "ĠEliz": 4075,
      "Ġfailed": 4076,
      "Ġweird": 4077,
      "Ġperform": 4078,
      "Ġspoken": 4079,
      "Ġorders": 4080,
      "Ġreleased": 4081,
      "mo": 4082,
      "Ġanno": 4083,
      "Ġsolid": 4084,
      "ule": 4085,
      "Ġrang": 4086,
      "Ġrise": 4087,
      "Ġ4": 4088,
      "con": 4089,
      "icks": 4090,
      "ffic": 4091,
      "Ġtail": 4092,
      "ante": 4093,
      "Ġlucky": 4094,
      "ĠRichard": 4095,
      "ember": 4096,
      "Ġgrave": 4097,
      "Ġsmart": 4098,
      "Ġdeeply": 4099,
      "ify": 4100,
      "Ġdecide": 4101,
      "Ġbelt": 4102,
      "Ġsaf": 4103,
      "Ġmerely": 4104,
      "mother": 4105,
      "Ġnatural": 4106,
      "Ġhungry": 4107,
      "Ġmix": 4108,
      "ĠStreet": 4109,
      "Ġsink": 4110,
      "ĠJam": 4111,
      "Ġtied": 4112,
      "Sorry": 4113,
      "Ġlibr": 4114,
      "abeth": 4115,
      "Ġgods": 4116,
      "Ġbridge": 4117,
      "nal": 4118,
      "Ġtightly": 4119,
      "Ġshowing": 4120,
      "Ġplans": 4121,
      "looking": 4122,
      "Ġinh": 4123,
      "Ġwolf": 4124,
      "ugg": 4125,
      "Ġeager": 4126,
      "Ġbreathe": 4127,
      "Ġconfused": 4128,
      "Al": 4129,
      "Ġbitter": 4130,
      "Ġbrushed": 4131,
      "Ġflight": 4132,
      "gie": 4133,
      "Ġscra": 4134,
      "ĠEveryone": 4135,
      "ival": 4136,
      "Ġshoved": 4137,
      "aper": 4138,
      "aker": 4139,
      "Ġincre": 4140,
      "Ġgrate": 4141,
      "iment": 4142,
      "Ġburied": 4143,
      "Ġrush": 4144,
      "aches": 4145,
      "Ġfrust": 4146,
      "ĠFirst": 4147,
      "Ġprev": 4148,
      "Ġpolit": 4149,
      "asure": 4150,
      "Ġwrote": 4151,
      "ĠInd": 4152,
      "Ġwoke": 4153,
      "isters": 4154,
      "Ġscreaming": 4155,
      "Ġrev": 4156,
      "Ġobl": 4157,
      "Ġpour": 4158,
      "ĠCome": 4159,
      "por": 4160,
      "Ġgeneral": 4161,
      "ĠTy": 4162,
      "Thanks": 4163,
      "Ġbreaking": 4164,
      "Ġhumans": 4165,
      "Ġshared": 4166,
      "Ġsqueezed": 4167,
      "Some": 4168,
      "Ġsaved": 4169,
      "ires": 4170,
      "Ġbrothers": 4171,
      "Ġner": 4172,
      "mas": 4173,
      "Ġmarry": 4174,
      "Ġupset": 4175,
      "Ġleading": 4176,
      "iform": 4177,
      "Ġban": 4178,
      "ĠThose": 4179,
      "ints": 4180,
      "ita": 4181,
      "Ġawake": 4182,
      "Ġdeeper": 4183,
      "hew": 4184,
      "Ġflying": 4185,
      "Ġengine": 4186,
      "Ġfemale": 4187,
      "Ġmeaning": 4188,
      "ĠSometimes": 4189,
      "ĠKell": 4190,
      "asons": 4191,
      "ĠOther": 4192,
      "icle": 4193,
      "Ġfaded": 4194,
      "Ġaddress": 4195,
      "ique": 4196,
      "olt": 4197,
      "ĠOut": 4198,
      "Ġadmitted": 4199,
      "ĠFrench": 4200,
      "Ġincred": 4201,
      "Ġleap": 4202,
      "ites": 4203,
      "Ġpiss": 4204,
      "ĠBel": 4205,
      "Ġglasses": 4206,
      "Ġfifteen": 4207,
      "Ġcurled": 4208,
      "ĠHall": 4209,
      "Ġamb": 4210,
      "ality": 4211,
      "Ġpanic": 4212,
      "Ġpapers": 4213,
      "OR": 4214,
      "erry": 4215,
      "Ġinstinct": 4216,
      "Ġmemb": 4217,
      "Ġthanks": 4218,
      "Ġbringing": 4219,
      "iction": 4220,
      "lle": 4221,
      "kward": 4222,
      "Ġphotog": 4223,
      "ĠRa": 4224,
      "Ġslammed": 4225,
      "Ġinteresting": 4226,
      "ashion": 4227,
      "Ġknocked": 4228,
      "aks": 4229,
      "ata": 4230,
      "ĠCass": 4231,
      "Ġresult": 4232,
      "Ġbul": 4233,
      "Ġnearby": 4234,
      "Or": 4235,
      "ĠBet": 4236,
      "ocking": 4237,
      "Ġwriting": 4238,
      "ĠMarc": 4239,
      "ano": 4240,
      "Ġdare": 4241,
      "Ġblock": 4242,
      "Ġchamber": 4243,
      "iana": 4244,
      "urs": 4245,
      "Ġjourney": 4246,
      "Ġmarriage": 4247,
      "Ġcaused": 4248,
      "**": 4249,
      "Ġglow": 4250,
      "erved": 4251,
      "Ġwarmth": 4252,
      "Ġpoured": 4253,
      "Ġfart": 4254,
      "Ġspring": 4255,
      "Ġhealth": 4256,
      "pet": 4257,
      "Ġdawn": 4258,
      "Ġeyebrows": 4259,
      "Ġassist": 4260,
      "Ġintell": 4261,
      "Ġreaching": 4262,
      "ictor": 4263,
      "Ġwheel": 4264,
      "Ġfal": 4265,
      "cul": 4266,
      "Ġcous": 4267,
      "Ġdetails": 4268,
      "Ġbree": 4269,
      "icy": 4270,
      "Ġsteel": 4271,
      "ĠRachel": 4272,
      "Ġdesperate": 4273,
      "Ġterror": 4274,
      "com": 4275,
      "Ġcomment": 4276,
      "Ġlack": 4277,
      "Ġeventually": 4278,
      "Ġtype": 4279,
      "Ġswear": 4280,
      "Ġsending": 4281,
      "Ġsuspect": 4282,
      "eve": 4283,
      "Ġdifference": 4284,
      "ox": 4285,
      "ĠLy": 4286,
      "ieved": 4287,
      "Ġ...": 4288,
      "Ġate": 4289,
      "gress": 4290,
      "Ġjerked": 4291,
      "Ġdelight": 4292,
      "mit": 4293,
      "Ġmanage": 4294,
      "ĠSimon": 4295,
      "Ġdisappear": 4296,
      "Ġorgan": 4297,
      "Ġrage": 4298,
      "Ġwelcome": 4299,
      "Ġmentioned": 4300,
      "itive": 4301,
      "Ġawkward": 4302,
      "ĠJane": 4303,
      "Ġexcl": 4304,
      "orld": 4305,
      "Ġunw": 4306,
      "Ġuniform": 4307,
      "Ġnobody": 4308,
      "Ġloss": 4309,
      "Ġdistant": 4310,
      "Nothing": 4311,
      "kn": 4312,
      "Ġtraining": 4313,
      "),": 4314,
      "mon": 4315,
      "erial": 4316,
      "Wh": 4317,
      "Ġflowers": 4318,
      "Ġpressure": 4319,
      "Ġpage": 4320,
      "Ġpred": 4321,
      "Ġheading": 4322,
      "Ġarch": 4323,
      "Ġash": 4324,
      "Ġcook": 4325,
      "Ġsomebody": 4326,
      "ĠChe": 4327,
      "Ġslip": 4328,
      "Ġmachine": 4329,
      "ams": 4330,
      "Ġtaught": 4331,
      "Ġbutton": 4332,
      "Ġhasn": 4333,
      "ĠJake": 4334,
      "cell": 4335,
      "Here": 4336,
      "Per": 4337,
      "ĠNever": 4338,
      "uel": 4339,
      "Right": 4340,
      "At": 4341,
      "Ġphysical": 4342,
      "Ġuncomfort": 4343,
      "ada": 4344,
      "Ġeverywhere": 4345,
      "Ġyelled": 4346,
      "Ġcharm": 4347,
      "ference": 4348,
      "Ġfellow": 4349,
      "ĠJac": 4350,
      "Ã§": 4351,
      "Ġsearching": 4352,
      "Ġblanket": 4353,
      "Ġcrime": 4354,
      "Ġfocused": 4355,
      "ĠThree": 4356,
      "shirt": 4357,
      "Ġconfir": 4358,
      "Ġmatch": 4359,
      "Ġlanguage": 4360,
      "pted": 4361,
      "ĠSee": 4362,
      "Ġpure": 4363,
      "Ġcurtain": 4364,
      "Ġcurious": 4365,
      "Ġcustom": 4366,
      "Ġwedding": 4367,
      "Ġi": 4368,
      "ĠGar": 4369,
      "ĠRob": 4370,
      "Ġwiped": 4371,
      "Ġchallen": 4372,
      "Ġtouching": 4373,
      "Ġtill": 4374,
      "ĠCle": 4375,
      "Ġrushed": 4376,
      "Ġrob": 4377,
      "Ġtil": 4378,
      "isto": 4379,
      "Ġduty": 4380,
      "Ġreaction": 4381,
      "Ġswept": 4382,
      "Ġhonor": 4383,
      "ems": 4384,
      "Ġwag": 4385,
      "Ġbread": 4386,
      "Ġcow": 4387,
      "Ġbitch": 4388,
      "Ġrode": 4389,
      "Ġaction": 4390,
      "Ġscan": 4391,
      "Ġcorridor": 4392,
      "sp": 4393,
      "Ġmeat": 4394,
      "Ġintrod": 4395,
      "ĠAmerican": 4396,
      "ĠTell": 4397,
      "Ġcharac": 4398,
      "Ġmembers": 4399,
      "ĠBoth": 4400,
      "Ġdrinking": 4401,
      "ivid": 4402,
      "Ġbadly": 4403,
      "ĠChris": 4404,
      "Ġfixed": 4405,
      "Ġpriest": 4406,
      "Ġplanned": 4407,
      "Ġstair": 4408,
      "pers": 4409,
      "rick": 4410,
      "Ġforty": 4411,
      "Ġdecl": 4412,
      "ira": 4413,
      "lder": 4414,
      "Ġtick": 4415,
      "uses": 4416,
      "Ġgrowled": 4417,
      "Ġelev": 4418,
      "Ġhorror": 4419,
      "Ġlovely": 4420,
      "rog": 4421,
      "Ġopportunity": 4422,
      "ĠSch": 4423,
      "Ġtemper": 4424,
      "ford": 4425,
      "ĠRos": 4426,
      "Ã¨": 4427,
      "Ġpause": 4428,
      "Ġjoy": 4429,
      "Ġletters": 4430,
      "Ġcott": 4431,
      "Ġdeb": 4432,
      "iently": 4433,
      "ads": 4434,
      "ĠJos": 4435,
      "vy": 4436,
      "ĠSince": 4437,
      "iven": 4438,
      "ĠCall": 4439,
      "Ġcloth": 4440,
      "Ġsurely": 4441,
      "ech": 4442,
      "Ġresist": 4443,
      "wen": 4444,
      "ĠTor": 4445,
      "isc": 4446,
      "ĠWilliam": 4447,
      "Ġbreathed": 4448,
      "Ġhouses": 4449,
      "Ġcaut": 4450,
      "Ġsilently": 4451,
      "ĠHell": 4452,
      "ĠGet": 4453,
      "Ġsetting": 4454,
      "Ġbeauty": 4455,
      "Ġamount": 4456,
      "eds": 4457,
      "Ġsurrounded": 4458,
      "Ġclenched": 4459,
      "ilities": 4460,
      "Ġfavorite": 4461,
      "ĠStep": 4462,
      "Ġrail": 4463,
      "year": 4464,
      "Ġsafety": 4465,
      "imate": 4466,
      "Ġplastic": 4467,
      "Ġspun": 4468,
      "Ġupstairs": 4469,
      "Ġtucked": 4470,
      "Ġnipp": 4471,
      "Ġwaves": 4472,
      "father": 4473,
      "Ġsmelled": 4474,
      "ran": 4475,
      "Ġhurry": 4476,
      "ĠGreat": 4477,
      "Ġcastle": 4478,
      "Ġstab": 4479,
      "Ġnine": 4480,
      "gon": 4481,
      "Ġgiant": 4482,
      "ino": 4483,
      "Ġmanner": 4484,
      "Mr": 4485,
      "Ġmaterial": 4486,
      "spect": 4487,
      "Ġaim": 4488,
      "Ġexcited": 4489,
      "Ġtells": 4490,
      "Ġbone": 4491,
      "Ġpsych": 4492,
      "Ġsimilar": 4493,
      "unately": 4494,
      "Ġtang": 4495,
      "Ġlanded": 4496,
      "Ġfeatures": 4497,
      "Ġcrim": 4498,
      "Ġpictures": 4499,
      "Ġdeck": 4500,
      "ashes": 4501,
      "Ġprove": 4502,
      "iest": 4503,
      "ĠDark": 4504,
      "ddenly": 4505,
      "Ġbowed": 4506,
      "Ġheels": 4507,
      "Ġwonderful": 4508,
      "ĠRight": 4509,
      "ĠVictor": 4510,
      "Ġdamp": 4511,
      "Ġchoose": 4512,
      "Ġapolog": 4513,
      "han": 4514,
      "mar": 4515,
      "ences": 4516,
      "Ġbegun": 4517,
      "Ġchuckled": 4518,
      "Ġtour": 4519,
      "ĠWest": 4520,
      "ya": 4521,
      "Ġstage": 4522,
      "Ġcart": 4523,
      "Ġcorrect": 4524,
      "Ġfill": 4525,
      "mission": 4526,
      "Ġexh": 4527,
      "Ġfirmly": 4528,
      "Ġdread": 4529,
      "Ġemplo": 4530,
      "Ġflashed": 4531,
      "ores": 4532,
      "Ġhigher": 4533,
      "Every": 4534,
      "Ġgesture": 4535,
      "ares": 4536,
      "Ġrested": 4537,
      "Ġhast": 4538,
      "Ġblame": 4539,
      "Ġdistur": 4540,
      "Ġanimals": 4541,
      "ĠGen": 4542,
      "Ġwee": 4543,
      "Ġlosing": 4544,
      "aging": 4545,
      "tle": 4546,
      "ĠRem": 4547,
      "ishment": 4548,
      "Ġvers": 4549,
      "Ġbeach": 4550,
      "Ġshr": 4551,
      "Ġsake": 4552,
      "anked": 4553,
      "ĠDaddy": 4554,
      "Ġplenty": 4555,
      "Ġstaying": 4556,
      "ĠPrince": 4557,
      "Ġreceived": 4558,
      "Ġmurd": 4559,
      "Ġbru": 4560,
      "Ġdevelo": 4561,
      "Ġpark": 4562,
      "ĠSure": 4563,
      "Ġtightened": 4564,
      "ĠEarth": 4565,
      "Ġspin": 4566,
      "Ġlightly": 4567,
      "Ġcommun": 4568,
      "gin": 4569,
      "Ġinsisted": 4570,
      "Ġparking": 4571,
      "ĠSec": 4572,
      "lly": 4573,
      "Ġlibrary": 4574,
      "ĠFe": 4575,
      "Ġstrang": 4576,
      "Ġupper": 4577,
      "ĠEmily": 4578,
      "Ġcircum": 4579,
      "Ġboss": 4580,
      "Ġcars": 4581,
      "AT": 4582,
      "Ġtwist": 4583,
      "ĠWin": 4584,
      "ization": 4585,
      "aying": 4586,
      "Ġdetermined": 4587,
      "cture": 4588,
      "ĠCould": 4589,
      "Ġirrit": 4590,
      "otions": 4591,
      "Ġchose": 4592,
      "ĠLau": 4593,
      "ĠAgain": 4594,
      "Ġhoney": 4595,
      "can": 4596,
      "Ġ5": 4597,
      "Like": 4598,
      "ĠHu": 4599,
      "ayl": 4600,
      "Ġpattern": 4601,
      "Ġtwelve": 4602,
      "Will": 4603,
      "Ġpointing": 4604,
      "stand": 4605,
      "Ġabrupt": 4606,
      "Ġuncle": 4607,
      "Ġrolling": 4608,
      "five": 4609,
      "Ġpalace": 4610,
      "Ġparts": 4611,
      "antage": 4612,
      "ĠElizabeth": 4613,
      "Ġexpecting": 4614,
      "ev": 4615,
      "Ġparticularly": 4616,
      "itement": 4617,
      "ado": 4618,
      "uries": 4619,
      "Ġrecognize": 4620,
      "Hell": 4621,
      "Ġutter": 4622,
      "Ġthrown": 4623,
      "ording": 4624,
      "Ġexperien": 4625,
      "Ġneg": 4626,
      "Ġnotes": 4627,
      "ctions": 4628,
      "Ġframe": 4629,
      "Ġrules": 4630,
      "Ġchain": 4631,
      "Ġdisg": 4632,
      "ĠBesides": 4633,
      "Ġgigg": 4634,
      "ĠMur": 4635,
      "Ġswim": 4636,
      "Ġfab": 4637,
      "Ġgodd": 4638,
      "Ġprince": 4639,
      "Ġbutt": 4640,
      "ĠSuddenly": 4641,
      "Ġarrest": 4642,
      "Ġtort": 4643,
      "ĠRobert": 4644,
      "rate": 4645,
      "Ġfurn": 4646,
      "Ġpussy": 4647,
      "ĠBeth": 4648,
      "Ġreasons": 4649,
      "Ġknock": 4650,
      "ĠSoph": 4651,
      "Ġlog": 4652,
      "vis": 4653,
      "ĠEs": 4654,
      "hern": 4655,
      "Ġenter": 4656,
      "Ġhelping": 4657,
      "Ġciv": 4658,
      "sey": 4659,
      "Ġsilk": 4660,
      "ĠAlthough": 4661,
      "Ġsniff": 4662,
      "Ġsoldier": 4663,
      "ĠâĢ¢": 4664,
      "Ġotherwise": 4665,
      "Ġnarrowed": 4666,
      "ulf": 4667,
      "vering": 4668,
      "Ã¶": 4669,
      "Ġworn": 4670,
      "ential": 4671,
      "Ġrear": 4672,
      "ĠLily": 4673,
      "Ġconce": 4674,
      "Ġcigarette": 4675,
      "oted": 4676,
      "Ġstruggled": 4677,
      "Ġsmiles": 4678,
      "Ġliqu": 4679,
      "Ġattract": 4680,
      "Ġweather": 4681,
      "pend": 4682,
      "ĠRu": 4683,
      "Ġpoison": 4684,
      "Ġsav": 4685,
      "Ġfaced": 4686,
      "Ġought": 4687,
      "Ġblew": 4688,
      "Ġflick": 4689,
      "aze": 4690,
      "Ġmillion": 4691,
      "Ġfac": 4692,
      "vere": 4693,
      "Ġproject": 4694,
      "Ġarrow": 4695,
      "Ġegg": 4696,
      "ym": 4697,
      "otted": 4698,
      "rib": 4699,
      "Ġstones": 4700,
      "Ġflood": 4701,
      "Ġgall": 4702,
      "Ġlif": 4703,
      "Ġtarget": 4704,
      "Ġanswers": 4705,
      "iter": 4706,
      "Ġank": 4707,
      "heart": 4708,
      "Ġtorn": 4709,
      "Ġpressing": 4710,
      "book": 4711,
      "ĠDaniel": 4712,
      "Ġstun": 4713,
      "Ġabsolutely": 4714,
      "ĠLo": 4715,
      "Ġreass": 4716,
      "ators": 4717,
      "Ġrope": 4718,
      "Ġcred": 4719,
      "Ġfrightened": 4720,
      "elia": 4721,
      "Ġmeal": 4722,
      "Ġfreed": 4723,
      "Ġclouds": 4724,
      "OU": 4725,
      "Ġproblems": 4726,
      "Ġsmaller": 4727,
      "Ġdesce": 4728,
      "Ġfant": 4729,
      "Ġdogs": 4730,
      "ais": 4731,
      "Ġinstantly": 4732,
      "Ġheight": 4733,
      "Ġneat": 4734,
      "Ġwash": 4735,
      "Ġbowl": 4736,
      "essa": 4737,
      "Ġstranger": 4738,
      "ari": 4739,
      "Ġmap": 4740,
      "ĠNor": 4741,
      "Ġkiller": 4742,
      "Ġpace": 4743,
      "Ġtotally": 4744,
      "Ġrelaxed": 4745,
      "Ġoccup": 4746,
      "Ġclothing": 4747,
      "met": 4748,
      "Ġclosing": 4749,
      "ĠFar": 4750,
      "Ġspark": 4751,
      "Ġheavily": 4752,
      "ĠThank": 4753,
      "ĠJamie": 4754,
      "ĠOld": 4755,
      "Ġfrag": 4756,
      "Ġstartled": 4757,
      "ĠWhite": 4758,
      "Ġain": 4759,
      "ĠWhatever": 4760,
      "ases": 4761,
      "ĠVer": 4762,
      "Ġlean": 4763,
      "Ġserved": 4764,
      "Ġwarned": 4765,
      "Ġseriously": 4766,
      "Ġintense": 4767,
      "ĠAnt": 4768,
      "Ġhandsome": 4769,
      "Ġcoo": 4770,
      "Would": 4771,
      "Ġnowhere": 4772,
      "dding": 4773,
      "athy": 4774,
      "ila": 4775,
      "Ġexcitement": 4776,
      "Ġshocked": 4777,
      "Ġtur": 4778,
      "Ġpile": 4779,
      "than": 4780,
      "Ġcave": 4781,
      "Ġcrou": 4782,
      "Ġreb": 4783,
      "ĠTV": 4784,
      "Ġreality": 4785,
      "Ġpuzz": 4786,
      "Ġfarther": 4787,
      "ĠChristmas": 4788,
      "ament": 4789,
      "Ġsettle": 4790,
      "Ġfeed": 4791,
      "Ġgripped": 4792,
      "Ġinterrupted": 4793,
      "Ġsucked": 4794,
      "Ġintended": 4795,
      "Ġrequest": 4796,
      "Ġemotions": 4797,
      "ĠHave": 4798,
      "iday": 4799,
      "Ġyeah": 4800,
      "Ġtask": 4801,
      "ĠMin": 4802,
      "phone": 4803,
      "lored": 4804,
      "Ġyard": 4805,
      "Ġnights": 4806,
      "Ġextreme": 4807,
      "Ġcloak": 4808,
      "alous": 4809,
      "Ġwest": 4810,
      "ulation": 4811,
      "Ġbastard": 4812,
      "Ġmonster": 4813,
      "Ġgrateful": 4814,
      "uk": 4815,
      "Ġfile": 4816,
      "Ġneare": 4817,
      "Ġjudge": 4818,
      "Ġteacher": 4819,
      "Ġscow": 4820,
      "ĠTra": 4821,
      "Does": 4822,
      "icip": 4823,
      "Ġbigger": 4824,
      "andy": 4825,
      "Ġpit": 4826,
      "Ġrestaur": 4827,
      "Ġpainting": 4828,
      "Ġbecoming": 4829,
      "Ġcollar": 4830,
      "Ġsank": 4831,
      "ĠSan": 4832,
      "ĠCity": 4833,
      "idering": 4834,
      "itation": 4835,
      "ED": 4836,
      "fa": 4837,
      "Ġcheer": 4838,
      "Ġrocks": 4839,
      "ication": 4840,
      "Ġbill": 4841,
      "ĠRen": 4842,
      "Ġshame": 4843,
      "Ġconcl": 4844,
      "Ġfaith": 4845,
      "Ġsuspected": 4846,
      "amped": 4847,
      "uous": 4848,
      "Ġchosen": 4849,
      "ĠDam": 4850,
      "ointed": 4851,
      "Ġaccepted": 4852,
      "Ġflames": 4853,
      "Ġrelease": 4854,
      "Ġdart": 4855,
      "ĠAle": 4856,
      "Ġpulls": 4857,
      "Ġclock": 4858,
      "Ġgroaned": 4859,
      "Ġembr": 4860,
      "Ġrow": 4861,
      "ĠBlood": 4862,
      "hold": 4863,
      "field": 4864,
      "Ġskull": 4865,
      "Ġstronger": 4866,
      "udge": 4867,
      "Ġbuildings": 4868,
      "Ġhero": 4869,
      "Ġregular": 4870,
      "Ġbriefly": 4871,
      "Ġwitch": 4872,
      "Ġstands": 4873,
      "Ġcream": 4874,
      "Ġaccom": 4875,
      "Ġaccess": 4876,
      "Ġgrace": 4877,
      "Ġmassive": 4878,
      "icing": 4879,
      "Ġfacing": 4880,
      "Ġsen": 4881,
      "ĠLucy": 4882,
      "Ġmatters": 4883,
      "pless": 4884,
      "Ġactiv": 4885,
      "Ġpier": 4886,
      "Ġinch": 4887,
      "Ġopin": 4888,
      "ĠBur": 4889,
      "Ġthread": 4890,
      "Ġglared": 4891,
      "Ġtrembling": 4892,
      "Ġdetail": 4893,
      "ĠLog": 4894,
      "Ġriding": 4895,
      "Ġmountains": 4896,
      "Ġdamned": 4897,
      "Ġhood": 4898,
      "Ġkeys": 4899,
      "Ġpassion": 4900,
      "Ġwaste": 4901,
      "ĠAnn": 4902,
      "Ġassumed": 4903,
      "da": 4904,
      "Ġridic": 4905,
      "ĠAunt": 4906,
      "ĠAlice": 4907,
      "Ġswift": 4908,
      "seless": 4909,
      "Ġblur": 4910,
      "rous": 4911,
      "ples": 4912,
      "ĠSus": 4913,
      "place": 4914,
      "Ġpractice": 4915,
      "Ġacqu": 4916,
      "umps": 4917,
      "ĠEmma": 4918,
      "ĠGra": 4919,
      "Ġmaid": 4920,
      "ando": 4921,
      "Wait": 4922,
      "ĠHowever": 4923,
      "Ġchairs": 4924,
      "Ġeast": 4925,
      "Ġsliding": 4926,
      "aved": 4927,
      "Ġinterview": 4928,
      "ounce": 4929,
      "vision": 4930,
      "Ġholl": 4931,
      "cean": 4932,
      "Ġpeered": 4933,
      "ĠLuke": 4934,
      "Ġconnection": 4935,
      "case": 4936,
      "Ġshiver": 4937,
      "Ġpurs": 4938,
      "Ġability": 4939,
      "Ġcamera": 4940,
      "rier": 4941,
      "Ġthrowing": 4942,
      "end": 4943,
      "ency": 4944,
      "Ġinnocent": 4945,
      "Ġretreat": 4946,
      "Ġmajor": 4947,
      "Ġrapid": 4948,
      "inced": 4949,
      "Ġattend": 4950,
      "Ġradio": 4951,
      "Ġease": 4952,
      "acle": 4953,
      "Ġvarious": 4954,
      "Ġcreatures": 4955,
      "Ġgestured": 4956,
      "ĠMike": 4957,
      "ifying": 4958,
      "ĠRuss": 4959,
      "bre": 4960,
      "Ġintellig": 4961,
      "Ġparked": 4962,
      "Ġunlike": 4963,
      "ĠCharles": 4964,
      "Ġresc": 4965,
      "Ġlarger": 4966,
      "ĠLittle": 4967,
      "Ġsoot": 4968,
      "Ġheaven": 4969,
      "Ġgrey": 4970,
      "Ġsplit": 4971,
      "Ġpassage": 4972,
      "Ġfierce": 4973,
      "aimed": 4974,
      "Ġstarts": 4975,
      "Ġsque": 4976,
      "ĠGerman": 4977,
      "Ġawful": 4978,
      "ppy": 4979,
      "nes": 4980,
      "Ġvanished": 4981,
      "Ġguilt": 4982,
      "Ġprim": 4983,
      "thur": 4984,
      "elled": 4985,
      "Ġinfl": 4986,
      "Ġstream": 4987,
      "Ġformer": 4988,
      "ĠEric": 4989,
      "Ġmask": 4990,
      "Ġwashed": 4991,
      "Ġbrush": 4992,
      "stal": 4993,
      "Ġcollege": 4994,
      "Ġdrank": 4995,
      "tending": 4996,
      "Ġoccurred": 4997,
      "Ġsigns": 4998,
      "Ġdancing": 4999,
      "aud": 5000,
      "pite": 5001,
      "inated": 5002,
      "Ġconvinced": 5003,
      "Ġenorm": 5004,
      "Ġunderstanding": 5005,
      "Me": 5006,
      "Ġvac": 5007,
      "za": 5008,
      "aron": 5009,
      "Ġbench": 5010,
      "iety": 5011,
      "oop": 5012,
      "Ġincluding": 5013,
      "...\"": 5014,
      "Ġmilitary": 5015,
      "ĠApp": 5016,
      "lebr": 5017,
      "iley": 5018,
      "ES": 5019,
      "pir": 5020,
      ".''": 5021,
      "Ġlies": 5022,
      "Ġcircumst": 5023,
      "Ġcontr": 5024,
      "ĠPark": 5025,
      "Ġgovernment": 5026,
      "Ġcro": 5027,
      "Ġships": 5028,
      "Ġevents": 5029,
      "Ġfed": 5030,
      "Ġplanning": 5031,
      "Ġcared": 5032,
      "ĠLind": 5033,
      "Ġharsh": 5034,
      "istic": 5035,
      "ilty": 5036,
      "ĠCat": 5037,
      "Ġcracked": 5038,
      "Ġguessed": 5039,
      "Ġsurvive": 5040,
      "Ġsmir": 5041,
      "uh": 5042,
      "Ġscrew": 5043,
      "Ġdamage": 5044,
      "enger": 5045,
      "ients": 5046,
      "Ġphotograph": 5047,
      "Ġconscious": 5048,
      "Ġoverw": 5049,
      "ĠSun": 5050,
      "Perhaps": 5051,
      "ĠDev": 5052,
      "Very": 5053,
      "wed": 5054,
      "Ġdue": 5055,
      "Ġneighbor": 5056,
      "lla": 5057,
      "uts": 5058,
      "Ġrelieved": 5059,
      "Ġspine": 5060,
      "iod": 5061,
      "ception": 5062,
      "ona": 5063,
      "Ġstumbled": 5064,
      "ĠDor": 5065,
      ").": 5066,
      "Ġge": 5067,
      "Ġrib": 5068,
      "Ġdrown": 5069,
      "Ġkick": 5070,
      "ĠâĢ¦\"": 5071,
      "Ġflut": 5072,
      "Ġrecall": 5073,
      "Ġnightm": 5074,
      "ĠHun": 5075,
      "Ġourselves": 5076,
      "Ġsadd": 5077,
      "Ġpride": 5078,
      "Ġjew": 5079,
      "Ġclimb": 5080,
      "Ġbord": 5081,
      "ointment": 5082,
      "Ġgrad": 5083,
      "Ġpregn": 5084,
      "Ġhint": 5085,
      "Ġimpat": 5086,
      "ĠNight": 5087,
      "Ġtrad": 5088,
      "cknow": 5089,
      "Ġpoints": 5090,
      "onscious": 5091,
      "uing": 5092,
      "Ġlake": 5093,
      "fall": 5094,
      "Ġcousin": 5095,
      "ault": 5096,
      "Ġprofession": 5097,
      "ĠAh": 5098,
      "Ġserve": 5099,
      "Ġunex": 5100,
      "Ġservants": 5101,
      "Ġbuzz": 5102,
      "Ġuncomfortable": 5103,
      "Ġpainted": 5104,
      "Ġreluct": 5105,
      "Ġalley": 5106,
      "Ġmovie": 5107,
      "Ġfrozen": 5108,
      "ĠEle": 5109,
      "Somet": 5110,
      "Ġamazing": 5111,
      "Ġexcuse": 5112,
      "Ġveh": 5113,
      "ÃŃa": 5114,
      "Ġtie": 5115,
      "Ġdug": 5116,
      "Ġanticip": 5117,
      "orce": 5118,
      "ĠOver": 5119,
      "ddy": 5120,
      "Ġsheet": 5121,
      "ero": 5122,
      "illa": 5123,
      "ĠPol": 5124,
      "ĠCarl": 5125,
      "ĠSal": 5126,
      "Ġdismiss": 5127,
      "Ġelbow": 5128,
      "Ġapproach": 5129,
      "Ġencou": 5130,
      "Ġrust": 5131,
      "Ġblond": 5132,
      "sec": 5133,
      "steps": 5134,
      "essor": 5135,
      "Ġbirds": 5136,
      "Ġvib": 5137,
      "aries": 5138,
      "Ġsed": 5139,
      "Ġvague": 5140,
      "Ġorange": 5141,
      "ĠHo": 5142,
      "Ġcelebr": 5143,
      "ĠVan": 5144,
      "ilies": 5145,
      "Ġforgot": 5146,
      "hol": 5147,
      "otte": 5148,
      "andra": 5149,
      "Ġchick": 5150,
      "Ġmud": 5151,
      "back": 5152,
      "Ġinches": 5153,
      "Ġbalance": 5154,
      "bur": 5155,
      "ĠUnder": 5156,
      "ĠToo": 5157,
      "ĠHannah": 5158,
      "ĠEach": 5159,
      "ĠRh": 5160,
      "sm": 5161,
      "Ġenvelo": 5162,
      "ibb": 5163,
      "Ġenjoyed": 5164,
      "itz": 5165,
      "eper": 5166,
      "Ġtower": 5167,
      "iance": 5168,
      "Ġslide": 5169,
      "Ġformed": 5170,
      "nor": 5171,
      "ĠJason": 5172,
      "Ġbackward": 5173,
      "Ġ9": 5174,
      "ĠBre": 5175,
      "ĠMic": 5176,
      "Ġsnorted": 5177,
      "Ġnumbers": 5178,
      "ĠComm": 5179,
      "Ġchat": 5180,
      "Ġlou": 5181,
      "Ġdesign": 5182,
      "Ġtension": 5183,
      "ca": 5184,
      "Ġdownstairs": 5185,
      "Ġvisible": 5186,
      "ste": 5187,
      "Ġrace": 5188,
      "Ġhal": 5189,
      "Ġinner": 5190,
      "eyed": 5191,
      "Ġjoke": 5192,
      "ĠMaggie": 5193,
      "ĠKen": 5194,
      "ĠSund": 5195,
      "Ġarrange": 5196,
      "Ġvampires": 5197,
      "ology": 5198,
      "ĠStr": 5199,
      "Ġcapable": 5200,
      "gest": 5201,
      "Ġexplan": 5202,
      "Ġblast": 5203,
      "bye": 5204,
      "ĠBrit": 5205,
      "Ġtemple": 5206,
      "Ġladies": 5207,
      "Ġescaped": 5208,
      "Ġheal": 5209,
      "With": 5210,
      "Ġofficers": 5211,
      "ĠDun": 5212,
      "Ġbacked": 5213,
      "Ġkissing": 5214,
      "ĠCount": 5215,
      "ieve": 5216,
      "ĠChapter": 5217,
      "Ġlungs": 5218,
      "ols": 5219,
      "onel": 5220,
      "Ġfashion": 5221,
      "Ġling": 5222,
      "Ġconfusion": 5223,
      "Ġtit": 5224,
      "Ġtender": 5225,
      "asket": 5226,
      "Ġbeard": 5227,
      "gram": 5228,
      "Ġmas": 5229,
      "Ġfet": 5230,
      "Ġporch": 5231,
      "Ġstrike": 5232,
      "Ġspeech": 5233,
      "Ġappearance": 5234,
      "Ġgown": 5235,
      "Ġtunnel": 5236,
      "was": 5237,
      "Ġmagn": 5238,
      "ini": 5239,
      "Ġsharply": 5240,
      "Ġchief": 5241,
      "Ġbreeze": 5242,
      "Ġsymp": 5243,
      "kered": 5244,
      "Ġtend": 5245,
      "Ġleader": 5246,
      "ĠTre": 5247,
      "gency": 5248,
      "Ġraise": 5249,
      "Ġadvantage": 5250,
      "Ġhissed": 5251,
      "Ġguilty": 5252,
      "Ġsunlight": 5253,
      "isten": 5254,
      "ĠGabriel": 5255,
      "Ġfists": 5256,
      "rant": 5257,
      "Ġpleasant": 5258,
      "Ġinqu": 5259,
      "Ġurge": 5260,
      "Ġdu": 5261,
      "Ġdull": 5262,
      "neath": 5263,
      "Ġmate": 5264,
      "Ġencoun": 5265,
      "Ġprice": 5266,
      "tr": 5267,
      "Ġta": 5268,
      "umble": 5269,
      "Ġhorrible": 5270,
      "Ġfabric": 5271,
      "Ġmission": 5272,
      "Ġcreated": 5273,
      "Ġresting": 5274,
      "Ġpicking": 5275,
      "Ġnewsp": 5276,
      "Ġbeating": 5277,
      "Ġsocial": 5278,
      "Ġweeke": 5279,
      "Ġvast": 5280,
      "Ġcharacter": 5281,
      "fit": 5282,
      "Ġplanet": 5283,
      "Ġcollaps": 5284,
      "Ġmental": 5285,
      "Ġtore": 5286,
      "Ġkeeps": 5287,
      "rin": 5288,
      "Ġgazed": 5289,
      "Ġfate": 5290,
      "Ġanybody": 5291,
      "eness": 5292,
      "Ġpalms": 5293,
      "ĠSy": 5294,
      "ura": 5295,
      "Ġnods": 5296,
      "geant": 5297,
      "ĠTer": 5298,
      "Ġsensation": 5299,
      "Ġposit": 5300,
      "Ġdestroy": 5301,
      "Ġbrill": 5302,
      "Ġpartner": 5303,
      "Take": 5304,
      "ĠArthur": 5305,
      "ĠDespite": 5306,
      "ĠLook": 5307,
      "ĠLaur": 5308,
      "Ġignore": 5309,
      "ourt": 5310,
      "Ġunus": 5311,
      "Ġacknow": 5312,
      "ĠMat": 5313,
      "Ġspotted": 5314,
      "Ġplane": 5315,
      "Ġdistract": 5316,
      "Ġsees": 5317,
      "clock": 5318,
      "Ġteach": 5319,
      "Ġclosely": 5320,
      "ivia": 5321,
      "oms": 5322,
      "Ġoverwhel": 5323,
      "Ġintent": 5324,
      "ciety": 5325,
      "ĠFranc": 5326,
      "Ġdiss": 5327,
      "arse": 5328,
      "Ġtugged": 5329,
      "ĠWil": 5330,
      "Ġhabit": 5331,
      "ĠNorth": 5332,
      "wing": 5333,
      "Ġwithd": 5334,
      "Ġabruptly": 5335,
      "Ġcondition": 5336,
      "itches": 5337,
      "ĠCarol": 5338,
      "mes": 5339,
      "ÄŁ": 5340,
      "Ġexhausted": 5341,
      "eline": 5342,
      "Ġprevent": 5343,
      "Ġreturning": 5344,
      "gly": 5345,
      "Ġ[": 5346,
      "ja": 5347,
      "ĠCoun": 5348,
      "Ġsofa": 5349,
      "ĠPen": 5350,
      "Ġafford": 5351,
      "Ġrule": 5352,
      "walk": 5353,
      "Ġhip": 5354,
      "ĠGreg": 5355,
      "Ġcutting": 5356,
      "itions": 5357,
      "atherine": 5358,
      "ĠSk": 5359,
      "Ġlikes": 5360,
      "Ġtilted": 5361,
      "ĠNik": 5362,
      "Ġpillow": 5363,
      "vi": 5364,
      "ĠHam": 5365,
      "Ġfired": 5366,
      "Ġknight": 5367,
      ".)": 5368,
      "Ġloudly": 5369,
      "Ġhaul": 5370,
      "Ġsisters": 5371,
      "irled": 5372,
      "Ġtroub": 5373,
      "issa": 5374,
      "Ġelevator": 5375,
      "ĠLa": 5376,
      "Ġflame": 5377,
      "Ġorg": 5378,
      "Ġtapped": 5379,
      "Ġgrandmother": 5380,
      "ĠWal": 5381,
      "ruction": 5382,
      "ĠPhil": 5383,
      "anch": 5384,
      "Ġnurse": 5385,
      "ĠRam": 5386,
      "Ġaccomp": 5387,
      "Ġ6": 5388,
      "Ġpossibility": 5389,
      "Ġske": 5390,
      "anches": 5391,
      "Ġsole": 5392,
      "ĠLogan": 5393,
      "Ġpurse": 5394,
      "Ġsurprising": 5395,
      "uten": 5396,
      "Ġwhim": 5397,
      "ola": 5398,
      "Ġsexual": 5399,
      "Ġsecrets": 5400,
      "Ġannounced": 5401,
      "Ġmyst": 5402,
      "eter": 5403,
      "Ġwhist": 5404,
      "Ġpages": 5405,
      "Ġripped": 5406,
      "Ġhelpless": 5407,
      "Ġtap": 5408,
      "Ġreact": 5409,
      "Ġfucked": 5410,
      "Ġmarket": 5411,
      "ĠGray": 5412,
      "ocol": 5413,
      "war": 5414,
      "sequ": 5415,
      "Ġloyal": 5416,
      "amps": 5417,
      "ĠBer": 5418,
      "Ġtables": 5419,
      "Ġdining": 5420,
      "His": 5421,
      "Ġcarpet": 5422,
      "TER": 5423,
      "Ġsomewhat": 5424,
      "ĠBill": 5425,
      "ĠTem": 5426,
      "ĠPres": 5427,
      "Ġstudents": 5428,
      "Ġoil": 5429,
      "Ġdestroyed": 5430,
      "Ġstraightened": 5431,
      "Ġknelt": 5432,
      "Ġexec": 5433,
      "ounds": 5434,
      "Ġrestaurant": 5435,
      "Ġconsidering": 5436,
      "Ġwhenever": 5437,
      "ĠRay": 5438,
      "Ġhunt": 5439,
      "Ġperiod": 5440,
      "ĠFort": 5441,
      "Ġestab": 5442,
      "Ġcloset": 5443,
      "anges": 5444,
      "umn": 5445,
      "Ġunh": 5446,
      "orter": 5447,
      "attoo": 5448,
      "ula": 5449,
      "Ġimpl": 5450,
      "Ġjealous": 5451,
      "ĠBilly": 5452,
      "Ġrequired": 5453,
      "Ġbot": 5454,
      "Ġcivil": 5455,
      "Ġfan": 5456,
      "Ġchill": 5457,
      "ĠMen": 5458,
      "gered": 5459,
      "Ġocean": 5460,
      "Ġhalfway": 5461,
      "Ġabandoned": 5462,
      "Ġmember": 5463,
      "ram": 5464,
      "ĠUncle": 5465,
      "Ġgrief": 5466,
      "Ġrot": 5467,
      "atory": 5468,
      "Ġscru": 5469,
      "Ġrecently": 5470,
      "foot": 5471,
      "rif": 5472,
      "Ġvide": 5473,
      "oe": 5474,
      "Ġ7": 5475,
      "Ġtax": 5476,
      "Ġenormous": 5477,
      "aren": 5478,
      "Ġtrapped": 5479,
      "Ġsin": 5480,
      "Ġsearched": 5481,
      "Ġbehav": 5482,
      "Ġholds": 5483,
      "Ġpractically": 5484,
      "ĠFa": 5485,
      "lt": 5486,
      "azed": 5487,
      "Ġpounding": 5488,
      "Ġward": 5489,
      "Ġcops": 5490,
      "Ġdrifted": 5491,
      "Ġpatient": 5492,
      "Ġassured": 5493,
      "ĠIan": 5494,
      "Ġhunting": 5495,
      "Ġsway": 5496,
      "Ġunexpected": 5497,
      "Ġnet": 5498,
      "olves": 5499,
      "arc": 5500,
      "Ġens": 5501,
      "Ġidiot": 5502,
      "ĠSpe": 5503,
      "Ġappreciate": 5504,
      "Ġfroze": 5505,
      "Ġpurple": 5506,
      "Ġrhy": 5507,
      "Ġinvis": 5508,
      "Ġrubbing": 5509,
      "ours": 5510,
      "Ġhol": 5511,
      "otic": 5512,
      "hetic": 5513,
      "Ġprevious": 5514,
      "ĠSara": 5515,
      "ĠBrian": 5516,
      "Ġwidened": 5517,
      "Ġclas": 5518,
      "Ġfu": 5519,
      "Ġlanding": 5520,
      "Ġinit": 5521,
      "ĠRon": 5522,
      "ntil": 5523,
      "Ġcircumstances": 5524,
      "Ġpretend": 5525,
      "Ġpulse": 5526,
      "bar": 5527,
      "Ġuncertain": 5528,
      "jo": 5529,
      "ĠFour": 5530,
      "over": 5531,
      "Ġmarked": 5532,
      "Ġofficial": 5533,
      "Ġrif": 5534,
      "ĠAc": 5535,
      "ĠJean": 5536,
      "vet": 5537,
      "Ġess": 5538,
      "Really": 5539,
      "Ġflin": 5540,
      "idding": 5541,
      "Ġsail": 5542,
      "Ġdoc": 5543,
      "ĠHelen": 5544,
      "ĠMorgan": 5545,
      "ĠLight": 5546,
      "known": 5547,
      "Ġmedical": 5548,
      "Ġsensed": 5549,
      "Ġaunt": 5550,
      "angs": 5551,
      "Ġlur": 5552,
      "Hello": 5553,
      "Ġshouting": 5554,
      "Ġshooting": 5555,
      "Ġunderneath": 5556,
      "Ġbrows": 5557,
      "AL": 5558,
      "____": 5559,
      "Ġassume": 5560,
      "hind": 5561,
      "Ġopinion": 5562,
      "Ġugly": 5563,
      "Ġemerged": 5564,
      "Ġfilling": 5565,
      "Ġvalley": 5566,
      "Ġju": 5567,
      "Ġridiculous": 5568,
      "ico": 5569,
      "Ġprincess": 5570,
      "ĠÂ«": 5571,
      "God": 5572,
      "Ġfoolish": 5573,
      "AS": 5574,
      "down": 5575,
      "Ġpaint": 5576,
      "ĠBig": 5577,
      "Ġimpro": 5578,
      "Ġyouth": 5579,
      "Ġfootsteps": 5580,
      "Ġmi": 5581,
      "\"âĢĶ": 5582,
      "cr": 5583,
      "vert": 5584,
      "Ġing": 5585,
      "Ġraw": 5586,
      "Ġfingert": 5587,
      "Ġlone": 5588,
      "Ġremains": 5589,
      "Fuck": 5590,
      "they": 5591,
      "ĠFred": 5592,
      "stone": 5593,
      "ĠNat": 5594,
      "Ġwiz": 5595,
      "ĠÃł": 5596,
      "Ġremaining": 5597,
      "Ġterrified": 5598,
      "Ġlined": 5599,
      "Ġcurse": 5600,
      "ĠBro": 5601,
      "po": 5602,
      "umping": 5603,
      "vo": 5604,
      "Ġtrained": 5605,
      "Ġwing": 5606,
      "Ġhug": 5607,
      "Ġspare": 5608,
      "ĠSher": 5609,
      "Ġplat": 5610,
      "Ġshown": 5611,
      "Stop": 5612,
      "Ġtattoo": 5613,
      "Ġbags": 5614,
      "uction": 5615,
      "Ġcult": 5616,
      "chan": 5617,
      "Ġdism": 5618,
      "Ġsuppl": 5619,
      "iper": 5620,
      "Ġcliff": 5621,
      "Ġstol": 5622,
      "Ġpowers": 5623,
      "Ġsheets": 5624,
      "ĠRiver": 5625,
      "Ġguests": 5626,
      "ĠColl": 5627,
      "oh": 5628,
      "Ġstopping": 5629,
      "urning": 5630,
      "Ġdeliber": 5631,
      "Ġven": 5632,
      "Ġneighb": 5633,
      "Ġshore": 5634,
      "Ġwarrior": 5635,
      "ums": 5636,
      "ĠMartin": 5637,
      "Ġmult": 5638,
      "ĠTony": 5639,
      "ĠNone": 5640,
      "Ġcourage": 5641,
      "Ġfeared": 5642,
      "Ġprotection": 5643,
      "Ġmuscle": 5644,
      "uments": 5645,
      "Ġdisgust": 5646,
      "ĠHaw": 5647,
      "Ġrent": 5648,
      "Ġtraffic": 5649,
      "rek": 5650,
      "Ġdropping": 5651,
      "Ġthunder": 5652,
      "Ġnin": 5653,
      "Ġbranches": 5654,
      "hus": 5655,
      "Ġuseful": 5656,
      "Ġattacked": 5657,
      "Ġvent": 5658,
      "Ġpainful": 5659,
      "Ġslave": 5660,
      "Ġsource": 5661,
      "ĠTam": 5662,
      "Ġrepres": 5663,
      "Ġbirthday": 5664,
      "ĠCharlotte": 5665,
      "Ġyards": 5666,
      "ĠSunday": 5667,
      "Ġeverybody": 5668,
      "Ġservant": 5669,
      "Ġting": 5670,
      "Ġrig": 5671,
      "iar": 5672,
      "Ġcaress": 5673,
      "Ġdeg": 5674,
      "Ġdang": 5675,
      "elling": 5676,
      "Ġteen": 5677,
      "Ġdick": 5678,
      "Ġphoto": 5679,
      "Ġdecor": 5680,
      "Ġsooner": 5681,
      "Ġpisto": 5682,
      "Ġreplaced": 5683,
      "Ġdelicate": 5684,
      "gent": 5685,
      "ĠKar": 5686,
      "Ġfury": 5687,
      "orse": 5688,
      "Ġmaintain": 5689,
      "uine": 5690,
      "Ġdollars": 5691,
      "Ġspect": 5692,
      "Ġflipped": 5693,
      "haired": 5694,
      "Ġscramb": 5695,
      "ĠLee": 5696,
      "Ġballs": 5697,
      "Ġclaimed": 5698,
      "icate": 5699,
      "Ġoffering": 5700,
      "ĠAid": 5701,
      "aylor": 5702,
      "ĠEthan": 5703,
      "ĠPal": 5704,
      "Ġtape": 5705,
      "ago": 5706,
      "Ġplant": 5707,
      "Ġgap": 5708,
      "sters": 5709,
      "ribut": 5710,
      "inding": 5711,
      "Ġexplanation": 5712,
      "Ġcovering": 5713,
      "Ġstroked": 5714,
      "Ġlover": 5715,
      "Ġseries": 5716,
      "Ġedges": 5717,
      "iosity": 5718,
      "arling": 5719,
      "Ġfasc": 5720,
      "ros": 5721,
      "Ġremark": 5722,
      "Ġcomplex": 5723,
      "pth": 5724,
      "Ġstrode": 5725,
      "esty": 5726,
      "ooped": 5727,
      "Ġexpress": 5728,
      "Ġstall": 5729,
      "Ġrom": 5730,
      "los": 5731,
      "ING": 5732,
      "uming": 5733,
      "Ġrestr": 5734,
      "Ġwise": 5735,
      "ĠJesus": 5736,
      "Ġoriginal": 5737,
      "Ġstatement": 5738,
      "Ġdesperately": 5739,
      "Ġprecise": 5740,
      "Ġpaying": 5741,
      "Ġcatching": 5742,
      "ĠÃ©": 5743,
      "ĠCast": 5744,
      "See": 5745,
      "Ġfriendly": 5746,
      "Ġechoed": 5747,
      "utenant": 5748,
      "bbled": 5749,
      "erie": 5750,
      "ĠNathan": 5751,
      "Ġ18": 5752,
      "Ġbrand": 5753,
      "Ġclearing": 5754,
      "ĠHolly": 5755,
      "ĠZe": 5756,
      "Ġlifting": 5757,
      "Ġterms": 5758,
      "Was": 5759,
      "Ġslapped": 5760,
      "atching": 5761,
      "Ġkisses": 5762,
      "Ġrobe": 5763,
      "Ġwrists": 5764,
      "Ġhoriz": 5765,
      "Ġvul": 5766,
      "Ġimpression": 5767,
      "Ġtechn": 5768,
      "Ġguest": 5769,
      "ĠChristian": 5770,
      "li": 5771,
      "Ġmilk": 5772,
      "Ġimpress": 5773,
      "Ġchallenge": 5774,
      "unched": 5775,
      "Fine": 5776,
      "Ġsenses": 5777,
      "oops": 5778,
      "ani": 5779,
      "Ġsip": 5780,
      "Ġtray": 5781,
      "ĠJer": 5782,
      "ĠIr": 5783,
      "Ġ''": 5784,
      "Ġtowel": 5785,
      "Ġlamp": 5786,
      "'.": 5787,
      "Ġil": 5788,
      "Ġsou": 5789,
      "Ġgreater": 5790,
      "Ġfeather": 5791,
      "ĠMil": 5792,
      "Ġroyal": 5793,
      "aph": 5794,
      "Ġseated": 5795,
      "Ġsuck": 5796,
      "Ġresponded": 5797,
      "ida": 5798,
      "Ġcontract": 5799,
      "Ġwalks": 5800,
      "Ġadult": 5801,
      "rolled": 5802,
      "avy": 5803,
      "rete": 5804,
      "Ġassh": 5805,
      "Ġcash": 5806,
      "Ġpil": 5807,
      "Ġvir": 5808,
      "Ġforeign": 5809,
      "Ġcompet": 5810,
      "ĠIts": 5811,
      "ĠDen": 5812,
      "Ġpockets": 5813,
      "Ġsleeve": 5814,
      "Ġbunch": 5815,
      "ĠTar": 5816,
      "fortunately": 5817,
      "Ġtrade": 5818,
      "aft": 5819,
      "Ġresponsible": 5820,
      "Ġvic": 5821,
      "Ġfamilies": 5822,
      "ĠMarcus": 5823,
      "Ġbutter": 5824,
      "Ġshining": 5825,
      "Ġends": 5826,
      "oning": 5827,
      "Ġmoves": 5828,
      "Ġglowing": 5829,
      "Ġstead": 5830,
      "Ġdepth": 5831,
      "Ġguns": 5832,
      "Ġgarage": 5833,
      "Ġglare": 5834,
      "Ġstruggling": 5835,
      "Ġconfident": 5836,
      "Ġcards": 5837,
      "Ġcha": 5838,
      "Ġsinging": 5839,
      "ĠJew": 5840,
      "Ġlawyer": 5841,
      "Ġordinary": 5842,
      "Ġdisplay": 5843,
      "Ġaston": 5844,
      "Ġprogress": 5845,
      "adow": 5846,
      "Ġsilly": 5847,
      "ront": 5848,
      "ela": 5849,
      "uman": 5850,
      "Ġbelonged": 5851,
      "asha": 5852,
      "Ġembarrassed": 5853,
      "Ġstolen": 5854,
      "Ġmail": 5855,
      "Ġsquir": 5856,
      "Ġinvisible": 5857,
      "ective": 5858,
      "erc": 5859,
      "Ġcompanion": 5860,
      "Ġfruit": 5861,
      "cellent": 5862,
      "Ġsurve": 5863,
      "ĠHol": 5864,
      "Ġsurre": 5865,
      "Ġweekend": 5866,
      "ĠMarg": 5867,
      "Ġgates": 5868,
      "ĠTime": 5869,
      "Ġconnected": 5870,
      "ags": 5871,
      "appy": 5872,
      "aturally": 5873,
      "Ġindivid": 5874,
      "itty": 5875,
      "Ġinspect": 5876,
      "Ġthrone": 5877,
      "ĠLu": 5878,
      "peror": 5879,
      "Ġadvice": 5880,
      "Ġliter": 5881,
      "Ġgenuine": 5882,
      "Ġexposed": 5883,
      "abb": 5884,
      "Ġliquid": 5885,
      "Ġlicked": 5886,
      "ulated": 5887,
      "Ġshell": 5888,
      "Ġnoted": 5889,
      "tyard": 5890,
      "ĠAug": 5891,
      "Ġpacked": 5892,
      "Ġbrave": 5893,
      "Ġproperty": 5894,
      "ĠBry": 5895,
      "Ġcrown": 5896,
      "ĠSoon": 5897,
      "ĠStone": 5898,
      "Ġdrug": 5899,
      "ability": 5900,
      "Ġunb": 5901,
      "Ġbullet": 5902,
      "Ġremembering": 5903,
      "with": 5904,
      "asper": 5905,
      "ĠCouncil": 5906,
      "Ġautom": 5907,
      "orough": 5908,
      "Ġextended": 5909,
      "inkled": 5910,
      "ddie": 5911,
      "ĠScott": 5912,
      "Ġmurdered": 5913,
      "oci": 5914,
      "atively": 5915,
      "Ġavail": 5916,
      "ĠOkay": 5917,
      "Ġshakes": 5918,
      "iversity": 5919,
      "IS": 5920,
      "ĠCur": 5921,
      "Ġobe": 5922,
      "âĢĶ'": 5923,
      "Ġalco": 5924,
      "Ġstal": 5925,
      "ĠIl": 5926,
      "Ġbored": 5927,
      "Ġpossess": 5928,
      "ĠDet": 5929,
      "Ġdefend": 5930,
      "ĠDoes": 5931,
      "omen": 5932,
      "anny": 5933,
      "ĠDem": 5934,
      "outs": 5935,
      "Ġhills": 5936,
      "Ġenemies": 5937,
      "Ġexistence": 5938,
      "Ġthreatened": 5939,
      "Ġ8": 5940,
      "ĠAmy": 5941,
      "Ġlied": 5942,
      "Ġinsist": 5943,
      "iture": 5944,
      "Ġfreedom": 5945,
      "icide": 5946,
      "uary": 5947,
      "Ġcursed": 5948,
      "ĠRuth": 5949,
      "Ġruns": 5950,
      "Ġconfidence": 5951,
      "Ġbleeding": 5952,
      "Ġment": 5953,
      "rying": 5954,
      "Ġsymb": 5955,
      "Ġtrunk": 5956,
      "law": 5957,
      "Her": 5958,
      "ĠRyan": 5959,
      "ĠBehind": 5960,
      "Ġhandful": 5961,
      "ĠSophie": 5962,
      "ulate": 5963,
      "Ġtrusted": 5964,
      "Un": 5965,
      "aturday": 5966,
      "Ġcandle": 5967,
      "ĠLong": 5968,
      "ĠWall": 5969,
      "Ġconvince": 5970,
      "Ġunlo": 5971,
      "oren": 5972,
      "ĠJose": 5973,
      "Ġflushed": 5974,
      "Ġinvited": 5975,
      "Ġsexy": 5976,
      "Ġdriven": 5977,
      "Ġcases": 5978,
      "Ġpissed": 5979,
      "Ġswallow": 5980,
      "Ġargue": 5981,
      "lled": 5982,
      "four": 5983,
      "fire": 5984,
      "ĠBrother": 5985,
      "Ġstern": 5986,
      "Ġinvestigation": 5987,
      "Ġtense": 5988,
      "arks": 5989,
      "cca": 5990,
      "Ġhundreds": 5991,
      "Ġchanging": 5992,
      "Ġoverhead": 5993,
      "Ġgrandfather": 5994,
      "ĠFel": 5995,
      "AP": 5996,
      "Ġsits": 5997,
      "Ġratt": 5998,
      "Ġmarks": 5999,
      "Ġtrace": 6000,
      "Ġenjo": 6001,
      "Ġwealth": 6002,
      "Ġdesert": 6003,
      "Le": 6004,
      "Ġchecking": 6005,
      "Ġagent": 6006,
      "umph": 6007,
      "Ġfields": 6008,
      "ĠEngland": 6009,
      "Ġcorners": 6010,
      "ĠSouth": 6011,
      "Ġlan": 6012,
      "iamond": 6013,
      "Ġscattered": 6014,
      "iqu": 6015,
      "ĠIsab": 6016,
      "rik": 6017,
      "Ġbars": 6018,
      "Ġrhyth": 6019,
      "Ġlust": 6020,
      "Ġdried": 6021,
      "Ġtoes": 6022,
      "Ġeased": 6023,
      "ĠCa": 6024,
      "erve": 6025,
      "ĠGal": 6026,
      "org": 6027,
      "Ġwounded": 6028,
      "Ġpopped": 6029,
      "Ġterm": 6030,
      "Ġtransl": 6031,
      "Ġexperienced": 6032,
      "Ġstudying": 6033,
      "Ġgathering": 6034,
      "Ġcarriage": 6035,
      "Ġcuriosity": 6036,
      "ige": 6037,
      "Ġfence": 6038,
      "Ġforgive": 6039,
      "ĠAnne": 6040,
      "lan": 6041,
      "Ġtrap": 6042,
      "Â»": 6043,
      "Ġopt": 6044,
      "Ġsacrif": 6045,
      "Ġglancing": 6046,
      "Ġoh": 6047,
      "Ġtelevision": 6048,
      "Ġgames": 6049,
      "Ne": 6050,
      "Ġhorr": 6051,
      "Ġamuse": 6052,
      "hip": 6053,
      "Ġcarved": 6054,
      "Ġattached": 6055,
      "Ġgrasp": 6056,
      "ĠAf": 6057,
      "Ġrelig": 6058,
      "gment": 6059,
      "Ġarranged": 6060,
      "Ġenjoying": 6061,
      "ĠTake": 6062,
      "iring": 6063,
      "Ġagreement": 6064,
      "ctually": 6065,
      "rett": 6066,
      "ĠExcept": 6067,
      "Ġflu": 6068,
      "ĠWolf": 6069,
      "Ġfled": 6070,
      "ĠTim": 6071,
      "ĠArch": 6072,
      "Ġelectric": 6073,
      "Only": 6074,
      "gger": 6075,
      "Ġgorge": 6076,
      "Ġintention": 6077,
      "Ġacting": 6078,
      "Ġbackground": 6079,
      "ĠTaylor": 6080,
      "Ġcourtyard": 6081,
      "ĠHunter": 6082,
      "Ġtough": 6083,
      "Ġtotal": 6084,
      "Ġpregnant": 6085,
      "Ġbasket": 6086,
      "ĠEv": 6087,
      "Ġupward": 6088,
      "Ġquarter": 6089,
      "asty": 6090,
      "Ġwounds": 6091,
      "Ġlat": 6092,
      "Ġunusual": 6093,
      "ĠSol": 6094,
      "Ġtub": 6095,
      "Ġfrustration": 6096,
      "ĠFuck": 6097,
      "Ġbothered": 6098,
      "After": 6099,
      "Ġcord": 6100,
      "Ġslowed": 6101,
      "Ġarmor": 6102,
      "Ġsaddle": 6103,
      "Ġprecious": 6104,
      "Ġraced": 6105,
      "Ġclever": 6106,
      "Ġtrial": 6107,
      "then": 6108,
      "ĠPart": 6109,
      "Ġproperly": 6110,
      "Ġlimbs": 6111,
      "win": 6112,
      "ĠMill": 6113,
      "Ġcasual": 6114,
      "Ġdeserve": 6115,
      "illian": 6116,
      "Ġcontain": 6117,
      "ĠFer": 6118,
      "ĠCent": 6119,
      "ĠBlue": 6120,
      "Ġunp": 6121,
      "log": 6122,
      "Never": 6123,
      "azz": 6124,
      "ĠCourt": 6125,
      "Ġanxious": 6126,
      "Ġforcing": 6127,
      "Ġdetective": 6128,
      "Ġreck": 6129,
      "Ġshivered": 6130,
      "Ġmyster": 6131,
      "Ġaccompl": 6132,
      "ĠDuke": 6133,
      "Ġbay": 6134,
      "isk": 6135,
      "Ġmuff": 6136,
      "ĠSaturday": 6137,
      "Ġtreated": 6138,
      "ĠAndrew": 6139,
      "',": 6140,
      "Ġeaten": 6141,
      "20": 6142,
      "Ġpatted": 6143,
      "Ġflung": 6144,
      "coming": 6145,
      "Ġprogram": 6146,
      "ĠRow": 6147,
      "Ġeyel": 6148,
      "ĠHold": 6149,
      "Ġfalse": 6150,
      "Ġwarriors": 6151,
      "Ġrevealed": 6152,
      "Ġsection": 6153,
      "Ġhugged": 6154,
      "Ġles": 6155,
      "Ġflicked": 6156,
      "mond": 6157,
      "uted": 6158,
      "Ġstruggle": 6159,
      "Ġere": 6160,
      "ĠStar": 6161,
      "Ġindividual": 6162,
      "ĠMs": 6163,
      "ĠRand": 6164,
      "Ġthousands": 6165,
      "Ġsnap": 6166,
      "Ġparted": 6167,
      "Uh": 6168,
      "Ġcrowded": 6169,
      "Ġpity": 6170,
      "Ġstops": 6171,
      "ĠKay": 6172,
      "Ġsuc": 6173,
      "sa": 6174,
      "ĠSel": 6175,
      "Which": 6176,
      "Ġribs": 6177,
      "ĠGreen": 6178,
      "Ġnearest": 6179,
      "ĠDanny": 6180,
      "Ġmoder": 6181,
      "yes": 6182,
      "Ġresol": 6183,
      "Ġcris": 6184,
      "Ġdagger": 6185,
      "ĠFinn": 6186,
      "Ġcredit": 6187,
      "ĠSever": 6188,
      "Ġimages": 6189,
      "rating": 6190,
      "Ġentertain": 6191,
      "Ġboot": 6192,
      "owly": 6193,
      "Ġcit": 6194,
      "Ġmild": 6195,
      "Ġfond": 6196,
      "Ġactual": 6197,
      "ĠBra": 6198,
      "Ġamused": 6199,
      "Ġax": 6200,
      "Ġintim": 6201,
      "Ġyanked": 6202,
      "Ġclit": 6203,
      "Ġcollapsed": 6204,
      "aky": 6205,
      "Ġstunned": 6206,
      "Ġmidnight": 6207,
      "ito": 6208,
      "Ġripp": 6209,
      "Ġrole": 6210,
      "Ġtracks": 6211,
      "Ġissue": 6212,
      "Ġangel": 6213,
      "Ġlightning": 6214,
      "Ġargument": 6215,
      "Ġaloud": 6216,
      "Ġarched": 6217,
      "Ġsatisfied": 6218,
      "Ġshade": 6219,
      "Ġaudience": 6220,
      "Ġloves": 6221,
      "Ġupright": 6222,
      "asant": 6223,
      "Ġproof": 6224,
      "Ġdrops": 6225,
      "Ġcontent": 6226,
      "Ġsatisfaction": 6227,
      "una": 6228,
      "Ġstretch": 6229,
      "Ġder": 6230,
      "De": 6231,
      "ava": 6232,
      "Ġappe": 6233,
      "Ġthroughout": 6234,
      "Ġstepping": 6235,
      "Ġdrawer": 6236,
      "ilet": 6237,
      "Ġexclaimed": 6238,
      "Ġuseless": 6239,
      "boy": 6240,
      "ĠLand": 6241,
      "lar": 6242,
      "Ġcausing": 6243,
      "IT": 6244,
      "Ġsched": 6245,
      "ĠLeo": 6246,
      "ĠJulia": 6247,
      "ĠDou": 6248,
      "ĠEur": 6249,
      "Ġcolors": 6250,
      "pri": 6251,
      "Ġappl": 6252,
      "iverse": 6253,
      "Ġsecure": 6254,
      "Ġwhispers": 6255,
      "Ġthorough": 6256,
      "Ġcage": 6257,
      "Ġrhythm": 6258,
      "Ġexample": 6259,
      "ĠGold": 6260,
      "Ġsurrounding": 6261,
      "ĠDamn": 6262,
      "Ġshuddered": 6263,
      "Ġhid": 6264,
      "hu": 6265,
      "ĠFire": 6266,
      "RE": 6267,
      "Ġwagon": 6268,
      "Ġspat": 6269,
      "Ġlouder": 6270,
      "Ġversion": 6271,
      "ĠArt": 6272,
      "Ġbrilliant": 6273,
      "Ġswords": 6274,
      "ĠMolly": 6275,
      "acking": 6276,
      "ĠTed": 6277,
      "Ġideas": 6278,
      "Ġstraw": 6279,
      "Ġforces": 6280,
      "ĠAmerica": 6281,
      "reek": 6282,
      "atically": 6283,
      "ĠParis": 6284,
      "Ġflower": 6285,
      "ĠMatthew": 6286,
      "Ġsan": 6287,
      "Ġnovel": 6288,
      "Ġseek": 6289,
      "irling": 6290,
      "Ġshy": 6291,
      "Ġ20": 6292,
      "ĠBern": 6293,
      "Ġfurniture": 6294,
      "osing": 6295,
      "Ġnails": 6296,
      "Ġcruel": 6297,
      "Ġexpensive": 6298,
      "hem": 6299,
      "Ġstock": 6300,
      "chief": 6301,
      "Ġapproaching": 6302,
      "ĠCole": 6303,
      "Ġfog": 6304,
      "Ġshuff": 6305,
      "mber": 6306,
      "ĠLucas": 6307,
      "Ġpuff": 6308,
      "beat": 6309,
      "ĠGeneral": 6310,
      "Ġprick": 6311,
      "Ġpig": 6312,
      "Ġpow": 6313,
      "ĠJeff": 6314,
      "Ġexchange": 6315,
      "resh": 6316,
      "Ġintens": 6317,
      "Ġprovided": 6318,
      "icles": 6319,
      "ĠLaura": 6320,
      "ribly": 6321,
      "Ġstudent": 6322,
      "which": 6323,
      "ĠHon": 6324,
      "iece": 6325,
      "Ġrefer": 6326,
      "Ġlots": 6327,
      "Ġpistol": 6328,
      "Ġearn": 6329,
      "Ġinflu": 6330,
      "ĠPap": 6331,
      "ĠVery": 6332,
      "Ġfingertips": 6333,
      "Ġaccent": 6334,
      "Ġsought": 6335,
      "ville": 6336,
      "Ġcareer": 6337,
      "Tr": 6338,
      "ouch": 6339,
      "acon": 6340,
      "ĠRoman": 6341,
      "Ġboyfriend": 6342,
      "ĠPri": 6343,
      "Ġmoaned": 6344,
      "Ġgasp": 6345,
      "Ġproceed": 6346,
      "ĠUp": 6347,
      "Ġnerves": 6348,
      "Ġsurvived": 6349,
      "ĠSav": 6350,
      "Ġmiser": 6351,
      "Ġboxes": 6352,
      "Ġmagical": 6353,
      "enth": 6354,
      "kins": 6355,
      "urance": 6356,
      "ĠHard": 6357,
      "Ġsport": 6358,
      "Ġgrinning": 6359,
      "Ġpadd": 6360,
      "ĠOlivia": 6361,
      "ĠReg": 6362,
      "Ġdumb": 6363,
      "yard": 6364,
      "Ġgrunted": 6365,
      "Ġhumor": 6366,
      "EL": 6367,
      "ĠDa": 6368,
      "Ġunderw": 6369,
      "Ġeyed": 6370,
      "Ġ10": 6371,
      "Ġstag": 6372,
      "Ġpermission": 6373,
      "Ġcrawled": 6374,
      "Ġveins": 6375,
      "Ġarrive": 6376,
      "Ġshed": 6377,
      "Ġsteal": 6378,
      "Ġreveal": 6379,
      "Ġputs": 6380,
      "Ġdrinks": 6381,
      "Ġrecent": 6382,
      "Ġdiscover": 6383,
      "Ġmedic": 6384,
      "Ġchildhood": 6385,
      "Ġscen": 6386,
      "Ġnest": 6387,
      "ĠBoy": 6388,
      "Ġlearning": 6389,
      "Ġstirred": 6390,
      "col": 6391,
      "Ġrange": 6392,
      "Ġglances": 6393,
      "Ġskill": 6394,
      "Ġcrouched": 6395,
      "bell": 6396,
      "ĠAugust": 6397,
      "rim": 6398,
      "Ġchocol": 6399,
      "alie": 6400,
      "Ãª": 6401,
      "ĠTan": 6402,
      "mn": 6403,
      "Ġwicked": 6404,
      "Ġextremely": 6405,
      "ĠSeth": 6406,
      "shit": 6407,
      "ĠUntil": 6408,
      "Ġdistracted": 6409,
      "Ġraising": 6410,
      "ĠYeah": 6411,
      "udged": 6412,
      "Ġfairly": 6413,
      "Ġmixed": 6414,
      "Ġobserved": 6415,
      "ga": 6416,
      "ĠJulian": 6417,
      "lect": 6418,
      "ishop": 6419,
      "ĠMama": 6420,
      "Ġbehavior": 6421,
      "Ġexit": 6422,
      "Ġknuck": 6423,
      "Ġmeth": 6424,
      "Ġanswering": 6425,
      "Ġorgasm": 6426,
      "ĠBeck": 6427,
      "Ġbol": 6428,
      "ĠEst": 6429,
      "uded": 6430,
      "Ġmovements": 6431,
      "Ġcoast": 6432,
      "gun": 6433,
      "Ġach": 6434,
      "ĠEmp": 6435,
      "Ġsevent": 6436,
      "just": 6437,
      "Ġclutched": 6438,
      "husi": 6439,
      "ĠCe": 6440,
      "ĠEdward": 6441,
      "Ġdevil": 6442,
      "Ġcrit": 6443,
      "omes": 6444,
      "ayne": 6445,
      "Ġnodding": 6446,
      "Ġ--": 6447,
      "Ġdeliver": 6448,
      "Ġvulner": 6449,
      "Ġchanges": 6450,
      "Ġignoring": 6451,
      "Ġshaft": 6452,
      "Ġfancy": 6453,
      "Ġwhoever": 6454,
      "iable": 6455,
      "Ġpercent": 6456,
      "Ġfigures": 6457,
      "dge": 6458,
      "hest": 6459,
      "Ġdragging": 6460,
      "Ġcopy": 6461,
      "ĠLaw": 6462,
      "Ġglimpse": 6463,
      "Ġshim": 6464,
      "itable": 6465,
      "inks": 6466,
      "Ġcrept": 6467,
      "ĠJacob": 6468,
      "arled": 6469,
      "Ġloving": 6470,
      "Ġsalt": 6471,
      "Ġscri": 6472,
      "oon": 6473,
      "ollen": 6474,
      "ailed": 6475,
      "Ġstring": 6476,
      "Ġproved": 6477,
      "Ġvideo": 6478,
      "Ä±n": 6479,
      "Ġresearch": 6480,
      "Ġretrie": 6481,
      "Ġmagaz": 6482,
      "ĠEast": 6483,
      "Ġseason": 6484,
      "bborn": 6485,
      "Ġspirits": 6486,
      "Even": 6487,
      "Ġslipping": 6488,
      "sers": 6489,
      "Ġdisappointed": 6490,
      "Ġseparate": 6491,
      "ĠSusan": 6492,
      "ĠKim": 6493,
      "Ġminds": 6494,
      "ĠNobody": 6495,
      "apes": 6496,
      "Ġbasement": 6497,
      "bus": 6498,
      "ĠNorm": 6499,
      "Ġclaws": 6500,
      "Ġfurious": 6501,
      "Ġpersu": 6502,
      "Hi": 6503,
      "Ġspite": 6504,
      "Ġinsane": 6505,
      "Ġcorpse": 6506,
      "while": 6507,
      "ickered": 6508,
      "mist": 6509,
      "Ġsideways": 6510,
      "By": 6511,
      "Ġarmed": 6512,
      "ok": 6513,
      "Ġnap": 6514,
      "urd": 6515,
      "Ã£": 6516,
      "Ġforb": 6517,
      "Ġimper": 6518,
      "Ġcontem": 6519,
      "isions": 6520,
      "Ġcough": 6521,
      "Ġconstant": 6522,
      "Ġtale": 6523,
      "Ġsheep": 6524,
      "chant": 6525,
      "Ġnipples": 6526,
      "Ġviolence": 6527,
      "raged": 6528,
      "Ġsubst": 6529,
      "ĠAust": 6530,
      "ĠNeither": 6531,
      "ĠWood": 6532,
      "bout": 6533,
      "ĠSean": 6534,
      "Ġthus": 6535,
      "Ġmortal": 6536,
      "Ġshrug": 6537,
      "Ġprofessional": 6538,
      "Ġwaving": 6539,
      "Ġdescribed": 6540,
      "ĠAbout": 6541,
      "Ġflow": 6542,
      "ĊĊ": 6543,
      "Ġrapidly": 6544,
      "Ġdemons": 6545,
      "Ġenthusi": 6546,
      "Ġadvent": 6547,
      "Aye": 6548,
      "incip": 6549,
      "ndeed": 6550,
      "Ġstyle": 6551,
      "Ġcircles": 6552,
      "ĠMia": 6553,
      "Ġtrailed": 6554,
      "Ġlin": 6555,
      "ension": 6556,
      "Ġbore": 6557,
      "Ġsqueeze": 6558,
      "Ġdrugs": 6559,
      "Ġasshole": 6560,
      "Ġlands": 6561,
      "Ġdanced": 6562,
      "Ġalt": 6563,
      "ĠAN": 6564,
      "gers": 6565,
      "Ġhunger": 6566,
      "bes": 6567,
      "hal": 6568,
      "Ġvehicle": 6569,
      "Ġache": 6570,
      "ĠBack": 6571,
      "Ġhollow": 6572,
      "Ġsandw": 6573,
      "Ġalert": 6574,
      "hings": 6575,
      "Ġsignific": 6576,
      "Ġmic": 6577,
      "ĠBlake": 6578,
      "Ġrat": 6579,
      "orne": 6580,
      "Ġdomin": 6581,
      "Ġtank": 6582,
      "Ġequip": 6583,
      "Ġembrace": 6584,
      "Ġbits": 6585,
      "Ġcenturies": 6586,
      "Ġhorizon": 6587,
      "ĠMoon": 6588,
      "inder": 6589,
      "semb": 6590,
      "Ġaddition": 6591,
      "Ġfalls": 6592,
      "Ġfolk": 6593,
      "Ġwire": 6594,
      "Ġavailable": 6595,
      "Ġconcrete": 6596,
      "Ġactions": 6597,
      "Ġangle": 6598,
      "iolet": 6599,
      "Ġdeny": 6600,
      "Ġcerem": 6601,
      "Ġgloves": 6602,
      "ĠGuard": 6603,
      "two": 6604,
      "Ġreaches": 6605,
      "itory": 6606,
      "Ġrarely": 6607,
      "fect": 6608,
      "Ġhook": 6609,
      "Ġamusement": 6610,
      "atives": 6611,
      "Ġsociety": 6612,
      "Ġracing": 6613,
      "Ġbacks": 6614,
      "town": 6615,
      "ĠDay": 6616,
      "Ġprovide": 6617,
      "arked": 6618,
      "Ġgirlfriend": 6619,
      "BI": 6620,
      "ĠVir": 6621,
      "born": 6622,
      "Ġsons": 6623,
      "ĠRick": 6624,
      "Ġwandered": 6625,
      "Ġopens": 6626,
      "Ġstuffed": 6627,
      "Ġfever": 6628,
      "Ġdared": 6629,
      "Ġdigging": 6630,
      "ĠWorld": 6631,
      "ĠLeon": 6632,
      "Ġruined": 6633,
      "Ġtheory": 6634,
      "keeper": 6635,
      "Ġestate": 6636,
      "Ġplung": 6637,
      "urned": 6638,
      "Ġcharged": 6639,
      "Ġcy": 6640,
      "ĠLooking": 6641,
      "Ġswing": 6642,
      "Ġvirt": 6643,
      "Ġinformed": 6644,
      "Ġtasted": 6645,
      "Ġrings": 6646,
      "Ġsentence": 6647,
      "Ġplatform": 6648,
      "bal": 6649,
      "Ġlaughs": 6650,
      "abor": 6651,
      "ĠBu": 6652,
      "Ġeleg": 6653,
      "Ġstole": 6654,
      "Ġarrival": 6655,
      "Ġobsc": 6656,
      "Ġallowing": 6657,
      "Ġsucceed": 6658,
      "ria": 6659,
      "ĠBa": 6660,
      "Ġguide": 6661,
      "Ġwrap": 6662,
      "lings": 6663,
      "cel": 6664,
      "Ġtransform": 6665,
      "ĠEvan": 6666,
      "lished": 6667,
      "Ġcode": 6668,
      "bble": 6669,
      "Ġeleven": 6670,
      "Ġlocation": 6671,
      "Ġconsequ": 6672,
      "cast": 6673,
      "Ġì": 6674,
      "Ġpatch": 6675,
      "Ġol": 6676,
      "Ġassass": 6677,
      "Ġcler": 6678,
      "Ġmechan": 6679,
      "ĠWes": 6680,
      "Ġmatt": 6681,
      "Ġvel": 6682,
      "Ġroute": 6683,
      "Ġowner": 6684,
      "ody": 6685,
      "Ġgang": 6686,
      "ĠMont": 6687,
      "ĠTen": 6688,
      "Ġcovers": 6689,
      "aleb": 6690,
      "Ġbrick": 6691,
      "ĠFriday": 6692,
      "ĠAbby": 6693,
      "Ġmarble": 6694,
      "Ġbesides": 6695,
      "bast": 6696,
      "inating": 6697,
      "Ġfuneral": 6698,
      "Ġragged": 6699,
      "Ġrevol": 6700,
      "Ġetern": 6701,
      "Ġoblig": 6702,
      "Ġendless": 6703,
      "Ġstroke": 6704,
      "Ġunknown": 6705,
      "Ġcheese": 6706,
      "ĠSurely": 6707,
      "ggy": 6708,
      "Ġbarrel": 6709,
      "Ġshelter": 6710,
      "ĠThrough": 6711,
      "Ġsnatched": 6712,
      "Ġfrequ": 6713,
      "Ġblonde": 6714,
      "Ġspinning": 6715,
      "Ġstubborn": 6716,
      "Ġsang": 6717,
      "adem": 6718,
      "Ġdisbel": 6719,
      "Ġbund": 6720,
      "Ġviolent": 6721,
      "ĠSen": 6722,
      "ountain": 6723,
      "Ġtelephone": 6724,
      "Ġaccording": 6725,
      "ĠLi": 6726,
      "lad": 6727,
      "Ġpee": 6728,
      "Ġhappiness": 6729,
      "Ġsurge": 6730,
      "Ġjail": 6731,
      "Ġaffection": 6732,
      "Ġpolite": 6733,
      "IL": 6734,
      "Ġequipment": 6735,
      "Ġaccompan": 6736,
      "ĠEurope": 6737,
      "Ġshattered": 6738,
      "Ġshone": 6739,
      "Ġbegins": 6740,
      "Ġcontained": 6741,
      "Ġcalmly": 6742,
      "Ġremove": 6743,
      "ĠProbably": 6744,
      "rs": 6745,
      "Ġswitch": 6746,
      "ĠSur": 6747,
      "lling": 6748,
      "Ġdepe": 6749,
      "Ġenvelope": 6750,
      "Ġfloating": 6751,
      "Ġquarters": 6752,
      "ĠMany": 6753,
      "Ġsignal": 6754,
      "Ġclimbing": 6755,
      "utation": 6756,
      "Ġutterly": 6757,
      "Ġnoble": 6758,
      "Ġclient": 6759,
      "Ġnewspaper": 6760,
      "Ġkingdom": 6761,
      "Ġ11": 6762,
      "rily": 6763,
      "Qu": 6764,
      "ĠJimmy": 6765,
      "uge": 6766,
      "Ġmile": 6767,
      "Ġchamp": 6768,
      "Ã¤": 6769,
      "Ġmotor": 6770,
      "Ġfamous": 6771,
      "ĠChief": 6772,
      "Ġassoci": 6773,
      "Ġdefense": 6774,
      "Ġneighborhood": 6775,
      "ĠQuinn": 6776,
      "Ġchann": 6777,
      "ĠBrad": 6778,
      "Ġpunishment": 6779,
      "nda": 6780,
      "ĠWinter": 6781,
      "ĠAmanda": 6782,
      "Ġgentleman": 6783,
      "ĠStephen": 6784,
      "Ġhitting": 6785,
      "Ġinjured": 6786,
      "Ġmattress": 6787,
      "Ġtriumph": 6788,
      "Ġwre": 6789,
      "venge": 6790,
      "ĠFrancis": 6791,
      "Ġremote": 6792,
      "Give": 6793,
      "Ġded": 6794,
      "faced": 6795,
      "iah": 6796,
      "Ġswore": 6797,
      "Ġrate": 6798,
      "Ġpad": 6799,
      "Ġauthority": 6800,
      "Ġsteam": 6801,
      "Ġpassenger": 6802,
      "ĠHope": 6803,
      "ĠJessica": 6804,
      "Ġgear": 6805,
      "fin": 6806,
      "ĠNext": 6807,
      "Ġ&": 6808,
      "Ġtrem": 6809,
      "Ġskills": 6810,
      "Ġchocolate": 6811,
      "Ġpra": 6812,
      "acles": 6813,
      "ordan": 6814,
      "Ġcreate": 6815,
      "tes": 6816,
      "Ġfourth": 6817,
      "Ġenv": 6818,
      "Ġgrabbing": 6819,
      "aya": 6820,
      "Ġvictims": 6821,
      "Ġshows": 6822,
      "ĠLove": 6823,
      "Ġsore": 6824,
      "Ġdun": 6825,
      "Ġdish": 6826,
      "Ġrefuse": 6827,
      "Ġrecords": 6828,
      "Ġdirections": 6829,
      "Ġsounding": 6830,
      "Ġsi": 6831,
      "Ġprisoner": 6832,
      "Ġphotos": 6833,
      "Ġreported": 6834,
      "ĠSon": 6835,
      "Ġunconscious": 6836,
      "Ġsuffered": 6837,
      "Ġrifle": 6838,
      "Ġgorgeous": 6839,
      "Ġgul": 6840,
      "Ġimpressed": 6841,
      "ĠLyn": 6842,
      "Ġbon": 6843,
      "Ġlawn": 6844,
      "Ġsigned": 6845,
      "Ġhammer": 6846,
      "ops": 6847,
      "Ġexpert": 6848,
      "Ġbreaths": 6849,
      "Ġroared": 6850,
      "Ġmumbled": 6851,
      "isher": 6852,
      "arn": 6853,
      "Ġmal": 6854,
      "Ġelder": 6855,
      "ĠKir": 6856,
      "Ġforearm": 6857,
      "Ġnightmare": 6858,
      "Ġexerc": 6859,
      "ooper": 6860,
      "ural": 6861,
      "ctors": 6862,
      "Ġlonely": 6863,
      "ĠAlexander": 6864,
      "Ġexhaust": 6865,
      "Ġcomplicated": 6866,
      "ĠConnor": 6867,
      "Ġped": 6868,
      "Ġbond": 6869,
      "Ġsuffering": 6870,
      "ĠEllie": 6871,
      "Ġdistinct": 6872,
      "Ġrushing": 6873,
      "Ġbrut": 6874,
      ".,": 6875,
      "Damn": 6876,
      "Pro": 6877,
      "amm": 6878,
      "Ġillum": 6879,
      "Ġras": 6880,
      "Ġnormally": 6881,
      "Ke": 6882,
      "ĠKy": 6883,
      "Ġcrystal": 6884,
      "ĠSmith": 6885,
      "Ġswollen": 6886,
      "ĠSix": 6887,
      "derer": 6888,
      "Ġcrossing": 6889,
      "Ġdelivered": 6890,
      "Ġcentury": 6891,
      "ĠInside": 6892,
      "Ġadjust": 6893,
      "Ġbearing": 6894,
      "Ġmeasure": 6895,
      "ĠMaj": 6896,
      "Ġdealing": 6897,
      "Ġscreams": 6898,
      "Ġclung": 6899,
      "Ġrescue": 6900,
      "Ġpas": 6901,
      "ardon": 6902,
      "ĠAra": 6903,
      "actly": 6904,
      "lights": 6905,
      "ĠGil": 6906,
      "retched": 6907,
      "ĠSlowly": 6908,
      "Ġwaters": 6909,
      "Ġpunch": 6910,
      "ĠSqu": 6911,
      "Ġcommunity": 6912,
      "othed": 6913,
      "Ġsuspicious": 6914,
      "Ġmystery": 6915,
      "Ġflee": 6916,
      "ras": 6917,
      "Ġgroan": 6918,
      "Ġstool": 6919,
      "Ġrevealing": 6920,
      "ĠMond": 6921,
      "Ġhuh": 6922,
      "iva": 6923,
      "ĠEddie": 6924,
      "Ġknocking": 6925,
      "Ġpanties": 6926,
      "Ã£o": 6927,
      "ĠAp": 6928,
      "vest": 6929,
      "andom": 6930,
      "Ġcries": 6931,
      "ĠMed": 6932,
      "Ġgreatest": 6933,
      "Ġscient": 6934,
      "Ġexisted": 6935,
      "Ġsuffer": 6936,
      "Ġreflection": 6937,
      "Ġtradition": 6938,
      "Ġdriveway": 6939,
      "Ġscrambled": 6940,
      "ĠFive": 6941,
      "Ġresponsibility": 6942,
      "Ġchicken": 6943,
      "mi": 6944,
      "CH": 6945,
      "Ġnervously": 6946,
      "lying": 6947,
      "Ġthreatening": 6948,
      "ulty": 6949,
      "Ġdeclared": 6950,
      "Ġbetray": 6951,
      "shot": 6952,
      "Ġowned": 6953,
      "Ġdial": 6954,
      "Ġspear": 6955,
      "ummer": 6956,
      "wyn": 6957,
      "Ġannoyed": 6958,
      "Ġpolitical": 6959,
      "Two": 6960,
      "Ġtin": 6961,
      "Ġregarded": 6962,
      "itual": 6963,
      "Ġeduc": 6964,
      "Ġbatt": 6965,
      "Ġpaw": 6966,
      "Ġmeas": 6967,
      "Bl": 6968,
      "Ġseeking": 6969,
      "iger": 6970,
      "Ġpossessed": 6971,
      "ĠOp": 6972,
      "Ġroar": 6973,
      "Ġchoked": 6974,
      "Ġeggs": 6975,
      "ĠNa": 6976,
      "rene": 6977,
      "Ġcurtains": 6978,
      "ĠThanks": 6979,
      "ĠProf": 6980,
      "Ġshrie": 6981,
      "Ġdeserved": 6982,
      "artment": 6983,
      "ĠTon": 6984,
      "Ġuniverse": 6985,
      "ĠBell": 6986,
      "Ġcheap": 6987,
      "Ġshifting": 6988,
      "Ġreflected": 6989,
      "Ġmug": 6990,
      "Ġfake": 6991,
      "Ġdespair": 6992,
      "ĠKit": 6993,
      "Ġpurch": 6994,
      "ĠRoger": 6995,
      "ĠRome": 6996,
      "Ġcrad": 6997,
      "Ġtan": 6998,
      "Ġconfirmed": 6999,
      "Ġcrash": 7000,
      "Something": 7001,
      "ĠRes": 7002,
      "Ġstrip": 7003,
      "ification": 7004,
      "Ġspilled": 7005,
      "Ġruin": 7006,
      "iders": 7007,
      "Ġwinced": 7008,
      "hh": 7009,
      "ĠSky": 7010,
      "ĠLisa": 7011,
      "Ġuna": 7012,
      "Ġdepartment": 7013,
      "ĠKn": 7014,
      "Ġspreading": 7015,
      "even": 7016,
      "Ġleapt": 7017,
      "Ġbegged": 7018,
      "Ġalcohol": 7019,
      "Ġlegal": 7020,
      "OM": 7021,
      "Ġbomb": 7022,
      "ittered": 7023,
      "ĠMarsh": 7024,
      "Ġsugar": 7025,
      "ĠBritish": 7026,
      "Ġdragons": 7027,
      "Ġum": 7028,
      "Ġcurve": 7029,
      "Ġscanned": 7030,
      "anking": 7031,
      "Ġdecent": 7032,
      "Ġjustice": 7033,
      "arian": 7034,
      "Ġfleet": 7035,
      "quis": 7036,
      "Ġrandom": 7037,
      "Ġreports": 7038,
      "gain": 7039,
      "aby": 7040,
      "Ġresemb": 7041,
      "Ġfilth": 7042,
      "Ġcocked": 7043,
      "Ġhired": 7044,
      "there": 7045,
      "Ġgn": 7046,
      "Ġlas": 7047,
      "ima": 7048,
      "Ġblocks": 7049,
      "Ġfortune": 7050,
      "ĠClo": 7051,
      "Ġpotential": 7052,
      "anor": 7053,
      "ĠViv": 7054,
      "ĠJackson": 7055,
      "ba": 7056,
      "ĠApparently": 7057,
      "Ġsafely": 7058,
      "Ġvisited": 7059,
      "Ġgreeted": 7060,
      "Ġabsor": 7061,
      "Ġtwisting": 7062,
      "ĠCra": 7063,
      "Ġsteep": 7064,
      "Ġkinds": 7065,
      "ji": 7066,
      "Ġimagination": 7067,
      "idently": 7068,
      "Ġincident": 7069,
      "Ġalien": 7070,
      "Ġfears": 7071,
      "Ġbless": 7072,
      "Ġtrousers": 7073,
      "Ġfer": 7074,
      "Ġnasty": 7075,
      "Ġreward": 7076,
      "ĠChurch": 7077,
      "Ġducked": 7078,
      "Ġmethod": 7079,
      "Ġclue": 7080,
      "anding": 7081,
      "Ġgain": 7082,
      "oday": 7083,
      "Ġseats": 7084,
      "ĠMist": 7085,
      "Could": 7086,
      "Ġfinds": 7087,
      "Ġcontents": 7088,
      "car": 7089,
      "ĠOF": 7090,
      "ammed": 7091,
      "Ġtraveled": 7092,
      "Ġemergency": 7093,
      "Ġna": 7094,
      "ĠSab": 7095,
      "essel": 7096,
      "Ġtries": 7097,
      "Ġweakness": 7098,
      "Ġowe": 7099,
      "unting": 7100,
      "logy": 7101,
      "Ġspending": 7102,
      "Ġmodern": 7103,
      "olas": 7104,
      "Ġtempt": 7105,
      "Ġholes": 7106,
      "ords": 7107,
      "Ġboo": 7108,
      "Ġclutching": 7109,
      "Ġdoubted": 7110,
      "ĠPrincess": 7111,
      "ainted": 7112,
      "urt": 7113,
      "Ġvalue": 7114,
      "Ġrecalled": 7115,
      "Ġlantern": 7116,
      "ĠBob": 7117,
      "Ġexcellent": 7118,
      "ĠLes": 7119,
      "ode": 7120,
      "Ġnu": 7121,
      "Ġclosest": 7122,
      "agn": 7123,
      "Ġsheer": 7124,
      "Ġbarn": 7125,
      "ĠNate": 7126,
      "Ġcurved": 7127,
      "ala": 7128,
      "Ġ?": 7129,
      "Ġaid": 7130,
      "umes": 7131,
      "Ġleaped": 7132,
      "attering": 7133,
      "Listen": 7134,
      "unate": 7135,
      "ĠHalf": 7136,
      "Ġappears": 7137,
      "icem": 7138,
      "Ġaver": 7139,
      "ĠComp": 7140,
      "Ġmoan": 7141,
      "Ġtipped": 7142,
      "Ġplus": 7143,
      "Ġfilm": 7144,
      "weet": 7145,
      "Ġmour": 7146,
      "Ġescort": 7147,
      "Ġtorture": 7148,
      "roy": 7149,
      "Ġtroops": 7150,
      "Ġhalt": 7151,
      "Ġseized": 7152,
      "uated": 7153,
      "Ġyawn": 7154,
      "Ġbranch": 7155,
      "Ġexploded": 7156,
      "Ġ\"'": 7157,
      "ĠLiam": 7158,
      "Ġelbows": 7159,
      "Ã©e": 7160,
      "Ġdreamed": 7161,
      "Ġcottage": 7162,
      "Ġagony": 7163,
      "Ġperman": 7164,
      "don": 7165,
      "Ġmurderer": 7166,
      "Ġpreferred": 7167,
      "Ġteasing": 7168,
      "Ġcuff": 7169,
      "Ġmoonlight": 7170,
      "ĠDeath": 7171,
      "Ġlege": 7172,
      "ĠPort": 7173,
      "rep": 7174,
      "Ġsnake": 7175,
      "Ġbottles": 7176,
      "ĠFBI": 7177,
      "Ġknot": 7178,
      "ĠBrand": 7179,
      "Ġgoss": 7180,
      "Ġhealing": 7181,
      "Ġglit": 7182,
      "outhern": 7183,
      "Ġsite": 7184,
      "Ġaltern": 7185,
      "ĠHa": 7186,
      "Ġhem": 7187,
      "Ġintelligence": 7188,
      "Ġera": 7189,
      "ĠHal": 7190,
      "ĠDante": 7191,
      "Ġmob": 7192,
      "Ġtraveling": 7193,
      "Ġlaz": 7194,
      "Ġslender": 7195,
      "Ġflex": 7196,
      "Ġreception": 7197,
      "Ġbrings": 7198,
      "Ġplates": 7199,
      "Ġwizard": 7200,
      "Ġlately": 7201,
      "Ġcontempl": 7202,
      "Ġink": 7203,
      "Ġmotioned": 7204,
      "Ġpounds": 7205,
      "Ġsensitive": 7206,
      "Ġmane": 7207,
      "Jes": 7208,
      "Ġdiamond": 7209,
      "Ġrequire": 7210,
      "Ġsaving": 7211,
      "ĠDep": 7212,
      "ĠDomin": 7213,
      "Ġcore": 7214,
      "Ġouter": 7215,
      "Ġlimp": 7216,
      "Ġsupplies": 7217,
      "Ġswinging": 7218,
      "Our": 7219,
      "Ġborder": 7220,
      "arded": 7221,
      "Ġcleaning": 7222,
      "ships": 7223,
      "ĠLast": 7224,
      "Ġexamined": 7225,
      "Ġhighly": 7226,
      "lim": 7227,
      "asses": 7228,
      "Ġcrap": 7229,
      "xy": 7230,
      "ĠRock": 7231,
      "ĠDom": 7232,
      "Ġhonestly": 7233,
      "ĠSebast": 7234,
      "Ġbolt": 7235,
      "cra": 7236,
      "ĠAnyway": 7237,
      "Ġloos": 7238,
      "Ġprincip": 7239,
      "ĠJoseph": 7240,
      "ifer": 7241,
      "Ġbrushing": 7242,
      "Ġlesson": 7243,
      "inese": 7244,
      "ĠLor": 7245,
      "Ġslim": 7246,
      "lers": 7247,
      "ĠSaint": 7248,
      "ĠAri": 7249,
      "ĠWhe": 7250,
      "sized": 7251,
      "icient": 7252,
      "Ġaching": 7253,
      "ĠShould": 7254,
      "Ġsher": 7255,
      "Ġgloom": 7256,
      "TH": 7257,
      "Ġleans": 7258,
      "ĠLie": 7259,
      "ĠGrey": 7260,
      "Ġrever": 7261,
      "Ġindicated": 7262,
      "Ġlux": 7263,
      "ĠDragon": 7264,
      "Ġstable": 7265,
      "Ġentry": 7266,
      "AD": 7267,
      "this": 7268,
      "Ġreputation": 7269,
      "Ġhomes": 7270,
      "Ġshortly": 7271,
      "ĠOliver": 7272,
      "Ġlobby": 7273,
      "lee": 7274,
      "Ġapologize": 7275,
      "Ġtempor": 7276,
      "ĠHay": 7277,
      "Ġtherefore": 7278,
      "ĠSomehow": 7279,
      "Ġcalcul": 7280,
      "Ġdripping": 7281,
      "Ġinstructions": 7282,
      "Ġgrowl": 7283,
      "Ġexchanged": 7284,
      "ĠJenny": 7285,
      "orious": 7286,
      "hr": 7287,
      "Ġpuzzled": 7288,
      "ĠDidn": 7289,
      "box": 7290,
      "inate": 7291,
      "ĠSeveral": 7292,
      "Ġdise": 7293,
      "Ġjournal": 7294,
      "Ġoccupied": 7295,
      "anta": 7296,
      "away": 7297,
      "Ġimpact": 7298,
      "ĠConst": 7299,
      "Ġconstantly": 7300,
      "?''": 7301,
      "see": 7302,
      "Ġslumped": 7303,
      "Ġswiftly": 7304,
      "Ġpretending": 7305,
      "Ġbust": 7306,
      "uf": 7307,
      "ĠTur": 7308,
      "ĠPatrick": 7309,
      "Ġmercy": 7310,
      "Ã©s": 7311,
      "Ġdressing": 7312,
      "oses": 7313,
      "Ġdarkened": 7314,
      "Ġstares": 7315,
      "Ġspraw": 7316,
      "ĠEspecially": 7317,
      "Ġswitched": 7318,
      "Ġshopping": 7319,
      "Ġankle": 7320,
      "Ġwhipped": 7321,
      "uish": 7322,
      "Ġmessages": 7323,
      "Ġunit": 7324,
      "Ġsnarled": 7325,
      "Ġicy": 7326,
      "Ġformal": 7327,
      "Ġsorrow": 7328,
      "ĠKeep": 7329,
      "Ġcaptured": 7330,
      "ĠMum": 7331,
      "ĠKel": 7332,
      "Ġhealthy": 7333,
      "Ġeighteen": 7334,
      "headed": 7335,
      "bow": 7336,
      "ĠGh": 7337,
      "Ġshiny": 7338,
      "Ġappropri": 7339,
      "Ġheartbeat": 7340,
      "Ġwishing": 7341,
      "lands": 7342,
      "Ġritual": 7343,
      "white": 7344,
      "Ġcouncil": 7345,
      "Ġringing": 7346,
      "ĠLouis": 7347,
      "Ġabsence": 7348,
      "Ġcollection": 7349,
      "Ġcute": 7350,
      "Ġvig": 7351,
      "Ġbiggest": 7352,
      "Mar": 7353,
      "ĠKal": 7354,
      "reed": 7355,
      "ID": 7356,
      "tail": 7357,
      "imp": 7358,
      "Ġmattered": 7359,
      "Ġcraft": 7360,
      "ĠAnnie": 7361,
      "Ġproduced": 7362,
      "Ġsubtle": 7363,
      "Ġdip": 7364,
      "Ġdelicious": 7365,
      "ĠSuch": 7366,
      "sk": 7367,
      "Ġcake": 7368,
      "Ġfriendship": 7369,
      "Ġtrembled": 7370,
      "Ġprotected": 7371,
      "veled": 7372,
      "Ġgrounds": 7373,
      "rict": 7374,
      "Ġdeadly": 7375,
      "avin": 7376,
      "ĠAss": 7377,
      "Ġsidewalk": 7378,
      "inda": 7379,
      "covered": 7380,
      "Ġvessel": 7381,
      "Ġcounted": 7382,
      "ĠWait": 7383,
      "together": 7384,
      "Ġcleaned": 7385,
      "wind": 7386,
      "Ġanxiety": 7387,
      "Ġached": 7388,
      "aste": 7389,
      "Ġphr": 7390,
      "Ġknuckles": 7391,
      "Ġcush": 7392,
      "ended": 7393,
      "Ġwarn": 7394,
      "Ġequally": 7395,
      "ĠPete": 7396,
      "iated": 7397,
      "Ġsneak": 7398,
      "Ġinstr": 7399,
      "Ġattempted": 7400,
      "ray": 7401,
      "ĠCad": 7402,
      "ĠMcC": 7403,
      "iano": 7404,
      "ĠBarb": 7405,
      "armed": 7406,
      "Ġrip": 7407,
      "Ġhyp": 7408,
      "ĠGriff": 7409,
      "hole": 7410,
      "Ġsets": 7411,
      "Ġcitiz": 7412,
      "Ġpatience": 7413,
      "onsense": 7414,
      "Ġvulnerable": 7415,
      "Ġgotta": 7416,
      "Ġclicked": 7417,
      "ĠAaron": 7418,
      "Ġpoet": 7419,
      "Ġacknowled": 7420,
      "ĠShit": 7421,
      "ĠTwenty": 7422,
      "ndered": 7423,
      "ĠHill": 7424,
      "Ġbike": 7425,
      "Ġprotested": 7426,
      "Ġshelf": 7427,
      "otch": 7428,
      "ĠSn": 7429,
      "iron": 7430,
      "Ġjewel": 7431,
      "Ġtaller": 7432,
      "ĠSand": 7433,
      "Am": 7434,
      "ĠLiz": 7435,
      "ĠRussian": 7436,
      "Ġdescended": 7437,
      "Ġcriminal": 7438,
      "Ġprayer": 7439,
      "Ġult": 7440,
      "ĠJesse": 7441,
      "Ġpara": 7442,
      "Ġparl": 7443,
      "had": 7444,
      "Ġneatly": 7445,
      "ventually": 7446,
      "Ar": 7447,
      "ĠRemember": 7448,
      "iner": 7449,
      "ĠAcc": 7450,
      "Ġveget": 7451,
      "ĠJordan": 7452,
      "Ġkicking": 7453,
      "Ġep": 7454,
      "ĠHarr": 7455,
      "Ġcher": 7456,
      "ĠAmber": 7457,
      "ti": 7458,
      "Ġdrained": 7459,
      "ban": 7460,
      "rose": 7461,
      "Ġassistant": 7462,
      "Ġstripped": 7463,
      "ibilities": 7464,
      "ĠDoctor": 7465,
      "ĠLar": 7466,
      "Ġblowing": 7467,
      "ĠDean": 7468,
      "arly": 7469,
      "Ġblankets": 7470,
      "Ġhurting": 7471,
      "Ġpouring": 7472,
      "ĠJay": 7473,
      "Ġsorts": 7474,
      "unning": 7475,
      "Ġfiles": 7476,
      "Ġcrushed": 7477,
      "ĠKelly": 7478,
      "ĠPapa": 7479,
      "Ġemotional": 7480,
      "ĠRel": 7481,
      "ĠTH": 7482,
      "ĠKatie": 7483,
      "Ġdom": 7484,
      "vas": 7485,
      "Ġpinned": 7486,
      "Ġtoilet": 7487,
      "Ġtooth": 7488,
      "lected": 7489,
      "ĠDetective": 7490,
      "Ġspecific": 7491,
      "Ġblades": 7492,
      "ĠFore": 7493,
      "Ġassault": 7494,
      "Ġquit": 7495,
      "Ġsuspicion": 7496,
      "ĠMarie": 7497,
      "Ġintroduced": 7498,
      "ĠCont": 7499,
      "icating": 7500,
      "Ġblink": 7501,
      "Ġitems": 7502,
      "Ġdevelop": 7503,
      "Ġscarce": 7504,
      "ician": 7505,
      "Ġhappily": 7506,
      "Ġalongside": 7507,
      "ĠMonday": 7508,
      "ĠNoah": 7509,
      "ĠAlmost": 7510,
      "Ġhesitation": 7511,
      "Ġpir": 7512,
      "mend": 7513,
      "Ġpolished": 7514,
      "Ġhopes": 7515,
      "ĠChinese": 7516,
      "Ġsixty": 7517,
      "Ġplants": 7518,
      "Ġprior": 7519,
      "Ġmage": 7520,
      "ador": 7521,
      "Ġstaircase": 7522,
      "Ġcreep": 7523,
      "ĠRobin": 7524,
      "ĠVen": 7525,
      "Ġdirected": 7526,
      "bbie": 7527,
      "ĠNich": 7528,
      "Ġslaves": 7529,
      "ushes": 7530,
      "Ġleads": 7531,
      "Ġshorts": 7532,
      "Ġattitude": 7533,
      "Ġdram": 7534,
      "ĠHand": 7535,
      "Ġstructure": 7536,
      "ĠRebe": 7537,
      "Ġclasped": 7538,
      "Ġnerve": 7539,
      "Ġfunction": 7540,
      "Ġcasually": 7541,
      "Ġtitle": 7542,
      "Ġimmediate": 7543,
      "cut": 7544,
      "icted": 7545,
      "umpled": 7546,
      "Ġefforts": 7547,
      "ĠHarper": 7548,
      "Ġcommitted": 7549,
      "unks": 7550,
      "Ġcotton": 7551,
      "ucky": 7552,
      "Ġashamed": 7553,
      "Ġcupped": 7554,
      "Ġdata": 7555,
      "ĠJu": 7556,
      "jected": 7557,
      "Ġsid": 7558,
      "Ġoption": 7559,
      "ĠMeg": 7560,
      "ĠBay": 7561,
      "Ġflashing": 7562,
      "ĠLater": 7563,
      "ĠScar": 7564,
      "Ġsixteen": 7565,
      "Ġankles": 7566,
      "Ġscowled": 7567,
      "Ġwaking": 7568,
      "Ġfrowning": 7569,
      "Ġsucking": 7570,
      "Ġbend": 7571,
      "azing": 7572,
      "Ġkidna": 7573,
      "Ġattractive": 7574,
      "ĠMall": 7575,
      "Ġlid": 7576,
      "Ġvelvet": 7577,
      "Ġgrat": 7578,
      "Ġquality": 7579,
      "Ġseparated": 7580,
      "Ġlic": 7581,
      "idy": 7582,
      "ĠGrant": 7583,
      "Ġchances": 7584,
      "aver": 7585,
      "Ġlabor": 7586,
      "Ġrepresent": 7587,
      "Ġdisbelief": 7588,
      "rees": 7589,
      "Ġpunched": 7590,
      "Ġtighter": 7591,
      "Ġincluded": 7592,
      "ĠHor": 7593,
      "ENT": 7594,
      "enses": 7595,
      "ĠTess": 7596,
      "Ġ12": 7597,
      "IC": 7598,
      "Ġstrained": 7599,
      "Ġwool": 7600,
      "Ġdarted": 7601,
      "Ġtorch": 7602,
      "Ġslope": 7603,
      "his": 7604,
      "Ġspit": 7605,
      "Ġwinked": 7606,
      "ĠTommy": 7607,
      "Ġwhispering": 7608,
      "ĠMik": 7609,
      "Ġbetrayed": 7610,
      "ancer": 7611,
      "ĠJap": 7612,
      "some": 7613,
      "Ġcurls": 7614,
      "izes": 7615,
      "Ġsmells": 7616,
      "Ġscratched": 7617,
      "alls": 7618,
      "Ġlu": 7619,
      "cony": 7620,
      "long": 7621,
      "Ġheir": 7622,
      "iveness": 7623,
      "inge": 7624,
      "zo": 7625,
      "Ġdiscussion": 7626,
      "scape": 7627,
      "pril": 7628,
      "quar": 7629,
      "About": 7630,
      "Ġdisappointment": 7631,
      "Ġblocked": 7632,
      "Ġclan": 7633,
      "Ġmysterious": 7634,
      "ĠMagn": 7635,
      "Ġstretching": 7636,
      "unte": 7637,
      "Ġinev": 7638,
      "Ġfangs": 7639,
      "edy": 7640,
      "Ġpenet": 7641,
      "Ġcrashed": 7642,
      "ĠFox": 7643,
      "Ġdrift": 7644,
      "yd": 7645,
      "Ġnostr": 7646,
      "ĠGive": 7647,
      "Ġleaf": 7648,
      "Ġmounted": 7649,
      "Ġmerc": 7650,
      "ĠTower": 7651,
      "itching": 7652,
      "ĠTears": 7653,
      "ĠRoad": 7654,
      "ĠTri": 7655,
      "Ġcups": 7656,
      "zer": 7657,
      "Ġsharing": 7658,
      "olk": 7659,
      "Ġbalcony": 7660,
      "who": 7661,
      "ĠSebastian": 7662,
      "Ġsarc": 7663,
      "ĠHoll": 7664,
      "Ġprepare": 7665,
      "Ġincredible": 7666,
      "ervation": 7667,
      "Ġoccasionally": 7668,
      "Ġshots": 7669,
      "ĠJones": 7670,
      "ĠCarter": 7671,
      "ĠSto": 7672,
      "Ġsmoking": 7673,
      "Ġtact": 7674,
      "Ġrude": 7675,
      "Ġjerk": 7676,
      "Ġdrum": 7677,
      "Ġfires": 7678,
      "Ġdipped": 7679,
      "ĠErin": 7680,
      "Ġbelief": 7681,
      "Ġkidding": 7682,
      "Jesus": 7683,
      "lined": 7684,
      "These": 7685,
      "oused": 7686,
      "Ġtwitched": 7687,
      "Ġstaggered": 7688,
      "ĠDis": 7689,
      "vies": 7690,
      "Whatever": 7691,
      "mitted": 7692,
      "Ġaffair": 7693,
      "zzy": 7694,
      "ĠCatherine": 7695,
      "Ġloaded": 7696,
      "Ġwildly": 7697,
      "ĠEver": 7698,
      "May": 7699,
      "Ġheel": 7700,
      "Ġpipe": 7701,
      "Ġstained": 7702,
      "Ġdarling": 7703,
      "Ġcircled": 7704,
      "Ġflag": 7705,
      "Ġroutine": 7706,
      "Ġchap": 7707,
      "Ġfolks": 7708,
      "Ġoccasional": 7709,
      "Ġshallow": 7710,
      "Ġcombat": 7711,
      "Ġbooth": 7712,
      "Ġladder": 7713,
      "Ġtips": 7714,
      "Ġmuffled": 7715,
      "Ġhousehold": 7716,
      "eron": 7717,
      "Ġstack": 7718,
      "Ġsoup": 7719,
      "Ġnipple": 7720,
      "Ġwolves": 7721,
      "Ġmelted": 7722,
      "Ġsniffed": 7723,
      "ardens": 7724,
      "Ġcaf": 7725,
      "Ġribb": 7726,
      "Ġshove": 7727,
      "Ġflickered": 7728,
      "rell": 7729,
      "Ġlaws": 7730,
      "ĠStates": 7731,
      "Ġborrow": 7732,
      "Ġcooking": 7733,
      "Ġrounded": 7734,
      "Ġbegging": 7735,
      "Ġsam": 7736,
      "Ġconven": 7737,
      "Ġbabies": 7738,
      "Ġvest": 7739,
      "ware": 7740,
      "Ġqual": 7741,
      "Ġchaos": 7742,
      "Ġmiserable": 7743,
      "hington": 7744,
      "Ġunple": 7745,
      "Ġdeliberately": 7746,
      "ĠEither": 7747,
      "Ġwishes": 7748,
      "ĠClay": 7749,
      "ĠKend": 7750,
      "Ġaccur": 7751,
      "Ġpresident": 7752,
      "ĠSecond": 7753,
      "Ġfi": 7754,
      "Ġslipp": 7755,
      "Ġdaily": 7756,
      "Ġbold": 7757,
      "colored": 7758,
      "ouncing": 7759,
      "ĠOb": 7760,
      "Ġsupply": 7761,
      "Ġacted": 7762,
      "Ġanaly": 7763,
      "Ġbrace": 7764,
      "Ġprospect": 7765,
      "ĠMaria": 7766,
      "Ġemploy": 7767,
      "ĠRoy": 7768,
      "Ġtearing": 7769,
      "venue": 7770,
      "Ġprivacy": 7771,
      "Ġplanted": 7772,
      "En": 7773,
      "Ġsprang": 7774,
      "Ġgossip": 7775,
      "ĠJenn": 7776,
      "Ġequal": 7777,
      "Ġweary": 7778,
      "Ġinfluence": 7779,
      "ĠIN": 7780,
      "Ġinfect": 7781,
      "Ġdesigned": 7782,
      "Ġapple": 7783,
      "Ġstrangers": 7784,
      "Ġtransfer": 7785,
      "Ġstriking": 7786,
      "Ġtalent": 7787,
      "Ġstated": 7788,
      "Ġcorn": 7789,
      "More": 7790,
      "Ġdescribe": 7791,
      "ission": 7792,
      "Ġrealizing": 7793,
      "Ġhelmet": 7794,
      "OL": 7795,
      "oard": 7796,
      "ĠBobby": 7797,
      "Ġhearts": 7798,
      "renched": 7799,
      "Ġlets": 7800,
      "igan": 7801,
      "Ġgleaming": 7802,
      "immed": 7803,
      "aughters": 7804,
      "agers": 7805,
      "ĠLex": 7806,
      "Ġstroking": 7807,
      "Ġdece": 7808,
      "berg": 7809,
      "Ġmoist": 7810,
      "Ġanc": 7811,
      "Ġreceive": 7812,
      "Ġprisoners": 7813,
      "Ġclust": 7814,
      "bone": 7815,
      "ĠPre": 7816,
      "Ġpitch": 7817,
      "Ġhudd": 7818,
      "Ġterritory": 7819,
      "Ġswimming": 7820,
      "Ġhumili": 7821,
      "Ġlink": 7822,
      "Ġsacrifice": 7823,
      "Um": 7824,
      "etime": 7825,
      "ĠNy": 7826,
      "Ġsymbol": 7827,
      "Ġya": 7828,
      "ĠHan": 7829,
      "AC": 7830,
      "Ġbased": 7831,
      "Ġsorce": 7832,
      "ĠMajesty": 7833,
      "Ġsupper": 7834,
      "Ġcommander": 7835,
      "ĠRub": 7836,
      "water": 7837,
      "istered": 7838,
      "Ġmanip": 7839,
      "Ġtangled": 7840,
      "Ġinvitation": 7841,
      "From": 7842,
      "Ġmakeup": 7843,
      "Ġdepths": 7844,
      "ĠBeing": 7845,
      "ĠDerek": 7846,
      "Ġeh": 7847,
      "Ġsouls": 7848,
      "ĠSa": 7849,
      "bbles": 7850,
      "Ġwipe": 7851,
      "orthern": 7852,
      "Ġflared": 7853,
      "ĠDuring": 7854,
      "Ġeru": 7855,
      "Ġhab": 7856,
      "Ġtwin": 7857,
      "Ġinsult": 7858,
      "Ġpreparing": 7859,
      "aval": 7860,
      "Ġren": 7861,
      "Ġinterior": 7862,
      "Ġsticking": 7863,
      "Ġforms": 7864,
      "Ġfireplace": 7865,
      "Ġcommanded": 7866,
      "Ġvictory": 7867,
      "alian": 7868,
      "Ãł": 7869,
      "Ġsquat": 7870,
      "Ġplacing": 7871,
      "mering": 7872,
      "Ġspecies": 7873,
      "Ġpopular": 7874,
      "ĠProfessor": 7875,
      "spector": 7876,
      "Ġengaged": 7877,
      "Ġanticipation": 7878,
      "irteen": 7879,
      "Ġneedle": 7880,
      "usk": 7881,
      "Ġsadness": 7882,
      "ĠKnight": 7883,
      "Ġconfirm": 7884,
      "Ġvaguely": 7885,
      "ĠRaven": 7886,
      "Ġtwins": 7887,
      "Ġconference": 7888,
      "Ġscars": 7889,
      "acious": 7890,
      "Ġoak": 7891,
      "Ġconduct": 7892,
      "AY": 7893,
      "Ġchains": 7894,
      "ĠDown": 7895,
      "Ġstress": 7896,
      "osphere": 7897,
      "ĠEmpire": 7898,
      "sive": 7899,
      "ĠWind": 7900,
      "inity": 7901,
      "ww": 7902,
      "Ġimpul": 7903,
      "Ġflowing": 7904,
      "Ã±": 7905,
      "Ġcompared": 7906,
      "ĠFrance": 7907,
      "Ġrealised": 7908,
      "Ġdegree": 7909,
      "Ġsoaked": 7910,
      "ĠDrake": 7911,
      "ĠThings": 7912,
      "ĠRain": 7913,
      "Ġfacts": 7914,
      "Ġliterally": 7915,
      "Ġgroups": 7916,
      "Ġnotebook": 7917,
      "Ġintensity": 7918,
      "Ġdwar": 7919,
      "ĠRod": 7920,
      "Ġmistress": 7921,
      "Ġsheriff": 7922,
      "Ġwherever": 7923,
      "Ġrevenge": 7924,
      "Ġvolunte": 7925,
      "ĠTaking": 7926,
      "Ġpron": 7927,
      "Ġours": 7928,
      "Ġsquad": 7929,
      "gue": 7930,
      "Ġslick": 7931,
      "ĠJud": 7932,
      "ĠEventually": 7933,
      "Ġpretended": 7934,
      "Ġsenior": 7935,
      "Ġpounded": 7936,
      "anting": 7937,
      "Ġassemb": 7938,
      "Ġsket": 7939,
      "Ġstrate": 7940,
      "Ġfloated": 7941,
      "Ġpersonally": 7942,
      "pack": 7943,
      "Ġlump": 7944,
      "idget": 7945,
      "Ġcabinet": 7946,
      "Ġminor": 7947,
      "Ġgrasped": 7948,
      "sect": 7949,
      "Ġwhip": 7950,
      "Ġjar": 7951,
      "Ġdaylight": 7952,
      "Ġadmir": 7953,
      "Ġarrested": 7954,
      "Ġcandles": 7955,
      "Ġmum": 7956,
      "Ġghosts": 7957,
      "natural": 7958,
      "ĠHoly": 7959,
      "idents": 7960,
      "Ġjudgment": 7961,
      "Ġlatest": 7962,
      "Ġquestioning": 7963,
      "Ġrepeat": 7964,
      "ĠApril": 7965,
      "Ġaboard": 7966,
      "Ġprecisely": 7967,
      "usive": 7968,
      "Ġkeen": 7969,
      "ĠJapan": 7970,
      "Ġresults": 7971,
      "ĠWashington": 7972,
      "Ġatm": 7973,
      "Ġrecovered": 7974,
      "APTER": 7975,
      "Ġbiting": 7976,
      "ĠSyl": 7977,
      "Ġteased": 7978,
      "ĠArm": 7979,
      "ĠJune": 7980,
      "ounded": 7981,
      "Ġdraped": 7982,
      "ĠWy": 7983,
      "Ġconsciousness": 7984,
      "ucker": 7985,
      "Ġtoast": 7986,
      "olded": 7987,
      "Ġchim": 7988,
      "Ġah": 7989,
      "Ġdisgu": 7990,
      "Ġexception": 7991,
      "Ġpear": 7992,
      "ĠJohnny": 7993,
      "mate": 7994,
      "Ġgrimaced": 7995,
      "Ġrein": 7996,
      "jam": 7997,
      "Ġadop": 7998,
      "cker": 7999,
      "Ġtorment": 8000,
      "Ġsolemn": 8001,
      "Ġparties": 8002,
      "Ġ***": 8003,
      "Ġstrangely": 8004,
      "ĠBeau": 8005,
      "Ġarrog": 8006,
      "ĠKarl": 8007,
      "ĠHaving": 8008,
      "chers": 8009,
      "cuse": 8010,
      "Ġsoap": 8011,
      "Ġholy": 8012,
      "Ġspells": 8013,
      "orney": 8014,
      "Ġchuckle": 8015,
      "ĠZach": 8016,
      "Ġrank": 8017,
      "Ġactivity": 8018,
      "ĠMadame": 8019,
      "Ġatop": 8020,
      "ĠTheo": 8021,
      "Ġflowed": 8022,
      "Ġpanting": 8023,
      "osition": 8024,
      "ĠCaleb": 8025,
      "Ġcompanions": 8026,
      "ĠAk": 8027,
      "Ġdarker": 8028,
      "Ġhurts": 8029,
      "Ġlaptop": 8030,
      "Ġwashing": 8031,
      "Ġnostrils": 8032,
      "ĠCons": 8033,
      "uable": 8034,
      "eves": 8035,
      "Ġelegant": 8036,
      "Ġcomplain": 8037,
      "Ġsipped": 8038,
      "ĠHot": 8039,
      "Ġhatred": 8040,
      "Ġgym": 8041,
      "bbling": 8042,
      "ulously": 8043,
      "world": 8044,
      "Ġsire": 8045,
      "Ġrab": 8046,
      "unny": 8047,
      "wr": 8048,
      "etic": 8049,
      "Ġgarb": 8050,
      "mail": 8051,
      "Ġcoin": 8052,
      "iev": 8053,
      "Ġpatrol": 8054,
      "ĠOct": 8055,
      "Ġcamer": 8056,
      "Ġ15": 8057,
      "Ġfork": 8058,
      "Ġgazing": 8059,
      "OW": 8060,
      "atr": 8061,
      "ĠCher": 8062,
      "Ġceremony": 8063,
      "agne": 8064,
      "Ġtrash": 8065,
      "Ġbeaten": 8066,
      "ĠAtl": 8067,
      "Ġterribly": 8068,
      "Ġcrawl": 8069,
      "iate": 8070,
      "Ġstiffened": 8071,
      "Ġsuicide": 8072,
      "ĠStan": 8073,
      "Ġovert": 8074,
      "Ġcentral": 8075,
      "Ġslap": 8076,
      "Ġod": 8077,
      "ĠWere": 8078,
      "irm": 8079,
      "ĠShadow": 8080,
      "ĠDave": 8081,
      "Ġfeast": 8082,
      "Ġmarched": 8083,
      "Ġwrapping": 8084,
      "Ġslightest": 8085,
      "Ġcoinc": 8086,
      "Ġbecomes": 8087,
      "Ġcapital": 8088,
      "point": 8089,
      "Ġtoler": 8090,
      "zes": 8091,
      "Ġroughly": 8092,
      "Ġrows": 8093,
      "non": 8094,
      "ĠToday": 8095,
      "Ġgrunt": 8096,
      "Ġelabor": 8097,
      "Ġsympathy": 8098,
      "itated": 8099,
      "ertainly": 8100,
      "Ġtrigger": 8101,
      "Ġending": 8102,
      "Ġchase": 8103,
      "Ġrights": 8104,
      "000": 8105,
      "ĠAlso": 8106,
      "Ġdock": 8107,
      "Ġroads": 8108,
      "Ġdwell": 8109,
      "ĠNicole": 8110,
      "Ġcuts": 8111,
      "Ġnaturally": 8112,
      "ĠFair": 8113,
      "Ġdemonstr": 8114,
      "Ġscience": 8115,
      "Ġsoothing": 8116,
      "Shit": 8117,
      "Ġintend": 8118,
      "Ġcavern": 8119,
      "ĠVictoria": 8120,
      "Ġsquinted": 8121,
      "iser": 8122,
      "lace": 8123,
      "11": 8124,
      "ĠGre": 8125,
      "assion": 8126,
      "Ġclar": 8127,
      "Ġshelves": 8128,
      "Ġdign": 8129,
      "Ġtales": 8130,
      "Ġsuitc": 8131,
      "vity": 8132,
      "izzy": 8133,
      "acc": 8134,
      "Ġfaintly": 8135,
      "itute": 8136,
      "oma": 8137,
      "Ġsinking": 8138,
      "Ġlos": 8139,
      "ĠSergeant": 8140,
      "Ġsealed": 8141,
      "Ġdishes": 8142,
      "Ġavoided": 8143,
      "force": 8144,
      "Ġinclined": 8145,
      "Sir": 8146,
      "ĠWild": 8147,
      "Ġmovies": 8148,
      "enced": 8149,
      "Se": 8150,
      "Ġdefeat": 8151,
      "uits": 8152,
      "Ġserving": 8153,
      "Ġbuttons": 8154,
      "ĠSat": 8155,
      "Ġdeserted": 8156,
      "ĠJax": 8157,
      "Ġspy": 8158,
      "ĠMake": 8159,
      "Ġaccompanied": 8160,
      "Ġjobs": 8161,
      "ĠKevin": 8162,
      "ryn": 8163,
      "ĠElena": 8164,
      "Ġagents": 8165,
      "Ġstatue": 8166,
      "ĠUnited": 8167,
      "Ġbucket": 8168,
      "Ġcommit": 8169,
      "Ġreflect": 8170,
      "IR": 8171,
      "ĠCamp": 8172,
      "Ġelement": 8173,
      "shaped": 8174,
      "Ġtroubled": 8175,
      "Ġaltogether": 8176,
      "Ġpowder": 8177,
      "ĠAndre": 8178,
      "sl": 8179,
      "Ġroots": 8180,
      "mark": 8181,
      "uty": 8182,
      "Ġhorn": 8183,
      "alker": 8184,
      "Ġpolicem": 8185,
      "Ã³n": 8186,
      "ĠOutside": 8187,
      "Ġnegot": 8188,
      "Ġcollected": 8189,
      "ĠLake": 8190,
      "ĠOt": 8191
    },
    "merges": [
      [
        "Ġ",
        "t"
      ],
      [
        "h",
        "e"
      ],
      [
        "Ġ",
        "a"
      ],
      [
        "i",
        "n"
      ],
      [
        "Ġ",
        "s"
      ],
      [
        "Ġ",
        "w"
      ],
      [
        "Ġt",
        "he"
      ],
      [
        "r",
        "e"
      ],
      [
        "o",
        "u"
      ],
      [
        "e",
        "d"
      ],
      [
        "Ġ",
        "o"
      ],
      [
        "Ġ",
        "h"
      ],
      [
        "n",
        "d"
      ],
      [
        "Ġ",
        "b"
      ],
      [
        "e",
        "r"
      ],
      [
        "Ġ",
        "m"
      ],
      [
        "in",
        "g"
      ],
      [
        "Ġ",
        "f"
      ],
      [
        "a",
        "t"
      ],
      [
        "Ġ",
        "c"
      ],
      [
        "Ġt",
        "o"
      ],
      [
        "i",
        "t"
      ],
      [
        "i",
        "s"
      ],
      [
        "Ġ",
        "he"
      ],
      [
        "Ġ",
        "d"
      ],
      [
        "e",
        "n"
      ],
      [
        "o",
        "n"
      ],
      [
        "a",
        "s"
      ],
      [
        "Ġ",
        "l"
      ],
      [
        "l",
        "l"
      ],
      [
        "a",
        "n"
      ],
      [
        "Ġ",
        "I"
      ],
      [
        "o",
        "r"
      ],
      [
        "Ġa",
        "nd"
      ],
      [
        "Ġt",
        "h"
      ],
      [
        "a",
        "r"
      ],
      [
        "Ġ",
        "p"
      ],
      [
        "e",
        "s"
      ],
      [
        "Ġ",
        "\""
      ],
      [
        "Ġo",
        "f"
      ],
      [
        "Ġ",
        "in"
      ],
      [
        "Ġ",
        "g"
      ],
      [
        "Ġ",
        "n"
      ],
      [
        "o",
        "m"
      ],
      [
        "a",
        "d"
      ],
      [
        "o",
        "w"
      ],
      [
        "i",
        "d"
      ],
      [
        "Ġ",
        "y"
      ],
      [
        "Ġb",
        "e"
      ],
      [
        "o",
        "t"
      ],
      [
        "l",
        "e"
      ],
      [
        "Ġw",
        "as"
      ],
      [
        "l",
        "d"
      ],
      [
        "Ġ",
        "e"
      ],
      [
        "g",
        "h"
      ],
      [
        "Ġy",
        "ou"
      ],
      [
        "Ġhe",
        "r"
      ],
      [
        "a",
        "c"
      ],
      [
        "v",
        "e"
      ],
      [
        "i",
        "m"
      ],
      [
        "Ġo",
        "n"
      ],
      [
        "s",
        "t"
      ],
      [
        "Ġ",
        "T"
      ],
      [
        "e",
        "t"
      ],
      [
        "i",
        "c"
      ],
      [
        "l",
        "y"
      ],
      [
        "Ġs",
        "t"
      ],
      [
        "Ġ",
        "it"
      ],
      [
        "a",
        "y"
      ],
      [
        ".",
        "\""
      ],
      [
        "u",
        "t"
      ],
      [
        "Ġ",
        "u"
      ],
      [
        "a",
        "l"
      ],
      [
        "Ġth",
        "at"
      ],
      [
        "Ġ",
        "S"
      ],
      [
        "Ġh",
        "is"
      ],
      [
        "'",
        "s"
      ],
      [
        "s",
        "e"
      ],
      [
        "Ġ",
        "H"
      ],
      [
        "Ġ",
        "re"
      ],
      [
        "v",
        "er"
      ],
      [
        "Ġh",
        "a"
      ],
      [
        "i",
        "r"
      ],
      [
        "gh",
        "t"
      ],
      [
        "Ġ",
        "r"
      ],
      [
        "o",
        "o"
      ],
      [
        "ou",
        "t"
      ],
      [
        "Ġa",
        "s"
      ],
      [
        "en",
        "t"
      ],
      [
        "'",
        "t"
      ],
      [
        "it",
        "h"
      ],
      [
        "k",
        "e"
      ],
      [
        "ou",
        "ld"
      ],
      [
        "Ġw",
        "h"
      ],
      [
        "Ġs",
        "he"
      ],
      [
        "Ġ",
        "A"
      ],
      [
        "Ġw",
        "e"
      ],
      [
        "Ġm",
        "e"
      ],
      [
        "Ġf",
        "or"
      ],
      [
        "Ġw",
        "ith"
      ],
      [
        "Ġh",
        "ad"
      ],
      [
        "ĠT",
        "he"
      ],
      [
        "u",
        "r"
      ],
      [
        "a",
        "m"
      ],
      [
        "i",
        "on"
      ],
      [
        "Ġm",
        "y"
      ],
      [
        "Ġ",
        "k"
      ],
      [
        "Ġa",
        "t"
      ],
      [
        "Ġa",
        "n"
      ],
      [
        "i",
        "ght"
      ],
      [
        "he",
        "r"
      ],
      [
        "Ġs",
        "h"
      ],
      [
        "Ġs",
        "a"
      ],
      [
        "a",
        "ll"
      ],
      [
        "i",
        "f"
      ],
      [
        "Ġ",
        "M"
      ],
      [
        "Ġh",
        "im"
      ],
      [
        "Ġf",
        "r"
      ],
      [
        "Ġs",
        "e"
      ],
      [
        "ĠH",
        "e"
      ],
      [
        "r",
        "o"
      ],
      [
        "re",
        "d"
      ],
      [
        "i",
        "ll"
      ],
      [
        "a",
        "in"
      ],
      [
        "c",
        "h"
      ],
      [
        "Ġn",
        "ot"
      ],
      [
        "i",
        "l"
      ],
      [
        "p",
        "p"
      ],
      [
        "Ġ",
        "B"
      ],
      [
        "k",
        "ed"
      ],
      [
        "c",
        "e"
      ],
      [
        "Ġd",
        "o"
      ],
      [
        "t",
        "er"
      ],
      [
        "?",
        "\""
      ],
      [
        ",",
        "\""
      ],
      [
        "e",
        "l"
      ],
      [
        "ac",
        "k"
      ],
      [
        "Ġ",
        "W"
      ],
      [
        "o",
        "re"
      ],
      [
        "Ġsa",
        "id"
      ],
      [
        "Ġn",
        "e"
      ],
      [
        "an",
        "t"
      ],
      [
        "Ġl",
        "i"
      ],
      [
        "â",
        "Ģ"
      ],
      [
        "Ġb",
        "ut"
      ],
      [
        "Ġ",
        "is"
      ],
      [
        "Ġk",
        "n"
      ],
      [
        "om",
        "e"
      ],
      [
        "Ġ",
        "C"
      ],
      [
        "Ġ",
        "out"
      ],
      [
        "r",
        "i"
      ],
      [
        "ar",
        "d"
      ],
      [
        "Ġu",
        "p"
      ],
      [
        "ĠS",
        "he"
      ],
      [
        "u",
        "st"
      ],
      [
        "Ġs",
        "o"
      ],
      [
        "r",
        "ou"
      ],
      [
        "u",
        "s"
      ],
      [
        "Ġha",
        "ve"
      ],
      [
        "r",
        "a"
      ],
      [
        "Ġfr",
        "om"
      ],
      [
        "u",
        "n"
      ],
      [
        "c",
        "t"
      ],
      [
        "h",
        "ing"
      ],
      [
        "Ġ",
        "j"
      ],
      [
        "i",
        "e"
      ],
      [
        "on",
        "e"
      ],
      [
        "k",
        "ing"
      ],
      [
        "in",
        "d"
      ],
      [
        "es",
        "s"
      ],
      [
        "t",
        "o"
      ],
      [
        "g",
        "e"
      ],
      [
        "Ġa",
        "b"
      ],
      [
        "Ġd",
        "e"
      ],
      [
        "Ġl",
        "e"
      ],
      [
        "Ġ",
        "D"
      ],
      [
        "Ġwe",
        "re"
      ],
      [
        "he",
        "n"
      ],
      [
        "Ġw",
        "ould"
      ],
      [
        "a",
        "nd"
      ],
      [
        "Ġa",
        "ll"
      ],
      [
        "Ġd",
        "id"
      ],
      [
        "Ġc",
        "ould"
      ],
      [
        "he",
        "d"
      ],
      [
        "e",
        "ll"
      ],
      [
        "Ġs",
        "u"
      ],
      [
        "Ġthe",
        "y"
      ],
      [
        "Ġ",
        "L"
      ],
      [
        "q",
        "u"
      ],
      [
        "ow",
        "n"
      ],
      [
        "Ġa",
        "l"
      ],
      [
        "id",
        "e"
      ],
      [
        "Ġth",
        "is"
      ],
      [
        "a",
        "b"
      ],
      [
        "s",
        "s"
      ],
      [
        "ou",
        "r"
      ],
      [
        "Ġc",
        "h"
      ],
      [
        "ar",
        "t"
      ],
      [
        "oo",
        "d"
      ],
      [
        "Ġg",
        "o"
      ],
      [
        "er",
        "s"
      ],
      [
        "Ġl",
        "oo"
      ],
      [
        "l",
        "o"
      ],
      [
        "Ġb",
        "ack"
      ],
      [
        "p",
        "e"
      ],
      [
        "as",
        "t"
      ],
      [
        "Ġn",
        "o"
      ],
      [
        "u",
        "l"
      ],
      [
        "âĢ",
        "Ķ"
      ],
      [
        "Ġ",
        "v"
      ],
      [
        "Ġli",
        "ke"
      ],
      [
        "Ġon",
        "e"
      ],
      [
        "h",
        "at"
      ],
      [
        "'",
        "d"
      ],
      [
        "Ġ",
        "'"
      ],
      [
        "Ġwh",
        "at"
      ],
      [
        "c",
        "k"
      ],
      [
        "Ġthe",
        "m"
      ],
      [
        "es",
        "t"
      ],
      [
        "u",
        "m"
      ],
      [
        "Ġc",
        "on"
      ],
      [
        "e",
        "m"
      ],
      [
        "Ġ",
        "N"
      ],
      [
        "Ġ",
        "R"
      ],
      [
        "Y",
        "ou"
      ],
      [
        "Ġin",
        "to"
      ],
      [
        "r",
        "y"
      ],
      [
        "Ġw",
        "or"
      ],
      [
        "ac",
        "e"
      ],
      [
        "Ġe",
        "x"
      ],
      [
        "Ġa",
        "g"
      ],
      [
        "Ġf",
        "e"
      ],
      [
        "on",
        "g"
      ],
      [
        "Ġ",
        "G"
      ],
      [
        "is",
        "t"
      ],
      [
        "v",
        "en"
      ],
      [
        "Ġ",
        "E"
      ],
      [
        "Ġkn",
        "ow"
      ],
      [
        "Ġ",
        "P"
      ],
      [
        "i",
        "g"
      ],
      [
        "Ġo",
        "r"
      ],
      [
        "Ġbe",
        "en"
      ],
      [
        "Ġ",
        "J"
      ],
      [
        "a",
        "u"
      ],
      [
        "ĠI",
        "t"
      ],
      [
        "Ġab",
        "out"
      ],
      [
        "e",
        "p"
      ],
      [
        "Ġ",
        "F"
      ],
      [
        "a",
        "ke"
      ],
      [
        "w",
        "ay"
      ],
      [
        "Ġha",
        "nd"
      ],
      [
        "Ġ",
        "if"
      ],
      [
        "Ġu",
        "n"
      ],
      [
        "at",
        "e"
      ],
      [
        "o",
        "l"
      ],
      [
        "am",
        "e"
      ],
      [
        "a",
        "g"
      ],
      [
        "all",
        "y"
      ],
      [
        "ver",
        "y"
      ],
      [
        "Ġyou",
        "r"
      ],
      [
        "Ġc",
        "an"
      ],
      [
        "Ġo",
        "ver"
      ],
      [
        "Ġan",
        "y"
      ],
      [
        "Ġr",
        "o"
      ],
      [
        "a",
        "p"
      ],
      [
        "Ġthe",
        "re"
      ],
      [
        "at",
        "ion"
      ],
      [
        "a",
        "re"
      ],
      [
        "ou",
        "s"
      ],
      [
        "Ġp",
        "l"
      ],
      [
        "ic",
        "e"
      ],
      [
        "Ġt",
        "im"
      ],
      [
        "Ġs",
        "p"
      ],
      [
        "Ġm",
        "an"
      ],
      [
        "Ġd",
        "own"
      ],
      [
        "o",
        "p"
      ],
      [
        "Ġa",
        "re"
      ],
      [
        "se",
        "l"
      ],
      [
        "Ġb",
        "l"
      ],
      [
        "Ġ",
        "O"
      ],
      [
        "Ġw",
        "hen"
      ],
      [
        "Ġwh",
        "o"
      ],
      [
        "Ġb",
        "y"
      ],
      [
        "Ġto",
        "o"
      ],
      [
        "ur",
        "n"
      ],
      [
        "Ġw",
        "ant"
      ],
      [
        "Ġs",
        "m"
      ],
      [
        "Ġc",
        "om"
      ],
      [
        "or",
        "t"
      ],
      [
        "i",
        "ve"
      ],
      [
        "Ġe",
        "y"
      ],
      [
        "Ġj",
        "ust"
      ],
      [
        "Ġag",
        "ain"
      ],
      [
        "Ġs",
        "ome"
      ],
      [
        "a",
        "k"
      ],
      [
        "Ġth",
        "ou"
      ],
      [
        "in",
        "k"
      ],
      [
        "Ġof",
        "f"
      ],
      [
        "Ġm",
        "o"
      ],
      [
        "Ġ",
        "qu"
      ],
      [
        "he",
        "re"
      ],
      [
        "in",
        "e"
      ],
      [
        "'",
        "m"
      ],
      [
        "Ġthe",
        "n"
      ],
      [
        "Ġg",
        "et"
      ],
      [
        "Ġl",
        "o"
      ],
      [
        "Ġtim",
        "e"
      ],
      [
        "ou",
        "nd"
      ],
      [
        "Ġb",
        "o"
      ],
      [
        "Ġthe",
        "ir"
      ],
      [
        "Ġc",
        "o"
      ],
      [
        "t",
        "her"
      ],
      [
        "Ġu",
        "s"
      ],
      [
        "sel",
        "f"
      ],
      [
        "rou",
        "nd"
      ],
      [
        "Ġm",
        "ore"
      ],
      [
        "it",
        "t"
      ],
      [
        "Ġa",
        "r"
      ],
      [
        "ic",
        "k"
      ],
      [
        "ot",
        "her"
      ],
      [
        "Ġdid",
        "n"
      ],
      [
        "u",
        "re"
      ],
      [
        "u",
        "ll"
      ],
      [
        "t",
        "e"
      ],
      [
        "Ġ",
        "K"
      ],
      [
        "l",
        "ed"
      ],
      [
        "Ġp",
        "o"
      ],
      [
        "p",
        "t"
      ],
      [
        "Ġt",
        "r"
      ],
      [
        "Ġhe",
        "ad"
      ],
      [
        "v",
        "ed"
      ],
      [
        "Ġb",
        "r"
      ],
      [
        "Ġey",
        "es"
      ],
      [
        "Ġse",
        "e"
      ],
      [
        "Ġc",
        "l"
      ],
      [
        "pp",
        "ed"
      ],
      [
        "as",
        "s"
      ],
      [
        "Ġs",
        "l"
      ],
      [
        "t",
        "h"
      ],
      [
        "d",
        "d"
      ],
      [
        "Ġs",
        "c"
      ],
      [
        "Ġt",
        "w"
      ],
      [
        "Ġ",
        "en"
      ],
      [
        "Ġd",
        "on"
      ],
      [
        "nd",
        "er"
      ],
      [
        "Ġn",
        "ow"
      ],
      [
        "f",
        "ore"
      ],
      [
        "re",
        "at"
      ],
      [
        "i",
        "le"
      ],
      [
        "Ġs",
        "ay"
      ],
      [
        "i",
        "re"
      ],
      [
        "'",
        "re"
      ],
      [
        "ĠB",
        "ut"
      ],
      [
        "ĠA",
        "nd"
      ],
      [
        "Ġw",
        "ay"
      ],
      [
        "ad",
        "e"
      ],
      [
        "Ġo",
        "ther"
      ],
      [
        "e",
        "ar"
      ],
      [
        "n",
        "t"
      ],
      [
        "Ġth",
        "an"
      ],
      [
        "Ġw",
        "ill"
      ],
      [
        "Ġp",
        "ro"
      ],
      [
        "Ġp",
        "re"
      ],
      [
        "f",
        "f"
      ],
      [
        "om",
        "et"
      ],
      [
        "Ġf",
        "l"
      ],
      [
        "Ġbe",
        "fore"
      ],
      [
        "v",
        "ing"
      ],
      [
        "it",
        "e"
      ],
      [
        "i",
        "p"
      ],
      [
        "rou",
        "gh"
      ],
      [
        "ic",
        "h"
      ],
      [
        "'",
        "ll"
      ],
      [
        "Ġe",
        "ven"
      ],
      [
        "it",
        "y"
      ],
      [
        "Ġ",
        "."
      ],
      [
        "Ġth",
        "rough"
      ],
      [
        "Ġth",
        "ink"
      ],
      [
        "i",
        "es"
      ],
      [
        "Ġhe",
        "re"
      ],
      [
        "Ġon",
        "ly"
      ],
      [
        "t",
        "ed"
      ],
      [
        "f",
        "ter"
      ],
      [
        "Ġg",
        "r"
      ],
      [
        "Ġa",
        "round"
      ],
      [
        "f",
        "t"
      ],
      [
        "Ġt",
        "urn"
      ],
      [
        "Ġthou",
        "ght"
      ],
      [
        "e",
        "red"
      ],
      [
        "an",
        "g"
      ],
      [
        "Ġs",
        "w"
      ],
      [
        "w",
        "ard"
      ],
      [
        "Ġp",
        "r"
      ],
      [
        "u",
        "e"
      ],
      [
        "b",
        "le"
      ],
      [
        "ab",
        "le"
      ],
      [
        "a",
        "ve"
      ],
      [
        "w",
        "n"
      ],
      [
        "Ġh",
        "ow"
      ],
      [
        "Ġr",
        "ight"
      ],
      [
        "Ġloo",
        "ked"
      ],
      [
        "e",
        "w"
      ],
      [
        "Ġth",
        "ing"
      ],
      [
        "i",
        "z"
      ],
      [
        "k",
        "s"
      ],
      [
        "Ġsh",
        "ould"
      ],
      [
        "Ġgo",
        "ing"
      ],
      [
        "Ġl",
        "ong"
      ],
      [
        "Ġa",
        "c"
      ],
      [
        "o",
        "s"
      ],
      [
        "Ġa",
        "way"
      ],
      [
        "Ġe",
        "very"
      ],
      [
        "Ġne",
        "ed"
      ],
      [
        "Ġs",
        "omet"
      ],
      [
        "Ġm",
        "u"
      ],
      [
        "Ġ",
        "im"
      ],
      [
        "Ġg",
        "l"
      ],
      [
        "e",
        "ct"
      ],
      [
        ".",
        "'"
      ],
      [
        "ac",
        "h"
      ],
      [
        "d",
        "y"
      ],
      [
        "a",
        "ge"
      ],
      [
        "Ġf",
        "ace"
      ],
      [
        "Ġst",
        "ill"
      ],
      [
        "is",
        "s"
      ],
      [
        "ac",
        "t"
      ],
      [
        "en",
        "ed"
      ],
      [
        "Ġw",
        "at"
      ],
      [
        "re",
        "e"
      ],
      [
        "Ġdo",
        "or"
      ],
      [
        "an",
        "ce"
      ],
      [
        "Ġp",
        "e"
      ],
      [
        "ou",
        "gh"
      ],
      [
        "Ġbe",
        "c"
      ],
      [
        "Ġ",
        "You"
      ],
      [
        "Ġd",
        "is"
      ],
      [
        "t",
        "hing"
      ],
      [
        "m",
        "ent"
      ],
      [
        "o",
        "nd"
      ],
      [
        "t",
        "ing"
      ],
      [
        "au",
        "se"
      ],
      [
        "at",
        "her"
      ],
      [
        "ar",
        "k"
      ],
      [
        "at",
        "h"
      ],
      [
        "Ġbe",
        "t"
      ],
      [
        "at",
        "ed"
      ],
      [
        "ĠThe",
        "y"
      ],
      [
        "'",
        "ve"
      ],
      [
        "Ġ",
        "ke"
      ],
      [
        "Ġc",
        "lo"
      ],
      [
        "r",
        "u"
      ],
      [
        "itt",
        "le"
      ],
      [
        "c",
        "hed"
      ],
      [
        "Ġne",
        "ver"
      ],
      [
        "a",
        "red"
      ],
      [
        "b",
        "er"
      ],
      [
        "Ġm",
        "ade"
      ],
      [
        "n",
        "e"
      ],
      [
        "ĠT",
        "h"
      ],
      [
        "Ġsomet",
        "hing"
      ],
      [
        "p",
        "l"
      ],
      [
        "o",
        "se"
      ],
      [
        "Ġo",
        "p"
      ],
      [
        "i",
        "ous"
      ],
      [
        "Ġg",
        "ot"
      ],
      [
        "Ġu",
        "nder"
      ],
      [
        "Ġh",
        "o"
      ],
      [
        "a",
        "v"
      ],
      [
        "Ġre",
        "m"
      ],
      [
        "Ġtw",
        "o"
      ],
      [
        "ad",
        "y"
      ],
      [
        "re",
        "ss"
      ],
      [
        "Ġl",
        "ittle"
      ],
      [
        "Ġf",
        "o"
      ],
      [
        "Ġd",
        "ay"
      ],
      [
        "Ġf",
        "ir"
      ],
      [
        "Ġmu",
        "ch"
      ],
      [
        "Ġas",
        "ked"
      ],
      [
        "n",
        "ing"
      ],
      [
        "a",
        "ir"
      ],
      [
        "i",
        "ld"
      ],
      [
        "Ġa",
        "fter"
      ],
      [
        "Ġw",
        "here"
      ],
      [
        "Ġa",
        "m"
      ],
      [
        "or",
        "d"
      ],
      [
        "Ġg",
        "u"
      ],
      [
        "if",
        "e"
      ],
      [
        "g",
        "g"
      ],
      [
        "Ġl",
        "et"
      ],
      [
        "Ġc",
        "he"
      ],
      [
        "b",
        "e"
      ],
      [
        "Ġfe",
        "el"
      ],
      [
        "a",
        "king"
      ],
      [
        "âĢ",
        "¦"
      ],
      [
        "s",
        "ide"
      ],
      [
        "Ġg",
        "ood"
      ],
      [
        "Ġar",
        "m"
      ],
      [
        "Ġro",
        "om"
      ],
      [
        "p",
        "er"
      ],
      [
        "ri",
        "ed"
      ],
      [
        "Ġ",
        "our"
      ],
      [
        "ĠW",
        "e"
      ],
      [
        "en",
        "ce"
      ],
      [
        "!",
        "\""
      ],
      [
        "i",
        "ed"
      ],
      [
        "n",
        "g"
      ],
      [
        "Ġkn",
        "ew"
      ],
      [
        "Ġt",
        "ell"
      ],
      [
        "Ġm",
        "ake"
      ],
      [
        "Ġloo",
        "k"
      ],
      [
        "Ġ",
        "V"
      ],
      [
        "an",
        "s"
      ],
      [
        "Ġcon",
        "t"
      ],
      [
        "Ġfir",
        "st"
      ],
      [
        "as",
        "e"
      ],
      [
        "i",
        "a"
      ],
      [
        "is",
        "h"
      ],
      [
        "Ġt",
        "e"
      ],
      [
        "el",
        "t"
      ],
      [
        "Ġc",
        "all"
      ],
      [
        "Ġw",
        "a"
      ],
      [
        "W",
        "hat"
      ],
      [
        "Ġwh",
        "ich"
      ],
      [
        "Ġc",
        "ome"
      ],
      [
        "Ġh",
        "as"
      ],
      [
        "Ġv",
        "o"
      ],
      [
        "t",
        "y"
      ],
      [
        "Ġc",
        "ar"
      ],
      [
        "T",
        "he"
      ],
      [
        "r",
        "ow"
      ],
      [
        "i",
        "ly"
      ],
      [
        "l",
        "ing"
      ],
      [
        "Ġt",
        "ake"
      ],
      [
        "u",
        "d"
      ],
      [
        "Ġtoo",
        "k"
      ],
      [
        "Ġse",
        "em"
      ],
      [
        "Ġw",
        "om"
      ],
      [
        "ĠH",
        "is"
      ],
      [
        "Ġwas",
        "n"
      ],
      [
        "v",
        "es"
      ],
      [
        "ot",
        "h"
      ],
      [
        "oo",
        "k"
      ],
      [
        "u",
        "ck"
      ],
      [
        "Ġa",
        "pp"
      ],
      [
        "op",
        "le"
      ],
      [
        "Ġhand",
        "s"
      ],
      [
        "an",
        "c"
      ],
      [
        "Ġha",
        "pp"
      ],
      [
        "Ġc",
        "ame"
      ],
      [
        "Ġd",
        "es"
      ],
      [
        "s",
        "h"
      ],
      [
        "ĠI",
        "n"
      ],
      [
        "ĠThe",
        "re"
      ],
      [
        "Ġo",
        "wn"
      ],
      [
        "is",
        "e"
      ],
      [
        "Ġturn",
        "ed"
      ],
      [
        "I",
        "t"
      ],
      [
        "Ġn",
        "ight"
      ],
      [
        "Ġagain",
        "st"
      ],
      [
        "o",
        "st"
      ],
      [
        "Ġf",
        "elt"
      ],
      [
        "Ġm",
        "om"
      ],
      [
        "Ġm",
        "ight"
      ],
      [
        "p",
        "s"
      ],
      [
        "Ġs",
        "pe"
      ],
      [
        "ĠC",
        "h"
      ],
      [
        "ro",
        "ss"
      ],
      [
        "en",
        "s"
      ],
[...]
