{
  "version": "1.0",
  "truncation": null,
  "padding": null,
  "added_tokens": [
    {
      "id": 0,
      "content": "<|endoftext|>",
      "single_word": false,
      "lstrip": false,
      "rstrip": false,
      "normalized": false,
      "special": true
    }
  ],
  "normalizer": null,
  "pre_tokenizer": {
    "type": "ByteLevel",
    "add_prefix_space": true,
    "trim_offsets": true,
    "use_regex": true
  },
  "post_processor": {
    "type": "TemplateProcessing",
    "single": [
      {
        "Sequence": {
          "id": "A",
          "type_id": 0
        }
      },
      {
        "SpecialToken": {
          "id": "<|endoftext|>",
          "type_id": 0
        }
      }
    ],
    "pair": [
      {
        "Sequence": {
          "id": "A",
          "type_id": 0
        }
      },
      {
        "Sequence": {
          "id": "B",
          "type_id": 1
        }
      }
    ],
    "special_tokens": {
      "<|endoftext|>": {
        "id": "<|endoftext|>",
        "ids": [
          0
        ],
        "tokens": [
          "<|endoftext|>"
        ]
      }
    }
  },
  "decoder": {
    "type": "ByteLevel",
    "add_prefix_space": true,
    "trim_offsets": true,
    "use_regex": true
  },
  "model": {
    "type": "BPE",
    "dropout": null,
    "unk_token": null,
    "continuing_subword_prefix": null,
    "end_of_word_suffix": null,
    "fuse_unk": false,
    "byte_fallback": false,
    "ignore_merges": false,
    "vocab": {
      "<|endoftext|>": 0,
      "!": 1,
      "\"": 2,
      "#": 3,
      "$": 4,
      "%": 5,
      "&": 6,
      "'": 7,
      "(": 8,
      ")": 9,
      "*": 10,
      "+": 11,
      ",": 12,
      "-": 13,
      ".": 14,
      "/": 15,
      "0": 16,
      "1": 17,
      "2": 18,
      "3": 19,
      "4": 20,
      "5": 21,
      "6": 22,
      "7": 23,
      "8": 24,
      "9": 25,
      ":": 26,
      ";": 27,
      "<": 28,
      "=": 29,
      ">": 30,
      "?": 31,
      "@": 32,
      "A": 33,
      "B": 34,
      "C": 35,
      "D": 36,
      "E": 37,
      "F": 38,
      "G": 39,
      "H": 40,
      "I": 41,
      "J": 42,
      "K": 43,
      "L": 44,
      "M": 45,
      "N": 46,
      "O": 47,
      "P": 48,
      "Q": 49,
      "R": 50,
      "S": 51,
      "T": 52,
      "U": 53,
      "V": 54,
      "W": 55,
      "X": 56,
      "Y": 57,
      "Z": 58,
      "[": 59,
      "\\": 60,
      "]": 61,
      "^": 62,
      "_": 63,
      "`": 64,
      "a": 65,
      "b": 66,
      "c": 67,
      "d": 68,
      "e": 69,
      "f": 70,
      "g": 71,
      "h": 72,
      "i": 73,
      "j": 74,
      "k": 75,
      "l": 76,
      "m": 77,
      "n": 78,
      "o": 79,
      "p": 80,
      "q": 81,
      "r": 82,
      "s": 83,
      "t": 84,
      "u": 85,
      "v": 86,
      "w": 87,
      "x": 88,
      "y": 89,
      "z": 90,
      "{": 91,
      "|": 92,
      "}": 93,
      "~": 94,
      "¡": 95,
      "¢": 96,
      "£": 97,
      "¤": 98,
      "¥": 99,
      "¦": 100,
      "§": 101,
      "¨": 102,
      "©": 103,
      "ª": 104,
      "«": 105,
      "¬": 106,
      "®": 107,
      "¯": 108,
      "°": 109,
      "±": 110,
      "²": 111,
      "³": 112,
      "´": 113,
      "µ": 114,
      "¶": 115,
      "·": 116,
      "¸": 117,
      "¹": 118,
      "º": 119,
      "»": 120,
      "¼": 121,
      "½": 122,
      "¾": 123,
      "¿": 124,
      "Â": 125,
      "Ã": 126,
      "Ä": 127,
      "Å": 128,
      "Æ": 129,
      "Ç": 130,
      "È": 131,
      "É": 132,
      "Ê": 133,
      "Ë": 134,
      "Ì": 135,
      "Í": 136,
      "Î": 137,
      "Ï": 138,
      "Ð": 139,
      "Ñ": 140,
      "Ò": 141,
      "Ó": 142,
      "Ô": 143,
      "Õ": 144,
      "Ö": 145,
      "×": 146,
      "Ø": 147,
      "Ù": 148,
      "Ú": 149,
      "Û": 150,
      "Ü": 151,
      "Ý": 152,
      "Þ": 153,
      "ß": 154,
      "à": 155,
      "á": 156,
      "â": 157,
      "ã": 158,
      "ä": 159,
      "å": 160,
      "æ": 161,
      "ç": 162,
      "è": 163,
      "é": 164,
      "ê": 165,
      "ë": 166,
      "ì": 167,
      "í": 168,
      "î": 169,
      "ï": 170,
      "ð": 171,
      "Ċ": 172,
      "Ġ": 173,
      "Ģ": 174,
      "ģ": 175,
      "Ĥ": 176,
      "ĥ": 177,
      "Ħ": 178,
      "ħ": 179,
      "Ĩ": 180,
      "ĩ": 181,
      "Ī": 182,
      "ī": 183,
      "Ĭ": 184,
      "ĭ": 185,
      "Į": 186,
      "į": 187,
      "İ": 188,
      "ı": 189,
      "Ĳ": 190,
      "ĳ": 191,
      "Ĵ": 192,
      "ĵ": 193,
      "Ķ": 194,
      "ķ": 195,
      "ĸ": 196,
      "Ĺ": 197,
      "ĺ": 198,
      "Ļ": 199,
      "ļ": 200,
      "Ľ": 201,
      "ľ": 202,
      "Ŀ": 203,
      "ŀ": 204,
      "Ł": 205,
      "ł": 206,
      "Ń": 207,
      "Ġt": 208,
      "he": 209,
      "Ġa": 210,
      "in": 211,
      "Ġs": 212,
      "Ġthe": 213,
      "Ġw": 214,
      "re": 215,
      "Ġo": 216,
      "nd": 217,
      "er": 218,
      "ed": 219,
      "Ġb": 220,
      "ou": 221,
      "ha": 222,
      "Ġm": 223,
      "Ġc": 224,
      "Ġf": 225,
      "is": 226,
      "it": 227,
      "ing": 228,
      "on": 229,
      "en": 230,
      "Ġto": 231,
      "Ġd": 232,
      "Ġof": 233,
      "or": 234,
      "Ġand": 235,
      "es": 236,
      "Ġp": 237,
      "ll": 238,
      "Ġhe": 239,
      "Ġl": 240,
      "ar": 241,
      "as": 242,
      "an": 243,
      "Ġin": 244,
      "at": 245,
      "Ġh": 246,
      "ĠI": 247,
      "Ġn": 248,
      "om": 249,
      "Ġha": 250,
      "Ġg": 251,
      "le": 252,
      "Ġe": 253,
      "hat": 254,
      "ic": 255,
      "Ġbe": 256,
      "ow": 257,
      "ut": 258,
      "Ġ\"": 259,
      "ot": 260,
      "id": 261,
      "ve": 262,
      "st": 263,
      "al": 264,
      "im": 265,
      "Ġy": 266,
      "ĠT": 267,
      "ac": 268,
      "ld": 269,
      "et": 270,
      "Ġwas": 271,
      "ion": 272,
      "ly": 273,
      "Ġth": 274,
      "gh": 275,
      "Ġon": 276,
      "Ġre": 277,
      "ent": 278,
      "se": 279,
      "Ġu": 280,
      "Ġthat": 281,
      "Ġyou": 282,
      "âĢ": 283,
      "Ġit": 284,
      "ay": 285,
      "Ġst": 286,
      "Ġher": 287,
      "ĠS": 288,
      "ver": 289,
      "ro": 290,
      "ir": 291,
      "ith": 292,
      "Ġfor": 293,
      "Ġas": 294,
      "ad": 295,
      "ur": 296,
      "Ġhis": 297,
      "ĠA": 298,
      "Ġwe": 299,
      "ĠH": 300,
      "Ġwith": 301,
      "ght": 302,
      "ri": 303,
      "am": 304,
      "ĠThe": 305,
      "'s": 306,
      "oo": 307,
      "Ġis": 308,
      ".\"": 309,
      "ke": 310,
      "Ġan": 311,
      "Ġwh": 312,
      "ce": 313,
      "ould": 314,
      "Ġme": 315,
      "ĠM": 316,
      "Ġat": 317,
      "her": 318,
      "Ġhad": 319,
      "ec": 320,
      "Ġshe": 321,
      "if": 322,
      "ter": 323,
      "Ġk": 324,
      "all": 325,
      "ain": 326,
      "il": 327,
      "Ġnot": 328,
      "ĠB": 329,
      "Ġmy": 330,
      "ch": 331,
      "ĠC": 332,
      "ill": 333,
      "'t": 334,
      "red": 335,
      "pp": 336,
      "el": 337,
      "Ġfr": 338,
      "Ġr": 339,
      "Ġsa": 340,
      "ore": 341,
      "ĠW": 342,
      "Ġhim": 343,
      "Ġse": 344,
      "Ġsu": 345,
      "Ġsh": 346,
      "Ġli": 347,
      "ant": 348,
      "qu": 349,
      "us": 350,
      "Ġso": 351,
      "Ġdo": 352,
      "ation": 353,
      "ul": 354,
      "ge": 355,
      "ess": 356,
      "Ġcon": 357,
      "Ġbut": 358,
      "Ġfrom": 359,
      "Ġhave": 360,
      "ome": 361,
      "ĠHe": 362,
      "th": 363,
      "Ġne": 364,
      "and": 365,
      "ab": 366,
      "Ġv": 367,
      "ack": 368,
      "Ġup": 369,
      "Ġde": 370,
      "ust": 371,
      "ĠL": 372,
      "un": 373,
      "ĠP": 374,
      "Ġex": 375,
      "os": 376,
      "ight": 377,
      "ked": 378,
      "rou": 379,
      "ĠD": 380,
      "Ġall": 381,
      "âĢĶ": 382,
      "Ġwhe": 383,
      "Ġthis": 384,
      "Ġout": 385,
      "Ġal": 386,
      "Ġsaid": 387,
      "est": 388,
      "um": 389,
      "Ġby": 390,
      "Ġkn": 391,
      "res": 392,
      "ie": 393,
      ",\"": 394,
      "Ġor": 395,
      "Ġ(": 396,
      "ers": 397,
      "ĠF": 398,
      "Ġj": 399,
      "ra": 400,
      "Ġint": 401,
      "ol": 402,
      "ted": 403,
      "em": 404,
      "ard": 405,
      "Ġab": 406,
      "Ġwere": 407,
      "ind": 408,
      "od": 409,
      "ig": 410,
      "out": 411,
      "?\"": 412,
      "Ġle": 413,
      "Ġsp": 414,
      "ist": 415,
      "ĠG": 416,
      "Ġthey": 417,
      "ĠR": 418,
      "ĠE": 419,
      "Ġare": 420,
      "one": 421,
      "Ġ1": 422,
      "ĠN": 423,
      "ich": 424,
      "ct": 425,
      "ate": 426,
      "Ġone": 427,
      "han": 428,
      "king": 429,
      "op": 430,
      "ell": 431,
      "Ġwould": 432,
      "ong": 433,
      "ast": 434,
      "Ġcom": 435,
      "own": 436,
      "art": 437,
      "ĠShe": 438,
      "ide": 439,
      "ood": 440,
      "ous": 441,
      "nt": 442,
      "Ġthem": 443,
      "Ġwor": 444,
      "hed": 445,
      "Ġâ": 446,
      "ĠJ": 447,
      "ive": 448,
      "ven": 449,
      "ace": 450,
      "our": 451,
      "Ġpro": 452,
      "ry": 453,
      "Ġcould": 454,
      "very": 455,
      "ect": 456,
      "ame": 457,
      "Ġno": 458,
      "ĠO": 459,
      "Ġcl": 460,
      "Ġgo": 461,
      "Ġdid": 462,
      "Ġwhich": 463,
      "ĠâĢ": 464,
      "Ġfe": 465,
      "Ġman": 466,
      "Ġwho": 467,
      "Ġinto": 468,
      "ag": 469,
      "ally": 470,
      "Ġcan": 471,
      "Ġbeen": 472,
      "Ġpl": 473,
      "Ġag": 474,
      "ep": 475,
      "Ġlike": 476,
      "Ġwhat": 477,
      "au": 478,
      "Ġloo": 479,
      "Ġthere": 480,
      "ity": 481,
      "lf": 482,
      "ĠIt": 483,
      "hing": 484,
      "Ġif": 485,
      "ap": 486,
      "Ġqu": 487,
      "Ġtheir": 488,
      "Ġback": 489,
      "ine": 490,
      "ck": 491,
      "ake": 492,
      "ther": 493,
      "ure": 494,
      "Ġtim": 495,
      "Ġwhen": 496,
      "Ġ2": 497,
      "ort": 498,
      "Ġany": 499,
      "ost": 500,
      "Ġabout": 501,
      "Ġro": 502,
      "Ġ'": 503,
      "Ġun": 504,
      "ice": 505,
      "Ġknow": 506,
      "Ġover": 507,
      "way": 508,
      "Ġus": 509,
      "ies": 510,
      "Ġyour": 511,
      "ond": 512,
      "ound": 513,
      "You": 514,
      "are": 515,
      "Ġhand": 516,
      "Ġen": 517,
      "Ġsome": 518,
      "Ġbl": 519,
      "Ġar": 520,
      "ff": 521,
      "Ġmore": 522,
      "ak": 523,
      "Ġtr": 524,
      "ass": 525,
      "urn": 526,
      "end": 527,
      "Ġtime": 528,
      "pt": 529,
      "Ġwill": 530,
      "reat": 531,
      "ĠâĪ": 532,
      "pl": 533,
      "Ġtw": 534,
      "'d": 535,
      "Ġthou": 536,
      "ved": 537,
      "Ġsm": 538,
      "itt": 539,
      "ose": 540,
      "self": 541,
      "Ġtoo": 542,
      "Ġfl": 543,
      "Ġdown": 544,
      "Ġthen": 545,
      "ment": 546,
      "Ġagain": 547,
      "Ġother": 548,
      "Ġoff": 549,
      "able": 550,
      "âĢĿ": 551,
      "ud": 552,
      "ear": 553,
      "ered": 554,
      "ĠK": 555,
      "Ġ.": 556,
      "Ġco": 557,
      "ite": 558,
      "other": 559,
      "Ġgr": 560,
      "act": 561,
      "Ġim": 562,
      "fore": 563,
      "ull": 564,
      "ink": 565,
      "Ġjust": 566,
      "Ġsc": 567,
      "ick": 568,
      "ile": 569,
      "Ġthan": 570,
      "Ġey": 571,
      "Ġpr": 572,
      "âĢĻ": 573,
      "per": 574,
      "ire": 575,
      "Ġch": 576,
      "Ġwant": 577,
      "ress": 578,
      "ip": 579,
      "ble": 580,
      "iz": 581,
      "Ġac": 582,
      "Ġsee": 583,
      "Ġlo": 584,
      "ue": 585,
      "Ġget": 586,
      "Ġdis": 587,
      "ade": 588,
      "ving": 589,
      "Ġnow": 590,
      "Ġsay": 591,
      "Ġri": 592,
      "ach": 593,
      "round": 594,
      "ence": 595,
      "fter": 596,
      "Ġsl": 597,
      "age": 598,
      "ance": 599,
      "ated": 600,
      "ĠAnd": 601,
      "ions": 602,
      "Ġonly": 603,
      "ber": 604,
      "ĠâĢľ": 605,
      "ĠBut": 606,
      "led": 607,
      "Ġad": 608,
      "ree": 609,
      "nder": 610,
      "Ġbr": 611,
      "Ġway": 612,
      "Ġsha": 613,
      "ere": 614,
      "ĠIn": 615,
      "ans": 616,
      "'m": 617,
      "Ġbefore": 618,
      "ft": 619,
      "ĠTh": 620,
      "ks": 621,
      "Ġhas": 622,
      "Ġhead": 623,
      "Ġapp": 624,
      "ings": 625,
      "wn": 626,
      "ves": 627,
      "ious": 628,
      "Ġcont": 629,
      "Ġ=": 630,
      "Ġam": 631,
      "hen": 632,
      "Ġour": 633,
      "rough": 634,
      "ward": 635,
      "ord": 636,
      "Ġshould": 637,
      "Ġhow": 638,
      "Ġeyes": 639,
      "Ġtwo": 640,
      "Ġeven": 641,
      "Ġcomp": 642,
      "ru": 643,
      "Ġper": 644,
      "Ġpo": 645,
      "Ġfo": 646,
      "ĠÎ": 647,
      "Ġthrough": 648,
      "ish": 649,
      "Ġdon": 650,
      "Ġbet": 651,
      "omet": 652,
      "pped": 653,
      "Ġwhere": 654,
      "uch": 655,
      "te": 656,
      "Ġevery": 657,
      "Ġres": 658,
      "Ġlong": 659,
      "Ġfir": 660,
      "ng": 661,
      "ew": 662,
      "ary": 663,
      "iss": 664,
      "ittle": 665,
      "Ġbec": 666,
      "we": 667,
      "Ġgl": 668,
      "ied": 669,
      "ather": 670,
      "ave": 671,
      "ĠV": 672,
      "Ġdidn": 673,
      "Ġpre": 674,
      "The": 675,
      "Ġhere": 676,
      "Ġunder": 677,
      "Ġday": 678,
      "Ġpe": 679,
      "Ġpart": 680,
      "ĊĊ": 681,
      "Ġcha": 682,
      "Ġafter": 683,
      "Ġrem": 684,
      "Ġmo": 685,
      "oy": 686,
      "Ġlittle": 687,
      "Ġthink": 688,
      "ens": 689,
      "Ġmade": 690,
      "ark": 691,
      "Ġdes": 692,
      "ough": 693,
      "Ġthought": 694,
      "ild": 695,
      "ia": 696,
      "Ġturn": 697,
      "orm": 698,
      "ife": 699,
      "ps": 700,
      "ĠWe": 701,
      "Ġright": 702,
      "Ġvery": 703,
      "'re": 704,
      "ause": 705,
      "Ġwat": 706,
      "Ġfirst": 707,
      "Ġits": 708,
      "Ġmuch": 709,
      "ning": 710,
      "ting": 711,
      "ial": 712,
      "ne": 713,
      "ath": 714,
      "og": 715,
      "Ġgood": 716,
      "ase": 717,
      "ang": 718,
      "ady": 719,
      "Ġnever": 720,
      "ty": 721,
      "Ġaway": 722,
      "Ġke": 723,
      "Ġ0": 724,
      "Ġstill": 725,
      "'ll": 726,
      "ise": 727,
      "ign": 728,
      "iv": 729,
      "Ġaround": 730,
      "tain": 731,
      "Ġsomet": 732,
      "ened": 733,
      "ily": 734,
      "Ġlet": 735,
      "Ġgoing": 736,
      "av": 737,
      "Ġneed": 738,
      "ss": 739,
      "ĠSt": 740,
      "Ġop": 741,
      "ount": 742,
      "ful": 743,
      "iff": 744,
      "Ġob": 745,
      "Ġface": 746,
      "oth": 747,
      "uc": 748,
      "Ġlooked": 749,
      "ĠThey": 750,
      "anc": 751,
      "ared": 752,
      "les": 753,
      "ical": 754,
      "Ġ3": 755,
      "Ġ[": 756,
      "old": 757,
      "thing": 758,
      "ĠYou": 759,
      "ried": 760,
      "gg": 761,
      "Ġmake": 762,
      "Ġdoor": 763,
      "oss": 764,
      "ations": 765,
      "int": 766,
      "ĠâĪĴ": 767,
      "ian": 768,
      "ition": 769,
      "hes": 770,
      "Ġcall": 771,
      "ness": 772,
      "oc": 773,
      "Ġexp": 774,
      "ub": 775,
      "ory": 776,
      "ons": 777,
      "ult": 778,
      "Ġwell": 779,
      "Ġmay": 780,
      "Ġgu": 781,
      "Ġimp": 782,
      "âĪ": 783,
      "Ġown": 784,
      "Ġcome": 785,
      ".'": 786,
      "Ġcar": 787,
      "!\"": 788,
      "ail": 789,
      "Ġatt": 790,
      "Ġstr": 791,
      "Ġche": 792,
      "ched": 793,
      "Ġem": 794,
      "aking": 795,
      "Ġseem": 796,
      "Ġcr": 797,
      "Ġhar": 798,
      "Ġfeel": 799,
      "Ġgot": 800,
      "Ġsomething": 801,
      "igh": 802,
      "Âł": 803,
      "ople": 804,
      "Ġarm": 805,
      "Ġcame": 806,
      "Ġsuch": 807,
      "ction": 808,
      "ĠU": 809,
      "Ġtake": 810,
      "ears": 811,
      "ody": 812,
      "Ġbel": 813,
      "side": 814,
      "Ġasked": 815,
      "llow": 816,
      "ouse": 817,
      "Ġtell": 818,
      "ors": 819,
      "Ġmight": 820,
      "hy": 821,
      "Ġroom": 822,
      "Ġthese": 823,
      "Ġsw": 824,
      "'ve": 825,
      "Ġgreat": 826,
      "Ġmust": 827,
      "air": 828,
      "Ġsur": 829,
      "ĠThere": 830,
      "ever": 831,
      "so": 832,
      "Ġwr": 833,
      "Ġold": 834,
      "be": 835,
      "Ġwa": 836,
      "Ġset": 837,
      "ĠMr": 838,
      "ling": 839,
      "Ġent": 840,
      "Ġwom": 841,
      "Ġlook": 842,
      "Ġsec": 843,
      "Ġbeing": 844,
      "Ġmost": 845,
      "Ġrep": 846,
      "ĠThis": 847,
      "¿¾": 848,
      "ï¿¾": 849,
      "Ġmat": 850,
      "Ġpeople": 851,
      "ook": 852,
      "Ġrec": 853,
      "ĠY": 854,
      "Ġte": 855,
      "Ġass": 856,
      "xt": 857,
      "ĠĊĊ": 858,
      "Ġear": 859,
      "Ġhapp": 860,
      "elt": 861,
      "ont": 862,
      "ross": 863,
      "Ġmom": 864,
      "Ġtook": 865,
      "Ġleft": 866,
      "Ġind": 867,
      "Ġnight": 868,
      "Ġlife": 869,
      "cl": 870,
      "Ġknew": 871,
      "Ġwhile": 872,
      "ents": 873,
      "Ġdec": 874,
      "Ġthose": 875,
      "Ġlast": 876,
      "Ġword": 877,
      "Ġsame": 878,
      "Ġagainst": 879,
      "00": 880,
      "Ġrel": 881,
      "Ġacc": 882,
      "ince": 883,
      "Ġdiff": 884,
      "Ġwent": 885,
      "Ġi": 886,
      "Ġfound": 887,
      "Ġbecause": 888,
      "ict": 889,
      "Ġbeg": 890,
      "ple": 891,
      "ower": 892,
      "Ġfind": 893,
      "Ġput": 894,
      "ĠHis": 895,
      "Ġhands": 896,
      "Ġnew": 897,
      "oice": 898,
      "ner": 899,
      "Ġfollow": 900,
      "ible": 901,
      "ove": 902,
      "Ġend": 903,
      "Ġfri": 904,
      "ĠAs": 905,
      "ren": 906,
      "uck": 907,
      "ween": 908,
      "ĠÏ": 909,
      "Ġmen": 910,
      "Ġdist": 911,
      "Ġchan": 912,
      "Ġ+": 913,
      "What": 914,
      "row": 915,
      "aw": 916,
      "Ġanother": 917,
      "It": 918,
      "..": 919,
      "Ġ4": 920,
      "ix": 921,
      "get": 922,
      "Ġwork": 923,
      "less": 924,
      "Ġgi": 925,
      "Ġel": 926,
      "Ġhel": 927,
      "Ġser": 928,
      "Ġeach": 929,
      "Ġbetween": 930,
      "Ġpass": 931,
      "Ġcomm": 932,
      "Ġfew": 933,
      "ib": 934,
      "Ġsk": 935,
      "ier": 936,
      "Ġhimself": 937,
      "ah": 938,
      "ob": 939,
      "Ġcons": 940,
      ").": 941,
      "Ġside": 942,
      "Ġupon": 943,
      "Ġwar": 944,
      "Ġlight": 945,
      "erm": 946,
      "ĠIf": 947,
      "Ġtal": 948,
      "here": 949,
      "ways": 950,
      "Ġturned": 951,
      "Ġcor": 952,
      "ĠCh": 953,
      "Ġunt": 954,
      "Ġtold": 955,
      "Ġform": 956,
      "az": 957,
      ".âĢĿ": 958,
      "Ġreal": 959,
      "Ġfelt": 960,
      "Ġhard": 961,
      "Ġalso": 962,
      "Ġret": 963,
      "Ġplace": 964,
      "ating": 965,
      "),": 966,
      "Ġwal": 967,
      "Ġwithout": 968,
      "Ġthough": 969,
      "cc": 970,
      "Ġmany": 971,
      "ool": 972,
      "Ġfin": 973,
      "ĠÂ": 974,
      "ener": 975,
      "form": 976,
      "ual": 977,
      "Ġcle": 978,
      "Ġsaw": 979,
      "Ġbo": 980,
      "Ġdoes": 981,
      "ret": 982,
      "Ġinst": 983,
      "Ġenough": 984,
      "vel": 985,
      "irl": 986,
      "vers": 987,
      "Ġhouse": 988,
      "Ġsub": 989,
      "Ġmoment": 990,
      "ĠThat": 991,
      "Ġsmall": 992,
      "ee": 993,
      "Ġcour": 994,
      "osed": 995,
      "Ġmet": 996,
      "Ġpres": 997,
      "ĠWhen": 998,
      "Ġsupp": 999,
      "ĠAn": 1000,
      "Ġthing": 1001,
      "Ġfriend": 1002,
      "Ġvoice": 1003,
      "Ġfar": 1004,
      "Ġcur": 1005,
      "Ġboth": 1006,
      "ĠHer": 1007,
      "Ġmin": 1008,
      "ale": 1009,
      "up": 1010,
      "Ġmind": 1011,
      "den": 1012,
      "Ġsure": 1013,
      "der": 1014,
      "ock": 1015,
      "ĠÐ": 1016,
      "Ġnothing": 1017,
      "Ġstar": 1018,
      "Ġthings": 1019,
      "Ġinter": 1020,
      "Ġever": 1021,
      "Ġwasn": 1022,
      "ged": 1023,
      "outh": 1024,
      "ĠThen": 1025,
      "Ġact": 1026,
      "Ġalways": 1027,
      "Ġmar": 1028,
      "ned": 1029,
      "Ġthree": 1030,
      "Ġshow": 1031,
      "ph": 1032,
      "iet": 1033,
      "Ġyears": 1034,
      "Ġhelp": 1035,
      "Ġkeep": 1036,
      "ined": 1037,
      "ank": 1038,
      "Ġbu": 1039,
      "Ġopen": 1040,
      "Ġtry": 1041,
      "Ġev": 1042,
      "ient": 1043,
      "Ġrest": 1044,
      "Ġtoward": 1045,
      "aught": 1046,
      "Ġsat": 1047,
      "Ġsim": 1048,
      "Ã©": 1049,
      "sp": 1050,
      "Ġ,": 1051,
      "ded": 1052,
      "rew": 1053,
      "ular": 1054,
      "ĠFor": 1055,
      "ised": 1056,
      "Ġpull": 1057,
      "ates": 1058,
      "hind": 1059,
      "ĠWhat": 1060,
      "Ġuntil": 1061,
      "Ġgirl": 1062,
      "ished": 1063,
      "Ġlove": 1064,
      "Ġdisc": 1065,
      "Ġbody": 1066,
      "Ġonce": 1067,
      "sw": 1068,
      "Ġhome": 1069,
      "Ġpers": 1070,
      "enc": 1071,
      "ream": 1072,
      "ject": 1073,
      "Ġreg": 1074,
      "Ġwoman": 1075,
      "Ġwanted": 1076,
      "âĢ¦": 1077,
      "ott": 1078,
      "Ġste": 1079,
      "bed": 1080,
      "most": 1081,
      "Ġanything": 1082,
      "ited": 1083,
      "Ġwind": 1084,
      "Ġinc": 1085,
      "Ġstand": 1086,
      "Ġdark": 1087,
      "ĠMy": 1088,
      "He": 1089,
      "Ġchild": 1090,
      "Ġheart": 1091,
      "Ġbre": 1092,
      "Ġbehind": 1093,
      "Ġreally": 1094,
      ",âĢĿ": 1095,
      "Ġsn": 1096,
      "Ġbed": 1097,
      "ching": 1098,
      "the": 1099,
      "Ġsil": 1100,
      "und": 1101,
      "Ġspe": 1102,
      "Ġdef": 1103,
      "mer": 1104,
      "Ġz": 1105,
      "ĠAl": 1106,
      "its": 1107,
      "Ġpar": 1108,
      "ertain": 1109,
      "Ġ5": 1110,
      "ither": 1111,
      "Ġmod": 1112,
      "No": 1113,
      "Ġfam": 1114,
      "ĠNo": 1115,
      "Ġsy": 1116,
      "Ġcare": 1117,
      "ually": 1118,
      "Ġposs": 1119,
      "Ġgive": 1120,
      "Ġconf": 1121,
      "ĠZ": 1122,
      "Ġinv": 1123,
      "ected": 1124,
      "pe": 1125,
      "med": 1126,
      "ung": 1127,
      "man": 1128,
      "Ġdiffere": 1129,
      "ater": 1130,
      "Ġdra": 1131,
      "ense": 1132,
      "Ġfather": 1133,
      "Ġseemed": 1134,
      "Ġwater": 1135,
      "Ġnext": 1136,
      "ters": 1137,
      "Ġkind": 1138,
      "Ġheard": 1139,
      "ts": 1140,
      "Ġworld": 1141,
      "Ġnear": 1142,
      "Ġmean": 1143,
      "Ġcou": 1144,
      "Ġsound": 1145,
      "ene": 1146,
      "ized": 1147,
      "har": 1148,
      "ably": 1149,
      "Ġchar": 1150,
      "Ġple": 1151,
      "att": 1152,
      "cept": 1153,
      "ently": 1154,
      "ully": 1155,
      "Ġbetter": 1156,
      "ained": 1157,
      "Ġlar": 1158,
      ",'": 1159,
      "Ġdet": 1160,
      "Ġbelie": 1161,
      "Ġyoung": 1162,
      "Ġseen": 1163,
      "Ġmother": 1164,
      "âĪĴ": 1165,
      "ures": 1166,
      "Ġrun": 1167,
      "Ġnum": 1168,
      "ax": 1169,
      "Ġansw": 1170,
      "Ġmor": 1171,
      "ins": 1172,
      "ĠFr": 1173,
      "ĠX": 1174,
      "ute": 1175,
      "Ġdr": 1176,
      "Ġmon": 1177,
      "Ġhold": 1178,
      "Ġref": 1179,
      "land": 1180,
      "And": 1181,
      "Ġbreat": 1182,
      "ention": 1183,
      "ĠAt": 1184,
      "Ġcouldn": 1185,
      "Ġdone": 1186,
      "Ġresp": 1187,
      "Ġuse": 1188,
      "ering": 1189,
      "to": 1190,
      "Ġpoint": 1191,
      "Ġes": 1192,
      "ows": 1193,
      "Ġyet": 1194,
      "ĠSo": 1195,
      "Ġtak": 1196,
      "Ġtra": 1197,
      "Ġhop": 1198,
      "Ġhum": 1199,
      "Ġcalled": 1200,
      "Ġalmost": 1201,
      "ger": 1202,
      "Ġname": 1203,
      "Ġfact": 1204,
      "Ġsince": 1205,
      "ĠMar": 1206,
      "Ġhair": 1207,
      "Ġused": 1208,
      "Ġsecond": 1209,
      "uth": 1210,
      "Ġsays": 1211,
      "Ġext": 1212,
      "ason": 1213,
      "ired": 1214,
      "Ġreturn": 1215,
      "We": 1216,
      "ield": 1217,
      "ĠOn": 1218,
      "Ġwhy": 1219,
      "ured": 1220,
      "Ġfing": 1221,
      "ped": 1222,
      "als": 1223,
      "Ġhalf": 1224,
      "pr": 1225,
      "Ġgener": 1226,
      "Ġgave": 1227,
      "Ġhigh": 1228,
      "Ġeff": 1229,
      "sh": 1230,
      "Ġcourse": 1231,
      "?'": 1232,
      "sel": 1233,
      "inc": 1234,
      "Ġhear": 1235,
      "Ġwords": 1236,
      "Ġboy": 1237,
      "ric": 1238,
      "aut": 1239,
      "ready": 1240,
      "iting": 1241,
      "Ġquest": 1242,
      "Ġ6": 1243,
      "ike": 1244,
      "Ġdeep": 1245,
      "Ġlau": 1246,
      "Ġph": 1247,
      "Ġacross": 1248,
      "Ġnec": 1249,
      "ĠRe": 1250,
      "used": 1251,
      "ately": 1252,
      "Ġfront": 1253,
      "Ġexpl": 1254,
      "Ġred": 1255,
      "ative": 1256,
      "Ġread": 1257,
      "Ġsle": 1258,
      "ĠAr": 1259,
      "Ġlooking": 1260,
      "Ġdri": 1261,
      "Ġdel": 1262,
      "Ð¾": 1263,
      "Ġnod": 1264,
      "Ġplay": 1265,
      "Ġla": 1266,
      "ached": 1267,
      "Ġdire": 1268,
      "oke": 1269,
      "mb": 1270,
      "ĠGod": 1271,
      "Ġstood": 1272,
      "Ġunderst": 1273,
      "Ġalready": 1274,
      "Ġmouth": 1275,
      "Ġmyself": 1276,
      "Ġblack": 1277,
      "ug": 1278,
      "ĠNot": 1279,
      "Ġherself": 1280,
      "ection": 1281,
      "ĠBr": 1282,
      "ĠQ": 1283,
      "Ġfeet": 1284,
      "Ġcount": 1285,
      "Ġhour": 1286,
      "iled": 1287,
      "Ġcontin": 1288,
      "ets": 1289,
      "Ġfun": 1290,
      "ðĿ": 1291,
      "ane": 1292,
      "gether": 1293,
      "pping": 1294,
      "Ġair": 1295,
      "ased": 1296,
      "Ġalong": 1297,
      "Ġtogether": 1298,
      "Ġbest": 1299,
      "Ġbro": 1300,
      "Ġwall": 1301,
      "Ġwond": 1302,
      "ĠHow": 1303,
      "Ġvis": 1304,
      "Ġclose": 1305,
      "Ġdep": 1306,
      "ĠâĢĶ": 1307,
      "Ġdro": 1308,
      "Ġele": 1309,
      ".,": 1310,
      "ution": 1311,
      "ying": 1312,
      "Ġstre": 1313,
      "Ġkill": 1314,
      "Ġfore": 1315,
      "ility": 1316,
      "amp": 1317,
      "Ġpain": 1318,
      "Ġcap": 1319,
      "uring": 1320,
      "oor": 1321,
      "ific": 1322,
      "Ġsoon": 1323,
      "orn": 1324,
      "Ġdifferent": 1325,
      "But": 1326,
      "That": 1327,
      "ange": 1328,
      "Ġelse": 1329,
      "ident": 1330,
      "day": 1331,
      "Ġperson": 1332,
      "Ġpur": 1333,
      "Ġide": 1334,
      "na": 1335,
      "ten": 1336,
      "ressed": 1337,
      "âĢľ": 1338,
      "Ġbegan": 1339,
      "Ġcomple": 1340,
      "iness": 1341,
      "Ġbus": 1342,
      "ize": 1343,
      "me": 1344,
      "Ġx": 1345,
      "Ġremem": 1346,
      "ird": 1347,
      "Ġequ": 1348,
      "ash": 1349,
      "hn": 1350,
      "Ġsign": 1351,
      "Ġcase": 1352,
      "aster": 1353,
      "uss": 1354,
      "Ġbit": 1355,
      "Ġtri": 1356,
      "Ġdays": 1357,
      "Ġtrans": 1358,
      "ho": 1359,
      "uff": 1360,
      "Ġbar": 1361,
      "Ġtre": 1362,
      "Ġpower": 1363,
      "Ġgiven": 1364,
      "oll": 1365,
      "ments": 1366,
      "ĠAll": 1367,
      "ided": 1368,
      "ys": 1369,
      "aced": 1370,
      "ines": 1371,
      "Ġshall": 1372,
      "ek": 1373,
      "Ġcertain": 1374,
      "Ġquick": 1375,
      "Ġinf": 1376,
      "Ġpol": 1377,
      "Ġed": 1378,
      "Ġbri": 1379,
      "Ġleast": 1380,
      "Yes": 1381,
      "ĠTo": 1382,
      "ities": 1383,
      "Ġappro": 1384,
      "ature": 1385,
      "Ġwhole": 1386,
      "of": 1387,
      "Ġlarge": 1388,
      "ĠJo": 1389,
      "Ġheld": 1390,
      "io": 1391,
      "Ġpat": 1392,
      "Ġblood": 1393,
      "ĠBe": 1394,
      "Ġocc": 1395,
      "Ġwhite": 1396,
      "Ġfell": 1397,
      "Ġest": 1398,
      "Ġaw": 1399,
      "Ġstud": 1400,
      "els": 1401,
      "Ġless": 1402,
      "Ġtable": 1403,
      "ĠâĢĵ": 1404,
      "Ġinside": 1405,
      "ime": 1406,
      "Ġclear": 1407,
      "Ġbig": 1408,
      "Ġarms": 1409,
      "Ġhaving": 1410,
      "Ġprob": 1411,
      "Ġstart": 1412,
      "Ġleg": 1413,
      "Ġfall": 1414,
      "erest": 1415,
      "Ġcol": 1416,
      "fully": 1417,
      "Ġmorning": 1418,
      "Ġ)": 1419,
      "Ġsqu": 1420,
      "ued": 1421,
      "ny": 1422,
      "Ġfull": 1423,
      "Ġgone": 1424,
      "Ġhor": 1425,
      "ton": 1426,
      "not": 1427,
      "Ġfour": 1428,
      "Ġhur": 1429,
      "eth": 1430,
      "Ġslow": 1431,
      "Ġsent": 1432,
      "ĠDe": 1433,
      "Ġcond": 1434,
      "Ġeas": 1435,
      "Oh": 1436,
      "ides": 1437,
      "Ġthin": 1438,
      "ĠâĪĪ": 1439,
      "Ġstep": 1440,
      "Ġmove": 1441,
      "ser": 1442,
      "Ġspec": 1443,
      "Ġconst": 1444,
      "Ðµ": 1445,
      "nce": 1446,
      "Ġsch": 1447,
      "cri": 1448,
      "haps": 1449,
      "ced": 1450,
      "Ġpast": 1451,
      "ĠWith": 1452,
      "by": 1453,
      "Ġstay": 1454,
      "Ġtrying": 1455,
      "ma": 1456,
      "ants": 1457,
      "Ġsto": 1458,
      "Ġtou": 1459,
      "Ġdou": 1460,
      "Ġâī": 1461,
      "Ġsol": 1462,
      "ken": 1463,
      "rought": 1464,
      "rist": 1465,
      "Ġexc": 1466,
      "osition": 1467,
      "Ġeverything": 1468,
      "Ġdoing": 1469,
      "Ġquite": 1470,
      "oney": 1471,
      "Ġleave": 1472,
      "umb": 1473,
      "Ġtried": 1474,
      "Ġtaken": 1475,
      "Ġdead": 1476,
      "Ġland": 1477,
      "irc": 1478,
      "Ġstru": 1479,
      "Ġra": 1480,
      "aces": 1481,
      "ically": 1482,
      "Ġcoll": 1483,
      "ider": 1484,
      "Ġfire": 1485,
      "Ġground": 1486,
      "br": 1487,
      "Ġadd": 1488,
      "any": 1489,
      "ern": 1490,
      "err": 1491,
      "Ġadv": 1492,
      "Ġsmile": 1493,
      "Ġcent": 1494,
      "ushed": 1495,
      "Ġunderstand": 1496,
      "de": 1497,
      "ĠCl": 1498,
      "Ġgre": 1499,
      "Ġque": 1500,
      "olog": 1501,
      "Ð°": 1502,
      "Ġline": 1503,
      "ience": 1504,
      "iew": 1505,
      "ison": 1506,
      "Ġfur": 1507,
      "Ġinterest": 1508,
      "Ġbelieve": 1509,
      "Ġconc": 1510,
      "ush": 1511,
      "Ġpulled": 1512,
      "Ġval": 1513,
      "Ġmatter": 1514,
      "Ġ19": 1515,
      "ĠLe": 1516,
      "Ġfamily": 1517,
      "Ġabove": 1518,
      "Ġdem": 1519,
      "gr": 1520,
      "Ġ7": 1521,
      "Ġmag": 1522,
      "Ġsing": 1523,
      "Ġrepl": 1524,
      "Ġvar": 1525,
      "Ġbreath": 1526,
      "ics": 1527,
      "Ġnumber": 1528,
      "She": 1529,
      "iously": 1530,
      "dden": 1531,
      "ery": 1532,
      "owed": 1533,
      "Ġbrought": 1534,
      "app": 1535,
      "Ġstarted": 1536,
      "icked": 1537,
      "ude": 1538,
      "Ġshort": 1539,
      "Ġsun": 1540,
      "Ġlater": 1541,
      "Ġswe": 1542,
      "Ġpret": 1543,
      "Ġwouldn": 1544,
      "Ġbeaut": 1545,
      "Ġlay": 1546,
      "Ġaff": 1547,
      "ister": 1548,
      "irt": 1549,
      "ms": 1550,
      "Ġ18": 1551,
      "Ġothers": 1552,
      "Ġlear": 1553,
      "Ġcoming": 1554,
      "Ġtimes": 1555,
      "itting": 1556,
      "Ġbad": 1557,
      "Ġsomeone": 1558,
      "Ġmaking": 1559,
      "ains": 1560,
      "ĠUn": 1561,
      "Ġeye": 1562,
      "Ġpri": 1563,
      "arent": 1564,
      "Ġsudden": 1565,
      "Ġmeet": 1566,
      "Ġlist": 1567,
      "Ġreason": 1568,
      "ĠÃ": 1569,
      "Ġorder": 1570,
      "ages": 1571,
      "Ġtalk": 1572,
      "ars": 1573,
      "Ġ10": 1574,
      "lic": 1575,
      "Ġexper": 1576,
      "tern": 1577,
      "Ġwon": 1578,
      "Ġ20": 1579,
      "Ġloc": 1580,
      "Ġquestion": 1581,
      "Ġpresent": 1582,
      "Th": 1583,
      "over": 1584,
      "enty": 1585,
      "ots": 1586,
      "ief": 1587,
      "Ġlead": 1588,
      "Ġdeath": 1589,
      "Ġprom": 1590,
      "Ġlips": 1591,
      "selves": 1592,
      "Ġask": 1593,
      "Ġsoft": 1594,
      "Ġlow": 1595,
      "Ġunc": 1596,
      "ĠNow": 1597,
      "Ġstrong": 1598,
      "ER": 1599,
      "ork": 1600,
      "Ġsit": 1601,
      "ĠGr": 1602,
      "Ġtop": 1603,
      "Ġnor": 1604,
      "read": 1605,
      "Ġadm": 1606,
      "oud": 1607,
      "fort": 1608,
      "Ġdi": 1609,
      "Ġwalked": 1610,
      "Ġve": 1611,
      "head": 1612,
      "Ġstra": 1613,
      "ening": 1614,
      "Ġeither": 1615,
      "Ġfloor": 1616,
      "Ġlea": 1617,
      "Ġprot": 1618,
      "âĢĶ\"": 1619,
      "ames": 1620,
      "but": 1621,
      "ead": 1622,
      "Ġstop": 1623,
      "ĠIs": 1624,
      "Ġap": 1625,
      "Ġins": 1626,
      "Ġplan": 1627,
      "Ġcirc": 1628,
      "aring": 1629,
      "ĠOne": 1630,
      "ĠPro": 1631,
      "Ġtem": 1632,
      "Ġkept": 1633,
      "Ġidea": 1634,
      "Ġcut": 1635,
      "stem": 1636,
      "Ġalone": 1637,
      "ues": 1638,
      "ey": 1639,
      "ĠOr": 1640,
      "Ġ8": 1641,
      "Ġfree": 1642,
      "Ġreached": 1643,
      "ices": 1644,
      "Ġkiss": 1645,
      "Ġcal": 1646,
      "akes": 1647,
      "Ġcat": 1648,
      "Ġpap": 1649,
      "Ġet": 1650,
      "ially": 1651,
      "Ġsleep": 1652,
      "ina": 1653,
      "eng": 1654,
      "unt": 1655,
      "room": 1656,
      "ists": 1657,
      "ips": 1658,
      "Ġable": 1659,
      "Ġpartic": 1660,
      "ĠSp": 1661,
      "Ġnodded": 1662,
      "Ġrather": 1663,
      "?âĢĿ": 1664,
      "gged": 1665,
      "fe": 1666,
      "ĠEng": 1667,
      "Ġmiss": 1668,
      "imes": 1669,
      "oun": 1670,
      "Ġwhis": 1671,
      "gy": 1672,
      "ðĿĳ": 1673,
      "ards": 1674,
      "Well": 1675,
      "Ġsurpr": 1676,
      "Ġfig": 1677,
      "iles": 1678,
      "Ġart": 1679,
      "Ġprop": 1680,
      "ĠMrs": 1681,
      "ĠAfter": 1682,
      "Ġamong": 1683,
      "Ġforward": 1684,
      "Ġknown": 1685,
      "Ġhadn": 1686,
      "ÑĤ": 1687,
      "where": 1688,
      "Ġ-": 1689,
      "ony": 1690,
      "du": 1691,
      "Ġran": 1692,
      "Ġfingers": 1693,
      "asure": 1694,
      "Ġyear": 1695,
      "Ġtrue": 1696,
      "Ġ|": 1697,
      "Ġbur": 1698,
      "atur": 1699,
      "ression": 1700,
      "Ġperf": 1701,
      "Ġhappened": 1702,
      "ĠWh": 1703,
      "Ġmus": 1704,
      "Ġang": 1705,
      "Ġmid": 1706,
      "ert": 1707,
      "Ġround": 1708,
      "utes": 1709,
      "Ġdoesn": 1710,
      "Ġopened": 1711,
      "Ġquiet": 1712,
      "Ġma": 1713,
      "ĠBl": 1714,
      "inted": 1715,
      "Ġsor": 1716,
      "ement": 1717,
      "Ġfill": 1718,
      "Ġca": 1719,
      "Ġopp": 1720,
      "ges": 1721,
      "Ġtaking": 1722,
      "ended": 1723,
      "Ġlot": 1724,
      "Ġbrother": 1725,
      "Ġresult": 1726,
      "omp": 1727,
      "Ġremember": 1728,
      "Ġsmiled": 1729,
      "omm": 1730,
      "Ġsystem": 1731,
      "Ġgrow": 1732,
      "ĠMay": 1733,
      "Ġmoved": 1734,
      "oon": 1735,
      "Ġhuman": 1736,
      "Ġlif": 1737,
      "ĠChrist": 1738,
      "Ġspeak": 1739,
      "Ġsever": 1740,
      "Ġgetting": 1741,
      "airs": 1742,
      "Ġcold": 1743,
      "Ġmoney": 1744,
      "ĠLet": 1745,
      "Ġwithin": 1746,
      "ism": 1747,
      "undred": 1748,
      "mm": 1749,
      "Ġdoub": 1750,
      "Ġcross": 1751,
      "Ġson": 1752,
      "Ġwomen": 1753,
      "eared": 1754,
      "Ġclass": 1755,
      "Ġprobably": 1756,
      "Ġsho": 1757,
      "Ġfeeling": 1758,
      "Ġlost": 1759,
      "ĠSc": 1760,
      "Ġbring": 1761,
      "Ġexam": 1762,
      "Ġpa": 1763,
      "ĠPr": 1764,
      "anger": 1765,
      "ex": 1766,
      "Ġhope": 1767,
      "Ġbes": 1768,
      "Ġhot": 1769,
      "Ġclos": 1770,
      "Ġstopped": 1771,
      "erc": 1772,
      "Ġchildren": 1773,
      "Ġwood": 1774,
      "Ġgra": 1775,
      "Ġver": 1776,
      "Ġneeded": 1777,
      "Ġfight": 1778,
      "Ġshook": 1779,
      "ump": 1780,
      "ator": 1781,
      "Ġrequ": 1782,
      "Ġimport": 1783,
      "Ġseveral": 1784,
      "Ġbuild": 1785,
      "Ġschool": 1786,
      "Ġpossible": 1787,
      "ik": 1788,
      "ances": 1789,
      "Ġsix": 1790,
      "ĠCar": 1791,
      "Ġsuff": 1792,
      "How": 1793,
      "aining": 1794,
      "gin": 1795,
      "iver": 1796,
      "eed": 1797,
      "So": 1798,
      "Ġobser": 1799,
      "anced": 1800,
      "Ġ9": 1801,
      "Ġlim": 1802,
      "ract": 1803,
      "Ġsou": 1804,
      "Ġdie": 1805,
      "Ġsense": 1806,
      "Ġhundred": 1807,
      "Ġhowever": 1808,
      "Ġserv": 1809,
      "Ġmem": 1810,
      "Ġfollowing": 1811,
      "iful": 1812,
      "10": 1813,
      "Ġfoot": 1814,
      "ef": 1815,
      "Ġeffect": 1816,
      "Ġfriends": 1817,
      "Ġprov": 1818,
      "Ġten": 1819,
      "ote": 1820,
      "ctor": 1821,
      "Ġmur": 1822,
      "Ġir": 1823,
      "aim": 1824,
      "ches": 1825,
      "Ġproper": 1826,
      "Ġdat": 1827,
      "Ġanswer": 1828,
      "ĠEl": 1829,
      "Ð¸": 1830,
      "aughter": 1831,
      "ior": 1832,
      "Ġabs": 1833,
      "ising": 1834,
      "Ġord": 1835,
      "Ġready": 1836,
      "aned": 1837,
      "ĠCon": 1838,
      "ze": 1839,
      "Ġproble": 1840,
      "âĢĵ": 1841,
      "iding": 1842,
      "Ġgaz": 1843,
      "kay": 1844,
      "ĠAd": 1845,
      "ging": 1846,
      "Ġclosed": 1847,
      "Ġchest": 1848,
      "Ġbreak": 1849,
      "Ġoften": 1850,
      "ats": 1851,
      "20": 1852,
      "Ġduring": 1853,
      "Ġfa": 1854,
      "dle": 1855,
      "Ġinform": 1856,
      "Ġskin": 1857,
      "ces": 1858,
      "Ġglass": 1859,
      "Ġden": 1860,
      "Ġpassed": 1861,
      "Ġill": 1862,
      "Ġund": 1863,
      "ones": 1864,
      "Ġcomplete": 1865,
      "Ġfine": 1866,
      "Ġmonth": 1867,
      "Ġwindow": 1868,
      "Ġcountry": 1869,
      "use": 1870,
      "val": 1871,
      "Ġchair": 1872,
      "Ġimag": 1873,
      "Ġminutes": 1874,
      "Ġwife": 1875,
      "Ġwrong": 1876,
      "Ġho": 1877,
      "ived": 1878,
      "Ġtight": 1879,
      "que": 1880,
      "otion": 1881,
      "Ġquickly": 1882,
      "Ġjo": 1883,
      "Ġfollowed": 1884,
      "ler": 1885,
      "ĠBy": 1886,
      "Ġfre": 1887,
      "rol": 1888,
      "Ġfive": 1889,
      "Ġoutside": 1890,
      "Ġpub": 1891,
      "ï£": 1892,
      "Ġexact": 1893,
      "ĠLord": 1894,
      "ipped": 1895,
      "ron": 1896,
      "Ġentire": 1897,
      "Ġarri": 1898,
      "Ġtown": 1899,
      "ĨĴ": 1900,
      "Ġsort": 1901,
      "Ġtrou": 1902,
      "Ġhon": 1903,
      "Why": 1904,
      "Ġlaugh": 1905,
      "Ġthinking": 1906,
      "Ġdev": 1907,
      "Ġstate": 1908,
      "Ġshoulder": 1909,
      "Ġmeans": 1910,
      "ĠJohn": 1911,
      "Ñģ": 1912,
      "Ġ:": 1913,
      "Ġav": 1914,
      "yn": 1915,
      "Ġthemselves": 1916,
      "aint": 1917,
      "Ġlonger": 1918,
      "Ġbott": 1919,
      "Ġterm": 1920,
      "Ġfear": 1921,
      "Ġheav": 1922,
      "Ġrece": 1923,
      "ring": 1924,
      "Ġgrou": 1925,
      "son": 1926,
      "If": 1927,
      "Ġperfect": 1928,
      "Ġbene": 1929,
      "Ġneck": 1930,
      "Ġbecome": 1931,
      "cess": 1932,
      "body": 1933,
      "though": 1934,
      "ĠNew": 1935,
      "ĠÂ·": 1936,
      "Ġago": 1937,
      "ilt": 1938,
      "Ġroad": 1939,
      "Ġmain": 1940,
      "sc": 1941,
      "Ġroll": 1942,
      "HE": 1943,
      "Ġanyone": 1944,
      "Ġconsider": 1945,
      "Ġbusiness": 1946,
      "ĠDo": 1947,
      "ĠWill": 1948,
      "Do": 1949,
      "men": 1950,
      "cted": 1951,
      "ĠSe": 1952,
      "ĠMiss": 1953,
      "Ġcannot": 1954,
      "Ġcity": 1955,
      "Ġlive": 1956,
      "Ġty": 1957,
      "aged": 1958,
      "iling": 1959,
      "elf": 1960,
      "ÂłÂł": 1961,
      "Ġesc": 1962,
      "There": 1963,
      "Ġbegin": 1964,
      "Ġchange": 1965,
      "ality": 1966,
      "eks": 1967,
      "Ġhours": 1968,
      "mp": 1969,
      "Ġfield": 1970,
      "Ġfinally": 1971,
      "Ġslowly": 1972,
      "Ġstraight": 1973,
      "Ġsens": 1974,
      "Ġdescri": 1975,
      "par": 1976,
      "ination": 1977,
      "Ġlaw": 1978,
      "Ġcaught": 1979,
      "Ġthro": 1980,
      "Ġbook": 1981,
      "Ġincl": 1982,
      "ĠâĢ¦": 1983,
      "Ġreplied": 1984,
      "ĠCha": 1985,
      "Ġspace": 1986,
      "isted": 1987,
      "Ġblue": 1988,
      "medi": 1989,
      "Ġdraw": 1990,
      "Ġcra": 1991,
      "eter": 1992,
      "antly": 1993,
      "Ġsuddenly": 1994,
      "ÃŃ": 1995,
      "Ġwhose": 1996,
      "hys": 1997,
      "ĠHar": 1998,
      "lish": 1999,
      "Ġrespect": 2000,
      "Ġdirect": 2001,
      "ster": 2002,
      "Ã¡": 2003,
      "Ġcry": 2004,
      "Not": 2005,
      "my": 2006,
      "Ġparticular": 2007,
      "Ġdeal": 2008,
      "Ġwarm": 2009,
      "Ġbeautiful": 2010,
      "ĠChar": 2011,
      "Ġwatched": 2012,
      "itted": 2013,
      "Ġwonder": 2014,
      "ases": 2015,
      "Ð¾Ð": 2016,
      "ored": 2017,
      "ĠFig": 2018,
      "Ġtruth": 2019,
      "ley": 2020,
      "Ġattention": 2021,
      "Ġpretty": 2022,
      "Ġview": 2023,
      "Ġprof": 2024,
      "Ġwhom": 2025,
      "ining": 2026,
      "Ġperhaps": 2027,
      "Ġthr": 2028,
      "Ġdream": 2029,
      "Ġstanding": 2030,
      "Ġdisapp": 2031,
      "Ġpay": 2032,
      "Ġcontinued": 2033,
      "erv": 2034,
      "idence": 2035,
      "Ġonto": 2036,
      "gan": 2037,
      "bit": 2038,
      "Ġslight": 2039,
      "ĠSome": 2040,
      "ives": 2041,
      "Ġwaiting": 2042,
      "ĠJust": 2043,
      "Ġsaying": 2044,
      "Ġmine": 2045,
      "ively": 2046,
      "Ġprev": 2047,
      "ghed": 2048,
      "Ġbound": 2049,
      "ians": 2050,
      "ij": 2051,
      "urch": 2052,
      "Ġmeant": 2053,
      "Ġmodel": 2054,
      "ury": 2055,
      "isf": 2056,
      "Ġphone": 2057,
      "Ġtowards": 2058,
      "uced": 2059,
      "Ġisn": 2060,
      "itc": 2061,
      "arch": 2062,
      "Ġgold": 2063,
      "Ġstory": 2064,
      "ĠWhy": 2065,
      "ume": 2066,
      "Ġgeneral": 2067,
      "ceed": 2068,
      "Ġking": 2069,
      "tered": 2070,
      "Ġmess": 2071,
      "!âĢĿ": 2072,
      "bs": 2073,
      "ĠInd": 2074,
      "Ġitself": 2075,
      "let": 2076,
      "They": 2077,
      "Ġcre": 2078,
      "Ġmed": 2079,
      "Ġtalking": 2080,
      "Ġ*": 2081,
      "Ġcreat": 2082,
      "Ġpal": 2083,
      "Ġgri": 2084,
      "ply": 2085,
      "Ġcharac": 2086,
      "Ġnecess": 2087,
      "Ġpaper": 2088,
      "erri": 2089,
      "ĠTr": 2090,
      "band": 2091,
      "Ġwait": 2092,
      "Ġappear": 2093,
      "This": 2094,
      "Ġspir": 2095,
      "Ġlegs": 2096,
      "Ġwalk": 2097,
      "ming": 2098,
      "Ġpract": 2099,
      "Ġsight": 2100,
      "Ġdoubt": 2101,
      "ories": 2102,
      "Pg": 2103,
      "iar": 2104,
      "ision": 2105,
      "Ġoffic": 2106,
      "iam": 2107,
      "Ġbecame": 2108,
      "ask": 2109,
      "Ġer": 2110,
      "ope": 2111,
      "12": 2112,
      "atter": 2113,
      "iced": 2114,
      "Ġeng": 2115,
      "co": 2116,
      "Ġgent": 2117,
      "rent": 2118,
      "lo": 2119,
      "Ġenc": 2120,
      "Ġmis": 2121,
      "Ġwhether": 2122,
      "Ġusing": 2123,
      "ON": 2124,
      "ĠJack": 2125,
      "Ġfast": 2126,
      "Ġgrab": 2127,
      "Ġliving": 2128,
      "bing": 2129,
      "Ġpict": 2130,
      "Ġclot": 2131,
      "Ġreturned": 2132,
      "Ġburn": 2133,
      "IN": 2134,
      "ousand": 2135,
      "for": 2136,
      "itions": 2137,
      ".\"\"": 2138,
      "Î±": 2139,
      "Ġspoke": 2140,
      "Ġmakes": 2141,
      "Ġobject": 2142,
      "ency": 2143,
      "Ġbare": 2144,
      "Ġsorry": 2145,
      "Ġhall": 2146,
      "Ġsusp": 2147,
      "Ġstri": 2148,
      "meric": 2149,
      "Ġlate": 2150,
      "Ġstared": 2151,
      "ape": 2152,
      "ption": 2153,
      "Ġtwenty": 2154,
      "ĠPer": 2155,
      "ĠEven": 2156,
      "lex": 2157,
      "Ġdest": 2158,
      "eah": 2159,
      "].": 2160,
      "Ġpoor": 2161,
      "Ġhappy": 2162,
      "Ġsingle": 2163,
      "light": 2164,
      "ids": 2165,
      "11": 2166,
      "ization": 2167,
      "ĠâĢ²": 2168,
      "Ġlaughed": 2169,
      "Ġwatch": 2170,
      "pper": 2171,
      "ÑĢ": 2172,
      "ĠSh": 2173,
      "Ġguess": 2174,
      "Ġdam": 2175,
      "Ġwide": 2176,
      "Ġlooks": 2177,
      "Ġconv": 2178,
      "Ġsal": 2179,
      "Ġexcept": 2180,
      "Ġyes": 2181,
      "ational": 2182,
      "ĠAb": 2183,
      "Ã³": 2184,
      "Ġ{": 2185,
      "Ġimmedi": 2186,
      "iter": 2187,
      "ĠâĬ": 2188,
      "Ġsecret": 2189,
      "Ġaf": 2190,
      "Ġoper": 2191,
      "Ġpress": 2192,
      "ĠKing": 2193,
      "Ġrepres": 2194,
      "Ð½": 2195,
      "Ġnearly": 2196,
      "Ġdress": 2197,
      "ls": 2198,
      "ggest": 2199,
      "Ġchance": 2200,
      "Ġbright": 2201,
      "ky": 2202,
      "My": 2203,
      "Ġhung": 2204,
      "Ġfair": 2205,
      "Ġda": 2206,
      "Ġthousand": 2207,
      "Ġfav": 2208,
      "like": 2209,
      "Ġtor": 2210,
      "Ġmaybe": 2211,
      "Ġbab": 2212,
      "ĠMa": 2213,
      "ding": 2214,
      "ift": 2215,
      "bo": 2216,
      "Ġhus": 2217,
      "Ġce": 2218,
      "Ġnon": 2219,
      "ĠEm": 2220,
      "Ġwish": 2221,
      "ified": 2222,
      "ann": 2223,
      "ĠEvery": 2224,
      "Ġshar": 2225,
      "yond": 2226,
      "Ġsuggest": 2227,
      "Ġsitting": 2228,
      "ength": 2229,
      "Ġposition": 2230,
      "Ġself": 2231,
      "Ġexpect": 2232,
      "...": 2233,
      "pted": 2234,
      "Ġfood": 2235,
      "Ġdiffic": 2236,
      "Ġfurther": 2237,
      "ĠAmeric": 2238,
      "Ġimportant": 2239,
      "Ġsend": 2240,
      "ĠÎ±": 2241,
      "Ġsatisf": 2242,
      "Ġwin": 2243,
      "ule": 2244,
      "ĠEd": 2245,
      "Ġprocess": 2246,
      "Ġwhisp": 2247,
      "Ġanim": 2248,
      "Ġâī¤": 2249,
      "Ġconn": 2250,
      "Ġearly": 2251,
      "Ġsea": 2252,
      "Ġhurt": 2253,
      "Ġvol": 2254,
      "Ġanswered": 2255,
      "sed": 2256,
      "orted": 2257,
      "arr": 2258,
      "Ġrock": 2259,
      "Ġsett": 2260,
      "Ġsafe": 2261,
      "Ġcoun": 2262,
      ".âĢĶ": 2263,
      "owing": 2264,
      "Ġrunning": 2265,
      "Ġsex": 2266,
      "Ġstrange": 2267,
      "19": 2268,
      "ius": 2269,
      "ney": 2270,
      "Ġ15": 2271,
      "Ġproblem": 2272,
      "hod": 2273,
      "Ġactually": 2274,
      "Ġdog": 2275,
      "Ġsucc": 2276,
      "Ġforg": 2277,
      "Ġled": 2278,
      "Ġsold": 2279,
      "ĠDr": 2280,
      "Ġoffice": 2281,
      "Ġnatur": 2282,
      "Ġstat": 2283,
      "Ġsister": 2284,
      "II": 2285,
      "Ġcommand": 2286,
      "Ġgun": 2287,
      "Ġincre": 2288,
      "Ġhell": 2289,
      "ogn": 2290,
      "ilar": 2291,
      "Ġmass": 2292,
      "Ġattack": 2293,
      "acy": 2294,
      "resh": 2295,
      "Ġedge": 2296,
      "Don": 2297,
      "ĠâĢĺ": 2298,
      "Ġseems": 2299,
      "Ġexactly": 2300,
      "Ġthroat": 2301,
      "Ġearth": 2302,
      "Ġyourself": 2303,
      "Ġfunction": 2304,
      "Ġmist": 2305,
      "Ġdanger": 2306,
      "Ġinstead": 2307,
      "Ġori": 2308,
      "ooks": 2309,
      "Ã¼": 2310,
      "dy": 2311,
      "Ġsweet": 2312,
      "Ġapart": 2313,
      "Ġthick": 2314,
      "action": 2315,
      "ral": 2316,
      "joy": 2317,
      "Ġdiv": 2318,
      "Ġcharacter": 2319,
      "Ġ12": 2320,
      "ara": 2321,
      "Ġcontrol": 2322,
      "iment": 2323,
      "Ġgentle": 2324,
      "iety": 2325,
      "alth": 2326,
      "une": 2327,
      "Ġdeterm": 2328,
      "Ġbeside": 2329,
      "Ġann": 2330,
      "irty": 2331,
      "Ġ17": 2332,
      "ĠQu": 2333,
      "Ġsuper": 2334,
      "Ġrose": 2335,
      "iece": 2336,
      "Ġener": 2337,
      "Ġjob": 2338,
      "Ġship": 2339,
      "Ġappeared": 2340,
      "Ġtest": 2341,
      "Ġshut": 2342,
      "Ġdear": 2343,
      "Ġexpression": 2344,
      "Ġsubject": 2345,
      "ĠAm": 2346,
      "Ġgaze": 2347,
      "Ġgreen": 2348,
      "yl": 2349,
      "In": 2350,
      "Ġforce": 2351,
      "Ġport": 2352,
      "Ġtrust": 2353,
      "ession": 2354,
      "Ġraised": 2355,
      "Ġhusband": 2356,
      "Ġevening": 2357,
      "Ġyell": 2358,
      "hel": 2359,
      "eg": 2360,
      "Ġholding": 2361,
      "ails": 2362,
      "osp": 2363,
      "Ġq": 2364,
      "Ġdistance": 2365,
      "ously": 2366,
      "Ġweek": 2367,
      "Ġwatching": 2368,
      "Ġtouch": 2369,
      "zz": 2370,
      "ĠEx": 2371,
      "usion": 2372,
      "raid": 2373,
      "wo": 2374,
      "Ġshot": 2375,
      "ital": 2376,
      "Ġgroup": 2377,
      "Ġeveryone": 2378,
      "Ġlab": 2379,
      "Ġhu": 2380,
      "Ġshad": 2381,
      "Ġcast": 2382,
      "ecause": 2383,
      "aven": 2384,
      "15": 2385,
      "Ġtreat": 2386,
      "ĠDon": 2387,
      "attle": 2388,
      "Ġbeyond": 2389,
      "Ġwild": 2390,
      "Ġperform": 2391,
      "Ġcarry": 2392,
      "ov": 2393,
      "ĠGe": 2394,
      "Ġdied": 2395,
      "Ġstreet": 2396,
      "Ġhit": 2397,
      "kes": 2398,
      "Ġfilled": 2399,
      "Ġadded": 2400,
      "face": 2401,
      "Ġcomes": 2402,
      "idge": 2403,
      "Ġhorse": 2404,
      "Ġsir": 2405,
      "Ġobtain": 2406,
      "18": 2407,
      "Ġthus": 2408,
      "Ġworking": 2409,
      "Ġut": 2410,
      "ald": 2411,
      "Ġdecided": 2412,
      "Ġcrow": 2413,
      "rib": 2414,
      "itive": 2415,
      "Ġ16": 2416,
      "Ġcried": 2417,
      "Ð»": 2418,
      "ham": 2419,
      "empt": 2420,
      "Ġmir": 2421,
      "itchen": 2422,
      "OR": 2423,
      "Ġleaving": 2424,
      "aked": 2425,
      "Ġdata": 2426,
      "Ġhy": 2427,
      "iny": 2428,
      "Ġheavy": 2429,
      "Ġconvers": 2430,
      "Ġstepped": 2431,
      "ability": 2432,
      "Ġfix": 2433,
      "Ġprec": 2434,
      "Ġpack": 2435,
      "vered": 2436,
      "ĠThese": 2437,
      "ĠFrom": 2438,
      "Ġhat": 2439,
      "Ġgrand": 2440,
      "ented": 2441,
      "ought": 2442,
      "ĠOf": 2443,
      "ĠSir": 2444,
      "resp": 2445,
      "ashed": 2446,
      "Ġparent": 2447,
      "ulation": 2448,
      "Ġenjoy": 2449,
      "Ġbag": 2450,
      "ucking": 2451,
      "ingly": 2452,
      "Ġeasy": 2453,
      "Ġinformation": 2454,
      "Ġhist": 2455,
      "Ġcommon": 2456,
      "Ġrecogn": 2457,
      "Ġmethod": 2458,
      "Ġlength": 2459,
      "Ġcorner": 2460,
      "Ġprinc": 2461,
      "Ġeat": 2462,
      "Ġpath": 2463,
      "Ġsmo": 2464,
      "Ġmention": 2465,
      "ees": 2466,
      "ires": 2467,
      "Ġkitchen": 2468,
      "Ġpot": 2469,
      "Ġpublic": 2470,
      "Ġshoulders": 2471,
      "ĠâĪĹ": 2472,
      "uation": 2473,
      "ien": 2474,
      "Ġsilence": 2475,
      "ctions": 2476,
      "AR": 2477,
      "Ġgrin": 2478,
      "Ġmount": 2479,
      "Ġterri": 2480,
      "Ġbox": 2481,
      "Ġlady": 2482,
      "Ġder": 2483,
      "ledge": 2484,
      "Ġempt": 2485,
      "Ġknows": 2486,
      "Ġvi": 2487,
      "ecially": 2488,
      "Ġgirls": 2489,
      "Ġfigure": 2490,
      "Ġfif": 2491,
      "ĠRo": 2492,
      "Ġign": 2493,
      "Ġdin": 2494,
      "Ġvan": 2495,
      "Ġtrees": 2496,
      "ries": 2497,
      "Ġscream": 2498,
      "Is": 2499,
      "ises": 2500,
      "itch": 2501,
      "Ġcell": 2502,
      "Ġpriv": 2503,
      "work": 2504,
      "owers": 2505,
      "Ġauth": 2506,
      "Ġdaughter": 2507,
      "Ġwhispered": 2508,
      "amed": 2509,
      "ray": 2510,
      "Ġtill": 2511,
      "Ġsometimes": 2512,
      "acing": 2513,
      "Ġbelow": 2514,
      "Ġaccount": 2515,
      "Ġsoc": 2516,
      "13": 2517,
      "Ġkilled": 2518,
      "ĠMaybe": 2519,
      "atic": 2520,
      "ension": 2521,
      "orrow": 2522,
      "rop": 2523,
      "ĠEnglish": 2524,
      "aded": 2525,
      "Ġpushed": 2526,
      "Ġworth": 2527,
      "--": 2528,
      "Ġeight": 2529,
      "Ġdrink": 2530,
      "arrow": 2531,
      "itten": 2532,
      "Ġsum": 2533,
      "Ġclim": 2534,
      "Ġwhatever": 2535,
      "Ġstone": 2536,
      "Ġmonths": 2537,
      "Ġdim": 2538,
      "Ġpurp": 2539,
      "Ġweak": 2540,
      "velop": 2541,
      "itude": 2542,
      "Ġant": 2543,
      "Ġsad": 2544,
      "aching": 2545,
      "that": 2546,
      "Ġbeneath": 2547,
      "Ġglanced": 2548,
      "Ġgod": 2549,
      "Ġcarried": 2550,
      "Ġrub": 2551,
      "unch": 2552,
      "Ġspot": 2553,
      "hip": 2554,
      "Ġesp": 2555,
      "Ġage": 2556,
      "AN": 2557,
      "unk": 2558,
      "Ġexist": 2559,
      "14": 2560,
      "Ġhang": 2561,
      "Ġgas": 2562,
      "ĠNor": 2563,
      "ĠTHE": 2564,
      "apped": 2565,
      "Ġfail": 2566,
      "Ġbas": 2567,
      "Ġdirection": 2568,
      "rel": 2569,
      "Ġindeed": 2570,
      "overed": 2571,
      "Ġball": 2572,
      "ĠâĨĴ": 2573,
      "Ġletter": 2574,
      "lease": 2575,
      "Ġpost": 2576,
      "ai": 2577,
      "ev": 2578,
      "Ġcomfort": 2579,
      "Ġsupposed": 2580,
      "icient": 2581,
      "inct": 2582,
      "asion": 2583,
      "how": 2584,
      "Ġdropped": 2585,
      "Ġsimply": 2586,
      "Ġnature": 2587,
      "Ġafraid": 2588,
      "Ġnorm": 2589,
      "Ġloved": 2590,
      "Ġmoving": 2591,
      "Ġimmediately": 2592,
      "vern": 2593,
      "Ġprodu": 2594,
      "Ġlad": 2595,
      "Ġcover": 2596,
      "ett": 2597,
      "ĠSam": 2598,
      "Ġphys": 2599,
      "cha": 2600,
      "ops": 2601,
      "Ġsimple": 2602,
      "16": 2603,
      "Ġrealized": 2604,
      "Ġstreng": 2605,
      "Ġnice": 2606,
      "Ġguy": 2607,
      "cked": 2608,
      "Ġcouple": 2609,
      "Ġsteps": 2610,
      "ĠSha": 2611,
      "Ġvisit": 2612,
      "ishing": 2613,
      "ĠMe": 2614,
      "str": 2615,
      "Ġseat": 2616,
      "ËĨ": 2617,
      "Ġstro": 2618,
      "Ġprep": 2619,
      "Ġje": 2620,
      "ĠPl": 2621,
      "Ġgiving": 2622,
      "ending": 2623,
      "Ġsmell": 2624,
      "Ġshru": 2625,
      "Ġbuilding": 2626,
      "well": 2627,
      "Ġexpected": 2628,
      "Ġmut": 2629,
      "go": 2630,
      "Ġfamil": 2631,
      "Ġanal": 2632,
      "Ġdesp": 2633,
      "zy": 2634,
      "__": 2635,
      "Ġcompl": 2636,
      "bl": 2637,
      "Ġleaned": 2638,
      "Ġtong": 2639,
      "EN": 2640,
      "ci": 2641,
      "Ġhig": 2642,
      "000": 2643,
      "Then": 2644,
      "ences": 2645,
      "],": 2646,
      "Ġweight": 2647,
      "ES": 2648,
      "Ġdemand": 2649,
      "inary": 2650,
      "Ġsuccess": 2651,
      "ram": 2652,
      "Ġorigin": 2653,
      "Ġenergy": 2654,
      "teen": 2655,
      "Ġagre": 2656,
      "Ġtree": 2657,
      "aul": 2658,
      "Ġmiddle": 2659,
      "Ġdiscuss": 2660,
      "Ġplaced": 2661,
      "Ġmark": 2662,
      "enn": 2663,
      "iers": 2664,
      "ĠOh": 2665,
      "che": 2666,
      "Ġthoughts": 2667,
      "Ġparty": 2668,
      "reg": 2669,
      "Ġarg": 2670,
      "irst": 2671,
      "ipp": 2672,
      "iod": 2673,
      "ivers": 2674,
      "St": 2675,
      "ĠDan": 2676,
      "Ġjud": 2677,
      "Ġmil": 2678,
      "Ġworked": 2679,
      "Ġnote": 2680,
      "âĢ²": 2681,
      "erence": 2682,
      "Ġtot": 2683,
      "ples": 2684,
      "Ġtrouble": 2685,
      "Ġregard": 2686,
      "Ġvill": 2687,
      "Ġfut": 2688,
      "Ġglad": 2689,
      "Ġtears": 2690,
      "fer": 2691,
      "ĠWas": 2692,
      "Ġrad": 2693,
      "Ġlower": 2694,
      "ari": 2695,
      "wh": 2696,
      "rench": 2697,
      "Ġcovered": 2698,
      "Ġcloser": 2699,
      "ibly": 2700,
      "Ġlevel": 2701,
      "Ġident": 2702,
      "wise": 2703,
      "Ġï£": 2704,
      "Ġclothes": 2705,
      "Ġsky": 2706,
      "Ġguard": 2707,
      "Ġmere": 2708,
      "17": 2709,
      "uit": 2710,
      "Ġteeth": 2711,
      "oint": 2712,
      "Ġlie": 2713,
      "Ġenem": 2714,
      "Ġgro": 2715,
      "ĠPar": 2716,
      "Ġpock": 2717,
      "bert": 2718,
      "Ġ13": 2719,
      "reen": 2720,
      "Ġriver": 2721,
      "ables": 2722,
      "Ġwra": 2723,
      "Ġseeing": 2724,
      "wards": 2725,
      "Ġfort": 2726,
      "Ġpop": 2727,
      "ĠBar": 2728,
      "Ġwalls": 2729,
      "uct": 2730,
      "aled": 2731,
      "inite": 2732,
      "Ġrepe": 2733,
      "ĠNe": 2734,
      "Ġtherefore": 2735,
      "sequ": 2736,
      "Ġbroken": 2737,
      "con": 2738,
      "ait": 2739,
      "Ġ14": 2740,
      "ĠLuc": 2741,
      "ushing": 2742,
      "athe": 2743,
      ",âĢĶ": 2744,
      "Ġfinger": 2745,
      "Ġspread": 2746,
      "Ġcock": 2747,
      "Ġlog": 2748,
      "ĠCol": 2749,
      "ĠPh": 2750,
      "ager": 2751,
      "Ġspirit": 2752,
      "Ã¤": 2753,
      "Ġpray": 2754,
      "angu": 2755,
      "ĠÎ»": 2756,
      "Ġcompletely": 2757,
      "Ġsuppose": 2758,
      "Ġwound": 2759,
      "Ġempty": 2760,
      "ills": 2761,
      "Ġton": 2762,
      "Ġbra": 2763,
      "bered": 2764,
      "Ġbaby": 2765,
      "Ġtend": 2766,
      "Ġvalue": 2767,
      "Ġresults": 2768,
      "AT": 2769,
      "hood": 2770,
      "Ġtoday": 2771,
      "lt": 2772,
      "Ġclean": 2773,
      "ĠGerm": 2774,
      "urs": 2775,
      "Yeah": 2776,
      "ighb": 2777,
      "Ġmult": 2778,
      "Ġauthor": 2779,
      "Ġparents": 2780,
      "Ġsimilar": 2781,
      "Ġsoul": 2782,
      "Ġintro": 2783,
      "Ġreach": 2784,
      "lu": 2785,
      "ium": 2786,
      "more": 2787,
      "Are": 2788,
      "Ġdom": 2789,
      "Ġnone": 2790,
      "ology": 2791,
      "Ġbelong": 2792,
      "Ġpicked": 2793,
      "ording": 2794,
      "Ġris": 2795,
      "cle": 2796,
      "ĠWell": 2797,
      "Ġring": 2798,
      "Ġnarrow": 2799,
      "Ġminute": 2800,
      "Ġpointed": 2801,
      "Ġhappen": 2802,
      "Ġlived": 2803,
      "ĠAlex": 2804,
      "Ġnecessary": 2805,
      "ration": 2806,
      "Ġdifficult": 2807,
      "ocked": 2808,
      "Ġrev": 2809,
      "ploy": 2810,
      "Ġokay": 2811,
      "Ġgen": 2812,
      "ĠAg": 2813,
      "Ġones": 2814,
      "Ġcompany": 2815,
      "ĠMor": 2816,
      "zen": 2817,
      "Ġbird": 2818,
      "Ġsize": 2819,
      "right": 2820,
      "Ġmad": 2821,
      "Ġchanged": 2822,
      "Ġ&": 2823,
      "ĠHere": 2824,
      "Ġpen": 2825,
      "sy": 2826,
      "Ġalthough": 2827,
      "ential": 2828,
      "Ġdisp": 2829,
      "Ġstrength": 2830,
      "Ġfoc": 2831,
      "Ġsurface": 2832,
      "Ġpeace": 2833,
      "ĠPe": 2834,
      "ror": 2835,
      "oid": 2836,
      "ĠMan": 2837,
      "orge": 2838,
      "Ġcommun": 2839,
      "Ġpiece": 2840,
      "Ġcost": 2841,
      "istic": 2842,
      "Ġlifted": 2843,
      "Ġnatural": 2844,
      "Ġobv": 2845,
      "Ġcertainly": 2846,
      "Ġloud": 2847,
      "Ġstom": 2848,
      "ĠFl": 2849,
      "ission": 2850,
      "Ġwaited": 2851,
      "Ġpleasure": 2852,
      "Ġ<": 2853,
      "orts": 2854,
      "Ġturning": 2855,
      "what": 2856,
      "Ëľ": 2857,
      "Ġtongue": 2858,
      "Ġcoff": 2859,
      "Ġemb": 2860,
      "Ġmanner": 2861,
      "ĠTom": 2862,
      "Ġpos": 2863,
      "Ġcamp": 2864,
      "inn": 2865,
      "ĠCap": 2866,
      "Ġnoticed": 2867,
      "Ġneighb": 2868,
      "Ġdeg": 2869,
      "ighed": 2870,
      "Ġdinner": 2871,
      "aff": 2872,
      "Ġplease": 2873,
      "Ġdevelop": 2874,
      "oming": 2875,
      "Ġye": 2876,
      "Ġgame": 2877,
      "respond": 2878,
      "Ġspent": 2879,
      "Ġstruct": 2880,
      "Ġperiod": 2881,
      "ole": 2882,
      "ech": 2883,
      ".)": 2884,
      "!'": 2885,
      "Ġcontr": 2886,
      "oring": 2887,
      "Ġod": 2888,
      "Ġstuff": 2889,
      "ĠMad": 2890,
      "rom": 2891,
      "uly": 2892,
      "ĠÂł": 2893,
      "Ġmaster": 2894,
      "Ġeasily": 2895,
      "ondon": 2896,
      "Ġcab": 2897,
      "))": 2898,
      "Ġespecially": 2899,
      "Ġexcl": 2900,
      "Ġstret": 2901,
      "Mr": 2902,
      "riage": 2903,
      "Ġsword": 2904,
      "Ġtakes": 2905,
      "la": 2906,
      "ĠðĿĳ": 2907,
      "Ġcomb": 2908,
      "Ġconversation": 2909,
      "ivid": 2910,
      "umped": 2911,
      "Ġthrow": 2912,
      "Ġinn": 2913,
      "lying": 2914,
      "mber": 2915,
      "duced": 2916,
      "illy": 2917,
      "Ġinvest": 2918,
      "sidered": 2919,
      "Ġboys": 2920,
      "olution": 2921,
      "ĠSomet": 2922,
      "Ġsick": 2923,
      "ĠÂµ": 2924,
      "Ġsepar": 2925,
      "Ġcondition": 2926,
      "Ġarrived": 2927,
      "Ġbottom": 2928,
      "Ġthird": 2929,
      "Than": 2930,
      "Ġur": 2931,
      "Ġconsidered": 2932,
      "Ġbeha": 2933,
      "lect": 2934,
      "Ġdesign": 2935,
      "Ġdrew": 2936,
      "Ġtall": 2937,
      "Ġgard": 2938,
      "Ġfuture": 2939,
      "Ġmiles": 2940,
      "Ġtone": 2941,
      "Ġheat": 2942,
      "Ġprison": 2943,
      "uke": 2944,
      "cul": 2945,
      "Ġfinished": 2946,
      "ament": 2947,
      "Ġnose": 2948,
      "Ġcause": 2949,
      "Ġshowed": 2950,
      "ĠLady": 2951,
      "Ġpun": 2952,
      "Ġquestions": 2953,
      "Ġneg": 2954,
      "ument": 2955,
      "Ġelect": 2956,
      "Ġforth": 2957,
      "Ġvari": 2958,
      "Ġshown": 2959,
      "now": 2960,
      "Ġfle": 2961,
      "Let": 2962,
      "Ġearl": 2963,
      "Ġspecial": 2964,
      "ught": 2965,
      "Ġmusic": 2966,
      "ĠJe": 2967,
      "lin": 2968,
      "Ġscar": 2969,
      "Ġreve": 2970,
      "Ġentered": 2971,
      "Ġsilent": 2972,
      "ker": 2973,
      "Ġassum": 2974,
      "ustom": 2975,
      "Ġhaven": 2976,
      "Ġble": 2977,
      "ĠCan": 2978,
      "Ġdrive": 2979,
      "Ġpan": 2980,
      "Ġstudy": 2981,
      "Ġinvol": 2982,
      "Ġwondered": 2983,
      "Ñĥ": 2984,
      "Now": 2985,
      "ĠFrench": 2986,
      "Ġtelling": 2987,
      "Ġfresh": 2988,
      "Ġindic": 2989,
      "Ġknowledge": 2990,
      "Ġnews": 2991,
      "aling": 2992,
      "Ġfucking": 2993,
      "Ġclaim": 2994,
      "Ġpred": 2995,
      "Ġstomach": 2996,
      "Ġremained": 2997,
      "Ġwalking": 2998,
      "Ġdesk": 2999,
      "Ġslightly": 3000,
      "line": 3001,
      "Ġfuck": 3002,
      "Ġsharp": 3003,
      "Ġpurpose": 3004,
      "Ġexample": 3005,
      "icking": 3006,
      "ĠLondon": 3007,
      "Ġinclud": 3008,
      "ii": 3009,
      "Ġoccasion": 3010,
      "Ġsurprised": 3011,
      "Ġlaid": 3012,
      "Ġ>": 3013,
      "Ġweeks": 3014,
      "Ġremind": 3015,
      "come": 3016,
      "Ġpair": 3017,
      "Ġlines": 3018,
      "When": 3019,
      "cent": 3020,
      "Ġcomput": 3021,
      "ades": 3022,
      "Ġpor": 3023,
      "inking": 3024,
      "ĠGu": 3025,
      "Ġpi": 3026,
      "ooking": 3027,
      "ĠÏĥ": 3028,
      "âĢ¦\"": 3029,
      "Ġpressed": 3030,
      "Ġthreat": 3031,
      "Ġsurprise": 3032,
      "Ġrepresent": 3033,
      "Ġforget": 3034,
      "olute": 3035,
      "lly": 3036,
      "ĠSim": 3037,
      "Ġbroke": 3038,
      "Ġchurch": 3039,
      "Î»": 3040,
      "Ġattempt": 3041,
      "Ġreceived": 3042,
      "Ġworry": 3043,
      "Ġpick": 3044,
      "Ġstrugg": 3045,
      "ux": 3046,
      "Ġrelations": 3047,
      "ĠSch": 3048,
      "Ġsand": 3049,
      "Ġaut": 3050,
      "sit": 3051,
      "Ġdry": 3052,
      "Ġrese": 3053,
      "Ġmagic": 3054,
      "ĠMore": 3055,
      "noon": 3056,
      "Ġgrew": 3057,
      "Ġcalm": 3058,
      "Ġcorrespond": 3059,
      "Ġmot": 3060,
      "As": 3061,
      "cious": 3062,
      "wor": 3063,
      "Ġviol": 3064,
      "Ġsave": 3065,
      "Ġjour": 3066,
      "Ġpolice": 3067,
      "Ġquar": 3068,
      "ship": 3069,
      "Ġtow": 3070,
      "Ġlangu": 3071,
      "Ġterr": 3072,
      "Ġrap": 3073,
      "Ġbeginning": 3074,
      "Ġallowed": 3075,
      "Ġfirm": 3076,
      "iction": 3077,
      "Ġbooks": 3078,
      "Ġnet": 3079,
      "Ġphot": 3080,
      "ora": 3081,
      "Ġlearned": 3082,
      "Ġknowing": 3083,
      "rap": 3084,
      "Ġknees": 3085,
      "Ġquant": 3086,
      "raph": 3087,
      "Ġband": 3088,
      "ĠSte": 3089,
      "Ġgrabbed": 3090,
      "Ġstaring": 3091,
      "ĠLa": 3092,
      "pter": 3093,
      "dom": 3094,
      "sing": 3095,
      "Ġlearn": 3096,
      "Ġwit": 3097,
      "ival": 3098,
      "Ġlikely": 3099,
      "ĠInst": 3100,
      "Ġrid": 3101,
      "hard": 3102,
      "Ġcrowd": 3103,
      "ancy": 3104,
      "rest": 3105,
      "Ġmemory": 3106,
      "Ġworse": 3107,
      "jor": 3108,
      "Ġgoes": 3109,
      "Ġthy": 3110,
      "Ġfrown": 3111,
      "roll": 3112,
      "por": 3113,
      "Ġfro": 3114,
      "ĠMary": 3115,
      "Ġdut": 3116,
      "ander": 3117,
      "Ġkid": 3118,
      "Ġparts": 3119,
      "roy": 3120,
      "oured": 3121,
      "Ġremembered": 3122,
      "ĠHen": 3123,
      "ify": 3124,
      "ils": 3125,
      "set": 3126,
      "oved": 3127,
      "Ġpicture": 3128,
      "ĠDid": 3129,
      "Ġwants": 3130,
      "ÏĦ": 3131,
      "Ġarr": 3132,
      "Ġsurround": 3133,
      "Ġbow": 3134,
      "night": 3135,
      "Ġdarkness": 3136,
      "ept": 3137,
      "Ġmill": 3138,
      "Ġaction": 3139,
      "Ġemploy": 3140,
      "ĠMic": 3141,
      "Ġahead": 3142,
      "ibility": 3143,
      "Ġbrief": 3144,
      "ĠAng": 3145,
      "orem": 3146,
      "Ġhom": 3147,
      "Ġusual": 3148,
      "rage": 3149,
      "Ġimposs": 3150,
      "Ġhesit": 3151,
      "Ġnotice": 3152,
      "cend": 3153,
      "Ġevent": 3154,
      "Ġmotion": 3155,
      "Ġrain": 3156,
      "Ġpresence": 3157,
      "ĠHowever": 3158,
      "Ġimm": 3159,
      "off": 3160,
      "Ġpound": 3161,
      "Ġbreast": 3162,
      "Ġcheck": 3163,
      "Ġtonight": 3164,
      "Ġmap": 3165,
      "Ġwritten": 3166,
      "Ġcrack": 3167,
      "ĠDav": 3168,
      "ĠEngland": 3169,
      "Ġlives": 3170,
      "chan": 3171,
      "Ġbrown": 3172,
      "Ġgovern": 3173,
      "Ġdue": 3174,
      "Ġge": 3175,
      "Did": 3176,
      "Ġanc": 3177,
      "Ġafternoon": 3178,
      "Ġmeeting": 3179,
      "ĠEr": 3180,
      "Ġalive": 3181,
      "23": 3182,
      "Ġprotect": 3183,
      "oci": 3184,
      "cho": 3185,
      "Ġfool": 3186,
      "Ġliked": 3187,
      "Ġwet": 3188,
      "Ġsuit": 3189,
      "25": 3190,
      "Ġnormal": 3191,
      "asing": 3192,
      "Ġmach": 3193,
      "Ġchoice": 3194,
      "Ġcam": 3195,
      "Ġlying": 3196,
      "isc": 3197,
      "Ġsighed": 3198,
      "Ġsituation": 3199,
      "ique": 3200,
      "Ġcoffee": 3201,
      "ĠCal": 3202,
      "esh": 3203,
      "Ġplaces": 3204,
      "echn": 3205,
      "Ġopt": 3206,
      "Good": 3207,
      "ris": 3208,
      "ĠÏĦ": 3209,
      "ĠÎ´": 3210,
      "Ġbear": 3211,
      "Ġrecord": 3212,
      "ĠMag": 3213,
      "Ġconcl": 3214,
      "Ġneither": 3215,
      "ĠBen": 3216,
      "Ġmagn": 3217,
      "Where": 3218,
      "uf": 3219,
      "asant": 3220,
      "ĠÎ²": 3221,
      "ĠOur": 3222,
      "bers": 3223,
      "Ġexperience": 3224,
      "izing": 3225,
      "All": 3226,
      "ĠWhere": 3227,
      "Ġspl": 3228,
      "ĠâĪĤ": 3229,
      "Ġhistory": 3230,
      "Ġcorre": 3231,
      "Ġfit": 3232,
      "Ġpocket": 3233,
      "acher": 3234,
      "cell": 3235,
      "ĠÃĹ": 3236,
      "you": 3237,
      "Ġbattle": 3238,
      "using": 3239,
      "AL": 3240,
      "Ġcop": 3241,
      "oned": 3242,
      "morrow": 3243,
      "Ġbath": 3244,
      "Ġgives": 3245,
      "Ġcloud": 3246,
      "Ġvict": 3247,
      "oose": 3248,
      "ortun": 3249,
      "Ġsnow": 3250,
      "Ġluck": 3251,
      "Ġusually": 3252,
      "ites": 3253,
      "Ġbeat": 3254,
      "Ġarea": 3255,
      "ĠWho": 3256,
      "ode": 3257,
      "Ġacqu": 3258,
      "Ġcourt": 3259,
      "ĠYour": 3260,
      "Who": 3261,
      "Ġshirt": 3262,
      "Ġvarious": 3263,
      "imate": 3264,
      "oted": 3265,
      "Ġparam": 3266,
      "Ġlocal": 3267,
      "Ġwearing": 3268,
      "Ġtouched": 3269,
      "ests": 3270,
      "Ġrolled": 3271,
      "Ġcapt": 3272,
      "Ġtast": 3273,
      "Ġdecl": 3274,
      "osing": 3275,
      "Ġtemper": 3276,
      "cher": 3277,
      "no": 3278,
      "essed": 3279,
      "gor": 3280,
      "Ġsour": 3281,
      "uous": 3282,
      "Ġclearly": 3283,
      "Ġhardly": 3284,
      "ĠFin": 3285,
      "Ġru": 3286,
      "Ġbarely": 3287,
      "Ġboat": 3288,
      "ĠLike": 3289,
      "gu": 3290,
      "Ġsilver": 3291,
      "Ġpale": 3292,
      "Ġfrequ": 3293,
      "Ïĥ": 3294,
      "Ġthrew": 3295,
      "Ġfollows": 3296,
      "Î½": 3297,
      "ading": 3298,
      "Ġears": 3299,
      "Ġforced": 3300,
      "Ġcarefully": 3301,
      "Ġbal": 3302,
      "Ġquietly": 3303,
      "rie": 3304,
      "Ġsac": 3305,
      "Ġhuge": 3306,
      "Ġcompan": 3307,
      "Ġcheek": 3308,
      "Ġterms": 3309,
      "idden": 3310,
      "Ġcatch": 3311,
      "upid": 3312,
      "ores": 3313,
      "Ġcool": 3314,
      "Ġmerc": 3315,
      "umbled": 3316,
      "ruction": 3317,
      "Ġserious": 3318,
      "Ġpoints": 3319,
      "Ġmarried": 3320,
      "Ġhast": 3321,
      "ĠJames": 3322,
      "Ġservice": 3323,
      "Ġoffered": 3324,
      "Ġsupport": 3325,
      "Ġbroad": 3326,
      "ĠÏĢ": 3327,
      "ators": 3328,
      "Ġtrack": 3329,
      "ucked": 3330,
      "reme": 3331,
      "ĠJul": 3332,
      "arily": 3333,
      "Ġspo": 3334,
      "ĠÎ³": 3335,
      "ancing": 3336,
      "Ġoccur": 3337,
      "kn": 3338,
      "ĠBrit": 3339,
      "Ġfixed": 3340,
      "Ġspeed": 3341,
      "Ġanyway": 3342,
      "Ðº": 3343,
      "Ġstairs": 3344,
      "arm": 3345,
      "ena": 3346,
      "ĠCor": 3347,
      "ays": 3348,
      "Ġextra": 3349,
      "Ġdesire": 3350,
      "Ġrich": 3351,
      "Ġremain": 3352,
      "Ġfavor": 3353,
      "Ġhun": 3354,
      "atures": 3355,
      "Ġkey": 3356,
      "Ġwrite": 3357,
      "Ġweap": 3358,
      "24": 3359,
      "Ġcru": 3360,
      "olf": 3361,
      "usted": 3362,
      "tering": 3363,
      "Ġaccept": 3364,
      "nal": 3365,
      "Ġfaith": 3366,
      "nel": 3367,
      "ĠComm": 3368,
      "erial": 3369,
      "Ġhigher": 3370,
      "amb": 3371,
      "pes": 3372,
      "ama": 3373,
      "Ġimpossible": 3374,
      "Ġmeasure": 3375,
      "Ġfem": 3376,
      "Ġcup": 3377,
      "ias": 3378,
      "Ġstream": 3379,
      "oman": 3380,
      "Ġdoors": 3381,
      "Î¸": 3382,
      "Ġbod": 3383,
      "Ġerr": 3384,
      "het": 3385,
      "Ġmoon": 3386,
      "ams": 3387,
      "ĠTwo": 3388,
      "Ġid": 3389,
      "ĠSince": 3390,
      "ĠWhile": 3391,
      "ero": 3392,
      "Ġconcer": 3393,
      "ĠEll": 3394,
      "For": 3395,
      "orses": 3396,
      "Ġfamiliar": 3397,
      "ÏĢ": 3398,
      "astic": 3399,
      "aning": 3400,
      "IS": 3401,
      "Ġflat": 3402,
      "Ġdoctor": 3403,
      "lie": 3404,
      "ĠYork": 3405,
      "ĠGl": 3406,
      "Ġdepend": 3407,
      "Ñı": 3408,
      "Ġbrain": 3409,
      "Ġshif": 3410,
      "Ġanx": 3411,
      "Ġangry": 3412,
      "Ġtype": 3413,
      "Ġdelight": 3414,
      "Ġthee": 3415,
      "acted": 3416,
      "ribut": 3417,
      "ribution": 3418,
      "âĪĹ": 3419,
      "Ġestab": 3420,
      "vent": 3421,
      "Ġapparent": 3422,
      "Ġcurrent": 3423,
      "Ġaware": 3424,
      "ĠTheir": 3425,
      "Of": 3426,
      "Ġstation": 3427,
      "Ġwave": 3428,
      "Ġnoise": 3429,
      "Ġways": 3430,
      "Ġescape": 3431,
      "ĠJes": 3432,
      "iel": 3433,
      "itary": 3434,
      "Ġorgan": 3435,
      "Ġcircum": 3436,
      "Ġgently": 3437,
      "Ġgar": 3438,
      "Ġloss": 3439,
      "Ġindivid": 3440,
      "Ġswall": 3441,
      "ĠOnce": 3442,
      "irth": 3443,
      "era": 3444,
      "ado": 3445,
      "ĠWilliam": 3446,
      "itical": 3447,
      "va": 3448,
      "Ġkissed": 3449,
      "Ġglance": 3450,
      "Ġdeser": 3451,
      "ours": 3452,
      "Ġpaused": 3453,
      "Ġallow": 3454,
      "Ġ25": 3455,
      "ĠEar": 3456,
      "Ġchief": 3457,
      "uro": 3458,
      "Ġshrugged": 3459,
      "ĠDad": 3460,
      "22": 3461,
      "Ġodd": 3462,
      "ĠAmerican": 3463,
      "AP": 3464,
      "Ġspect": 3465,
      "Ġblank": 3466,
      "ford": 3467,
      "Ġinflu": 3468,
      "Ġtiny": 3469,
      "Ġoffer": 3470,
      "Ġworks": 3471,
      "Ġcand": 3472,
      "Ġapproach": 3473,
      "Ġoccup": 3474,
      "Ġsomewhere": 3475,
      "ok": 3476,
      "pri": 3477,
      "Ġkeeping": 3478,
      "Ġtired": 3479,
      "Ġcolor": 3480,
      "Ġcases": 3481,
      "Ġfat": 3482,
      "Ġforest": 3483,
      "elle": 3484,
      "fl": 3485,
      "Ġearlier": 3486,
      "Ġfold": 3487,
      "Ġplain": 3488,
      "Ġmanaged": 3489,
      "Ġmurm": 3490,
      "ĠFigure": 3491,
      "Ġweren": 3492,
      "Ġhide": 3493,
      "Ġsummer": 3494,
      "ety": 3495,
      "ivity": 3496,
      "ners": 3497,
      "Ġrul": 3498,
      "com": 3499,
      "Ġleaves": 3500,
      "ĠSm": 3501,
      "Just": 3502,
      "Ġimpro": 3503,
      "Ġenemy": 3504,
      "gging": 3505,
      "Ġbuilt": 3506,
      "Ġcomplex": 3507,
      "TER": 3508,
      "Ġmaterial": 3509,
      "ĠPaul": 3510,
      "ĠSu": 3511,
      "olly": 3512,
      "rif": 3513,
      "af": 3514,
      "Ġneeds": 3515,
      "Ġboard": 3516,
      "osite": 3517,
      "Ġperm": 3518,
      "Ġnorth": 3519,
      "gen": 3520,
      "Ġformer": 3521,
      "Ġthirty": 3522,
      "epend": 3523,
      "Ã¦": 3524,
      "Ġthank": 3525,
      "ĠWal": 3526,
      "Ġwindows": 3527,
      "ĠOF": 3528,
      "Ġwid": 3529,
      "icks": 3530,
      "Â¯": 3531,
      "ĠThus": 3532,
      "Ġseven": 3533,
      "Ġsin": 3534,
      "Ġimagine": 3535,
      "Ġvers": 3536,
      "Ġfellow": 3537,
      "Ġagreed": 3538,
      "Ġjoy": 3539,
      "Ġcrossed": 3540,
      "May": 3541,
      "hael": 3542,
      "Ġobl": 3543,
      "Ġrate": 3544,
      "ĠâĢ¢": 3545,
      "Ġentirely": 3546,
      "Ġwine": 3547,
      "zed": 3548,
      "ĠThom": 3549,
      "Ġpromise": 3550,
      "otten": 3551,
      "Ġexplain": 3552,
      "Come": 3553,
      "ĠYes": 3554,
      "mbers": 3555,
      "ses": 3556,
      "ĠMc": 3557,
      "Ġrob": 3558,
      "yle": 3559,
      "Ġdesper": 3560,
      "Ġsounded": 3561,
      "Ġcharge": 3562,
      "Ġsounds": 3563,
      "asp": 3564,
      "ĠÎ¸": 3565,
      "Ġintell": 3566,
      "Ġappre": 3567,
      "Ġscene": 3568,
      "mon": 3569,
      "itation": 3570,
      "Ġhorses": 3571,
      "Ġentr": 3572,
      "ification": 3573,
      "Ġsmooth": 3574,
      "Ġevidence": 3575,
      "Ġsurv": 3576,
      "ouses": 3577,
      "ĠEn": 3578,
      "Ġtrain": 3579,
      "ocks": 3580,
      "Ġpersonal": 3581,
      "Ġobserved": 3582,
      "Ġgest": 3583,
      "Ã¶": 3584,
      "Ġimpl": 3585,
      "Ġshit": 3586,
      "IC": 3587,
      "Ġanger": 3588,
      "house": 3589,
      "Ġindividual": 3590,
      "Ġarmy": 3591,
      "Ġstruck": 3592,
      "Ġhers": 3593,
      "aches": 3594,
      "Ġproof": 3595,
      "rid": 3596,
      "ĠCaptain": 3597,
      "Ġsumm": 3598,
      "Ġfil": 3599,
      "bled": 3600,
      "Ġprivate": 3601,
      "Ġemer": 3602,
      "Your": 3603,
      "igg": 3604,
      "Ġexplained": 3605,
      "Ġdirectly": 3606,
      "Ġplaying": 3607,
      "Ġshows": 3608,
      "Ġunderstood": 3609,
      "Ġsoftly": 3610,
      "put": 3611,
      "atch": 3612,
      "Ġopin": 3613,
      "Ġabsolute": 3614,
      "ĠCo": 3615,
      "ective": 3616,
      "apt": 3617,
      "reet": 3618,
      "Ġisland": 3619,
      "Ġregular": 3620,
      "Ġnerv": 3621,
      "Ġpaid": 3622,
      "Ġdressed": 3623,
      "Ġwore": 3624,
      "Ġiss": 3625,
      "Ġamount": 3626,
      "ada": 3627,
      "Ġbull": 3628,
      "Ġproceed": 3629,
      "Ġâī¥": 3630,
      "Ġrough": 3631,
      "Ġgrass": 3632,
      "Ġspeaking": 3633,
      "Ġlose": 3634,
      "Ġought": 3635,
      "gar": 3636,
      "Ġdelic": 3637,
      "eces": 3638,
      "Ġstorm": 3639,
      "Ġemp": 3640,
      "rian": 3641,
      "riend": 3642,
      "gress": 3643,
      "Ġstupid": 3644,
      "rupt": 3645,
      "ĠPeter": 3646,
      "Ġinit": 3647,
      "Ġice": 3648,
      "Ġslid": 3649,
      "icle": 3650,
      "Ġast": 3651,
      "Ġunf": 3652,
      "Ġgarden": 3653,
      "leep": 3654,
      "Ġreading": 3655,
      "Ġtechn": 3656,
      "Ġuns": 3657,
      "Ġburst": 3658,
      "Ġdifference": 3659,
      "Ġprove": 3660,
      "Ġlanguage": 3661,
      "ĠDes": 3662,
      "Ġpu": 3663,
      "Ġaddition": 3664,
      "etic": 3665,
      "Ġflo": 3666,
      "Ġhost": 3667,
      "ĠPerhaps": 3668,
      "ĠFrank": 3669,
      "Ġsides": 3670,
      "Ġbedroom": 3671,
      "Ġfinal": 3672,
      "Ġrepeated": 3673,
      "Ġgreater": 3674,
      "hold": 3675,
      "Ġdemon": 3676,
      "Ġban": 3677,
      "eneral": 3678,
      "Ġaside": 3679,
      "Ġfully": 3680,
      "aped": 3681,
      "Ġcounter": 3682,
      "ĠOnly": 3683,
      "Ġrelig": 3684,
      "Ġinsp": 3685,
      "ĠHenry": 3686,
      "ica": 3687,
      "Ġvillage": 3688,
      "Ġasking": 3689,
      "asc": 3690,
      "port": 3691,
      "ĠBefore": 3692,
      "Ġwrote": 3693,
      "Ġadj": 3694,
      "ios": 3695,
      "ĠÏģ": 3696,
      "ille": 3697,
      "Ġbelieved": 3698,
      "Ġpure": 3699,
      "Ġdu": 3700,
      "Ġdetermined": 3701,
      "ĠAN": 3702,
      "Ġrele": 3703,
      "Ġ11": 3704,
      "lished": 3705,
      "Ġsigh": 3706,
      "Ġcheeks": 3707,
      "Ġpulling": 3708,
      "anted": 3709,
      "Âµ": 3710,
      "Ġslipped": 3711,
      "Ġhonest": 3712,
      "een": 3713,
      "Ġshape": 3714,
      "ague": 3715,
      "outed": 3716,
      "inal": 3717,
      "Ġaver": 3718,
      "eless": 3719,
      "Ġwel": 3720,
      "do": 3721,
      "rated": 3722,
      "Ġlock": 3723,
      "Ġgray": 3724,
      "oph": 3725,
      "li": 3726,
      "Ġopposite": 3727,
      "chie": 3728,
      "Ġframe": 3729,
      "Ġopportun": 3730,
      "Ġdrag": 3731,
      "hem": 3732,
      "30": 3733,
      "Ġcontact": 3734,
      "Ġflesh": 3735,
      "Ġprincip": 3736,
      "Ġii": 3737,
      "with": 3738,
      "Ġsquee": 3739,
      "Ġsection": 3740,
      "Ġassoci": 3741,
      "Ġvo": 3742,
      "ĠPhil": 3743,
      "Ġyellow": 3744,
      "AS": 3745,
      "ĠAny": 3746,
      "enced": 3747,
      "ĠMart": 3748,
      "Ġconstant": 3749,
      "ese": 3750,
      "iform": 3751,
      "?\"\"": 3752,
      "Ġtalked": 3753,
      "Ġtele": 3754,
      "Ġdad": 3755,
      "Ġimage": 3756,
      "Ġborn": 3757,
      "Ġordered": 3758,
      "Ġsouth": 3759,
      "see": 3760,
      "Ġlatter": 3761,
      "Ġiron": 3762,
      "Ġguys": 3763,
      "Ġgate": 3764,
      "Ġsuc": 3765,
      "Ġexha": 3766,
      "Ġdestroy": 3767,
      "Ġsearch": 3768,
      "Ġopening": 3769,
      "Ġtheory": 3770,
      "Ġgets": 3771,
      "oses": 3772,
      "Ġhate": 3773,
      "ĠBecause": 3774,
      "Ġaccording": 3775,
      "Ġolder": 3776,
      "Ġsufficient": 3777,
      "âĪŀ": 3778,
      "ĠYet": 3779,
      "Ġlord": 3780,
      "ĠCr": 3781,
      "Ġeffort": 3782,
      "21": 3783,
      "Ġhealth": 3784,
      "Ġheaven": 3785,
      "Ïģ": 3786,
      "uses": 3787,
      "Ġanimal": 3788,
      "Ġliter": 3789,
      "Ġwis": 3790,
      "Ġrespons": 3791,
      "Ġstructure": 3792,
      "rey": 3793,
      "Ġterrible": 3794,
      "Ġsettled": 3795,
      "ĠGeorge": 3796,
      "ette": 3797,
      "rs": 3798,
      "Ġbase": 3799,
      "ĠHad": 3800,
      "ounced": 3801,
      "Ġsong": 3802,
      "ĠMark": 3803,
      "ĠMon": 3804,
      "Ġknife": 3805,
      "Ġtea": 3806,
      "ruct": 3807,
      "Ñĭ": 3808,
      "emma": 3809,
      "Ġshare": 3810,
      "Ġtar": 3811,
      "Ġdrop": 3812,
      "Ġsmiling": 3813,
      "Ġdiscovered": 3814,
      "Ġspr": 3815,
      "Ġalt": 3816,
      "Ġhoped": 3817,
      "Ħĵ": 3818,
      "umn": 3819,
      "Ġwished": 3820,
      "aret": 3821,
      "Ġdust": 3822,
      "Ġ24": 3823,
      "Ġbeauty": 3824,
      "Ġ30": 3825,
      "Ġperfectly": 3826,
      "stairs": 3827,
      "urity": 3828,
      "Ġblind": 3829,
      "oe": 3830,
      "Î²": 3831,
      "IT": 3832,
      "omb": 3833,
      "Ġcircumst": 3834,
      "Ġcenter": 3835,
      "Ġgrowing": 3836,
      "Ġlas": 3837,
      "Ġ200": 3838,
      "rows": 3839,
      "sha": 3840,
      "ĠQue": 3841,
      "ensity": 3842,
      "Ġcustom": 3843,
      "Ġaren": 3844,
      "alled": 3845,
      "Ġwrapped": 3846,
      "Ġmetal": 3847,
      "Ġinj": 3848,
      "ÑĮ": 3849,
      "ĠSee": 3850,
      "kin": 3851,
      "Ġtrave": 3852,
      "Ġbirth": 3853,
      "erry": 3854,
      "ĠRic": 3855,
      "Ġtext": 3856,
      "ĠTe": 3857,
      "aimed": 3858,
      "Ġdoll": 3859,
      "Ġhelped": 3860,
      "yal": 3861,
      "lement": 3862,
      "Ġsolution": 3863,
      "Ġhosp": 3864,
      "Ġwear": 3865,
      "roud": 3866,
      "Ġconsequ": 3867,
      "ĠâĪĨ": 3868,
      "Ġfright": 3869,
      "Ġbank": 3870,
      "Ġobserv": 3871,
      "Ġinteresting": 3872,
      "Ġbuy": 3873,
      "min": 3874,
      "Ġlarger": 3875,
      "Ġletters": 3876,
      "fast": 3877,
      "Ġconce": 3878,
      "ĠComp": 3879,
      "ĠApp": 3880,
      "Ġsam": 3881,
      "ensive": 3882,
      "Ġspring": 3883,
      "Îµ": 3884,
      "Ġinvestig": 3885,
      "âĪĪ": 3886,
      "Okay": 3887,
      "Ġpowerful": 3888,
      "iving": 3889,
      "Ġdig": 3890,
      "Ġmoments": 3891,
      "Ġheads": 3892,
      "Ġturns": 3893,
      "gorith": 3894,
      "Ġgrad": 3895,
      "oly": 3896,
      "Ġbodies": 3897,
      "Ġadvant": 3898,
      "Ġrapid": 3899,
      "Ġfaint": 3900,
      "Ġappearance": 3901,
      "Ġdrawn": 3902,
      "Ġtaste": 3903,
      "Ġ...": 3904,
      "Ġmax": 3905,
      "under": 3906,
      "Ġlights": 3907,
      "ĠðĿ": 3908,
      "Ġdescribed": 3909,
      "udd": 3910,
      "hand": 3911,
      "Ġmentioned": 3912,
      "Ġfaces": 3913,
      "Ġtro": 3914,
      "Ġcu": 3915,
      "oles": 3916,
      "Ġshoot": 3917,
      "ashion": 3918,
      "Can": 3919,
      "Ġment": 3920,
      "ste": 3921,
      "Ġdispl": 3922,
      "Ġlisten": 3923,
      "Ġsoldiers": 3924,
      "ÐµÐ": 3925,
      "Ġancient": 3926,
      "Ġappl": 3927,
      "Ġobtained": 3928,
      "Ġmovement": 3929,
      "Ġlip": 3930,
      "Ġrespond": 3931,
      "Ġconditions": 3932,
      "Ġexpress": 3933,
      "ĠDavid": 3934,
      "ĠStill": 3935,
      "Ã¨": 3936,
      "Ġpet": 3937,
      "Ġnames": 3938,
      "Ġsear": 3939,
      "Ġlit": 3940,
      "ivil": 3941,
      "lected": 3942,
      "Ġsie": 3943,
      "vere": 3944,
      "Ġseconds": 3945,
      "itor": 3946,
      "Ġproperty": 3947,
      "uce": 3948,
      "ĠTheorem": 3949,
      "athered": 3950,
      "Ġfal": 3951,
      "inting": 3952,
      "iven": 3953,
      "Ġdangerous": 3954,
      "Ġwaist": 3955,
      "Ġmessage": 3956,
      "verse": 3957,
      "Ġrisk": 3958,
      "Ġworried": 3959,
      "ĠFirst": 3960,
      "ĠSec": 3961,
      "Ġcho": 3962,
      "Ġmi": 3963,
      "Ġsquare": 3964,
      "Ġshadow": 3965,
      "she": 3966,
      "ula": 3967,
      "ground": 3968,
      "vey": 3969,
      "Ġproject": 3970,
      "hant": 3971,
      "Ġpieces": 3972,
      "Ġsomehow": 3973,
      "onse": 3974,
      "ING": 3975,
      "ural": 3976,
      "Ïī": 3977,
      "Ġmeas": 3978,
      "LE": 3979,
      "Ġevil": 3980,
      "Ġchin": 3981,
      "Ġprepared": 3982,
      "Ġmerely": 3983,
      "ĠÐ¿": 3984,
      "Ġtomorrow": 3985,
      "Ġfalling": 3986,
      "Ġtraining": 3987,
      "ĠPat": 3988,
      "âĨĴ": 3989,
      "iber": 3990,
      "ana": 3991,
      "Thank": 3992,
      "Ġputting": 3993,
      "ological": 3994,
      "Ġrelax": 3995,
      "To": 3996,
      "Ġcoat": 3997,
      "Ġmeaning": 3998,
      "elve": 3999,
      "Ġess": 4000,
      "Ġbusy": 4001,
      "Ġrelief": 4002,
      "Ġjaw": 4003,
      "icht": 4004,
      "Ġreport": 4005,
      "ĠCam": 4006,
      "Ġupper": 4007,
      "Ġdrove": 4008,
      "Ġagree": 4009,
      "OU": 4010,
      "antic": 4011,
      "Ġflowers": 4012,
      "Ġinstant": 4013,
      "Ġlocked": 4014,
      "Ġextreme": 4015,
      "Ġshaking": 4016,
      "Ġfeatures": 4017,
      "Ġgall": 4018,
      "Ġremark": 4019,
      "Ġfeed": 4020,
      "cing": 4021,
      "Ġsmoke": 4022,
      "Ġshouted": 4023,
      "Ġpin": 4024,
      "Ġbent": 4025,
      "time": 4026,
      "Ġfighting": 4027,
      "Ġplayed": 4028,
      "Ġtun": 4029,
      "Ġunless": 4030,
      "Ġfinding": 4031,
      "RE": 4032,
      "Ġrare": 4033,
      "Ġvalues": 4034,
      "imal": 4035,
      "Ġmurder": 4036,
      "50": 4037,
      "ĠMin": 4038,
      "Ġrise": 4039,
      "ĠFather": 4040,
      "ĠIm": 4041,
      "Ġfish": 4042,
      "Ġinqu": 4043,
      "Ġshout": 4044,
      "Ġarch": 4045,
      "Ġfallen": 4046,
      "ĠAnn": 4047,
      "Ġune": 4048,
      "ĠThomas": 4049,
      "Ġcard": 4050,
      "oms": 4051,
      "Ġenter": 4052,
      "Ġsubst": 4053,
      "Ġinte": 4054,
      "urb": 4055,
      "Ġduty": 4056,
      "Ġoriginal": 4057,
      "host": 4058,
      "ura": 4059,
      "ffic": 4060,
      "aries": 4061,
      "ember": 4062,
      "Ġeyeb": 4063,
      "Ġassist": 4064,
      "ĠSw": 4065,
      "Ġbased": 4066,
      "ĠÏĨ": 4067,
      "Ġapartment": 4068,
      "Ġwip": 4069,
      "ilities": 4070,
      "ĠHa": 4071,
      "ipping": 4072,
      "Ġacce": 4073,
      "Ġpassing": 4074,
      "ales": 4075,
      "eters": 4076,
      "Ġaddress": 4077,
      "Ð°Ð": 4078,
      "Ġformed": 4079,
      "Ġequal": 4080,
      "Ġhill": 4081,
      "oot": 4082,
      "Ġasks": 4083,
      "Ġmodels": 4084,
      "Ġaud": 4085,
      "Ġwed": 4086,
      "ĠRem": 4087,
      "Ġuniform": 4088,
      "Ġteam": 4089,
      "Ġtruly": 4090,
      "Ġdouble": 4091,
      "Ġtu": 4092,
      "Ġtotal": 4093,
      "Ġscr": 4094,
      "wood": 4095,
      "view": 4096,
      "Ġcalling": 4097,
      "iqu": 4098,
      "Ġleading": 4099,
      "Ġmel": 4100,
      "Ġpleased": 4101,
      "ym": 4102,
      "Ġdism": 4103,
      "Ġpill": 4104,
      "Ġmix": 4105,
      "Ġstayed": 4106,
      "ients": 4107,
      "bur": 4108,
      "ÃŃa": 4109,
      "Ġhanded": 4110,
      "iant": 4111,
      "Ġrequired": 4112,
      "andom": 4113,
      "Ġbehav": 4114,
      "Ġfeelings": 4115,
      "Ġanymore": 4116,
      "Ġride": 4117,
      "Ġwriting": 4118,
      "Ġpul": 4119,
      "Ġlack": 4120,
      "Ġfurn": 4121,
      "hib": 4122,
      "Ġcaused": 4123,
      "ysis": 4124,
      "Ġforehead": 4125,
      "Ġstick": 4126,
      "Ġdrawing": 4127,
      "Ġtoss": 4128,
      "ĠRuss": 4129,
      "Ġroof": 4130,
      "attered": 4131,
      "cy": 4132,
      "Ġcaptain": 4133,
      "key": 4134,
      "Ġwinter": 4135,
      "gl": 4136,
      "Ġsignific": 4137,
      "gn": 4138,
      "Ġdate": 4139,
      "Ġinterested": 4140,
      "Ġexec": 4141,
      "board": 4142,
      "Ġlaughing": 4143,
      "initely": 4144,
      "Ġjack": 4145,
      "Ġwilling": 4146,
      "ato": 4147,
      "Ġenv": 4148,
      "Ġorders": 4149,
      "urope": 4150,
      "Ġheight": 4151,
      "Ġeager": 4152,
      "llen": 4153,
      "Ġmembers": 4154,
      "Ġdefined": 4155,
      "Ġrealize": 4156,
      "Ġhandle": 4157,
      "Ġkids": 4158,
      "gs": 4159,
      "Ġglo": 4160,
      "Ġ23": 4161,
      "Ġmountain": 4162,
      "An": 4163,
      "Ġstore": 4164,
      "raw": 4165,
      "Ġyours": 4166,
      "ailed": 4167,
      "Ġtent": 4168,
      "Ġbottle": 4169,
      "ta": 4170,
      "ĠGerman": 4171,
      "Î³": 4172,
      "Ġnaked": 4173,
      "osen": 4174,
      "ĠWar": 4175,
      "Ġgenerally": 4176,
      "illed": 4177,
      "mar": 4178,
      "ĠVal": 4179,
      "ĠFe": 4180,
      "icy": 4181,
      "ĠInstead": 4182,
      "ĠMax": 4183,
      "ĠAre": 4184,
      "Ġforgotten": 4185,
      "Ġsocial": 4186,
      "ĠMom": 4187,
      "Ġtwice": 4188,
      "Ġcareful": 4189,
      "ki": 4190,
      "26": 4191,
      "Ġconcent": 4192,
      "ĠÑģ": 4193,
      "ĠSar": 4194,
      "ĠAnother": 4195,
      "ĠLou": 4196,
      "Ġcas": 4197,
      "Ġpurs": 4198,
      "Ġwitness": 4199,
      "Ġloose": 4200,
      "rix": 4201,
      "Ġsuspic": 4202,
      "Ġemotion": 4203,
      "Ġproud": 4204,
      "Ġresponse": 4205,
      "Ġdamn": 4206,
      "eping": 4207,
      "Ġhole": 4208,
      "ĠWest": 4209,
      "ĠFinally": 4210,
      "Ġrule": 4211,
      "Ġamaz": 4212,
      "known": 4213,
      "Ġcalcul": 4214,
      "hr": 4215,
      "Ġwhisper": 4216,
      "Ġgovernment": 4217,
      "Ġjourney": 4218,
      "Ġheaded": 4219,
      "ynam": 4220,
      "Ġblow": 4221,
      "Ġyouth": 4222,
      "ĠHouse": 4223,
      "Ġphysical": 4224,
      "ĠMaster": 4225,
      "Ġfifty": 4226,
      "ĠMac": 4227,
      "Ġevents": 4228,
      "Ġspend": 4229,
      "ye": 4230,
      "ka": 4231,
      "ector": 4232,
      "Ġsomewhat": 4233,
      "ĠJim": 4234,
      "Ġmarriage": 4235,
      "Ġhidden": 4236,
      "Ġreply": 4237,
      "elled": 4238,
      "ĠSl": 4239,
      "omes": 4240,
      "vie": 4241,
      "ĠEurope": 4242,
      "Ġprevious": 4243,
      "Ġdisappeared": 4244,
      "Ġbreathing": 4245,
      "ĠMat": 4246,
      "bel": 4247,
      "Ġremoved": 4248,
      "Ġlap": 4249,
      "Ah": 4250,
      "Ġdegree": 4251,
      "Ġentrance": 4252,
      "ĠJen": 4253,
      "Ġharm": 4254,
      "ĠNothing": 4255,
      "ella": 4256,
      "Ġopinion": 4257,
      "Ġsuggested": 4258,
      "uel": 4259,
      "ca": 4260,
      "Ġopportunity": 4261,
      "ĠÐ½": 4262,
      "Ġstage": 4263,
      "Ġdepart": 4264,
      "Ġcabin": 4265,
      "rate": 4266,
      "za": 4267,
      "Ġnumbers": 4268,
      "Ġcorrect": 4269,
      "ether": 4270,
      "Ġmort": 4271,
      "Ġleather": 4272,
      "Ġletting": 4273,
      "arted": 4274,
      "Ġjer": 4275,
      "ĠBro": 4276,
      "Ġprim": 4277,
      "onel": 4278,
      "Ġasleep": 4279,
      "inition": 4280,
      "Ġtask": 4281,
      "yr": 4282,
      "Ġbread": 4283,
      "aine": 4284,
      "....": 4285,
      "ĠÏī": 4286,
      "Ġsnapped": 4287,
      "ando": 4288,
      "Ġnamed": 4289,
      "Ġshop": 4290,
      "mas": 4291,
      "Ġstarting": 4292,
      "Ġanimals": 4293,
      "ĠBlack": 4294,
      "Ġestim": 4295,
      "ae": 4296,
      "Ġdistribution": 4297,
      "Ġtransform": 4298,
      "Ġparticularly": 4299,
      "Ġended": 4300,
      "Ġlearning": 4301,
      "agon": 4302,
      "ication": 4303,
      "Ġfol": 4304,
      "Ġfault": 4305,
      "Ġpha": 4306,
      "ĠRob": 4307,
      "stand": 4308,
      "eds": 4309,
      "Ġshouldn": 4310,
      "aming": 4311,
      "Ġrising": 4312,
      "Ġadmit": 4313,
      "ulous": 4314,
      "Ġdread": 4315,
      "Ġdeb": 4316,
      "At": 4317,
      "ench": 4318,
      "Ġdetails": 4319,
      "erson": 4320,
      "Ġein": 4321,
      "asy": 4322,
      "Ġofficer": 4323,
      "ashing": 4324,
      "ege": 4325,
      "Ġhanging": 4326,
      "Ġthigh": 4327,
      "ĠBritish": 4328,
      "ĠSomething": 4329,
      "Ġtail": 4330,
      "Ġseries": 4331,
      "ĠâĹ": 4332,
      "ĠQueen": 4333,
      "ocking": 4334,
      "Ġstir": 4335,
      "ested": 4336,
      "Ġwonderful": 4337,
      ".[": 4338,
      "ĠJesus": 4339,
      "bra": 4340,
      "Ġsolid": 4341,
      "cely": 4342,
      "ĠHam": 4343,
      "Ġmarket": 4344,
      "Ġprice": 4345,
      "Maybe": 4346,
      "On": 4347,
      "Hey": 4348,
      "Ġpressure": 4349,
      "bre": 4350,
      "ĠGood": 4351,
      "ĠMichael": 4352,
      "Ġsell": 4353,
      "ĠDar": 4354,
      "Ġotherwise": 4355,
      "Ġpossibly": 4356,
      "asons": 4357,
      "Ġtravel": 4358,
      "Ġstates": 4359,
      "Ġhouses": 4360,
      "van": 4361,
      "Ġjoin": 4362,
      "Ġpractice": 4363,
      "Ġmirror": 4364,
      "Ġexistence": 4365,
      "Ġrange": 4366,
      "ĠBo": 4367,
      "Ġproduct": 4368,
      "Ġgrave": 4369,
      "ÂłÂłÂłÂł": 4370,
      "ĠMost": 4371,
      "ĠJan": 4372,
      "Al": 4373,
      "ograph": 4374,
      "Ġmusc": 4375,
      "Ġcircle": 4376,
      "Ġpromised": 4377,
      "Ġcarrying": 4378,
      "Ġnur": 4379,
      "Ġmajor": 4380,
      "ION": 4381,
      "ols": 4382,
      "Ġnumer": 4383,
      "ties": 4384,
      "Ġgrinned": 4385,
      "Ġmissing": 4386,
      "ĠGreat": 4387,
      "ĠCH": 4388,
      "Ġmechan": 4389,
      "Ġburning": 4390,
      "Ġplate": 4391,
      "ĠCount": 4392,
      "eness": 4393,
      "ĠGeneral": 4394,
      "Ġvision": 4395,
      "ĠRichard": 4396,
      "Ġdance": 4397,
      "Ġpush": 4398,
      "Ġfeels": 4399,
      "Ġbell": 4400,
      "Ġpassion": 4401,
      "anged": 4402,
      "Ġinfluence": 4403,
      "Ġthrust": 4404,
      "Ġexclaimed": 4405,
      "Ġsole": 4406,
      "Ġmarry": 4407,
      "Ñĩ": 4408,
      "Ġtrad": 4409,
      "ĠThan": 4410,
      "pro": 4411,
      "Ġfac": 4412,
      "ishment": 4413,
      "field": 4414,
      "ino": 4415,
      "ED": 4416,
      "Ġhips": 4417,
      "Ġinnoc": 4418,
      "ointed": 4419,
      "Ġshowing": 4420,
      "ĠChristian": 4421,
      "cil": 4422,
      "ingu": 4423,
      "Ġaim": 4424,
      "Ġgrown": 4425,
      "ĠOl": 4426,
      "Ġstars": 4427,
      "ĠKe": 4428,
      "Ġpec": 4429,
      "iest": 4430,
      "Ġdecision": 4431,
      "ĠWor": 4432,
      "Ġremains": 4433,
      "atives": 4434,
      "Ġsequ": 4435,
      "ĠStates": 4436,
      "Ġcontinue": 4437,
      "Ġbreakfast": 4438,
      "Ġapparently": 4439,
      "lection": 4440,
      "Ġsmaller": 4441,
      "Ġshock": 4442,
      "Ġtremb": 4443,
      "tr": 4444,
      "ĠAnt": 4445,
      "ata": 4446,
      "Ġsetting": 4447,
      "Ġobvious": 4448,
      "Ġcivil": 4449,
      "Ġindepend": 4450,
      "Ġmachine": 4451,
      "ĠChurch": 4452,
      "back": 4453,
      "Ġstuck": 4454,
      "ĠâĬĹ": 4455,
      "Ġappreci": 4456,
      "ems": 4457,
      "lor": 4458,
      "Ġjumped": 4459,
      "aly": 4460,
      "Ġutter": 4461,
      "aker": 4462,
      "ulated": 4463,
      "ĠSer": 4464,
      "ĠBes": 4465,
      "Ġjoined": 4466,
      "Ġrail": 4467,
      "Ġrandom": 4468,
      "Ġinha": 4469,
      "asm": 4470,
      "Ġavoid": 4471,
      "Ġalgorith": 4472,
      "____": 4473,
      "fortun": 4474,
      "ĠAug": 4475,
      "Ġchuck": 4476,
      "Ġexchan": 4477,
      "inked": 4478,
      "ads": 4479,
      "ĠMo": 4480,
      "Ġgotten": 4481,
      "icated": 4482,
      "ateg": 4483,
      "Ġcrazy": 4484,
      "ĠChe": 4485,
      "Ġcurious": 4486,
      "Ġfier": 4487,
      "Ġgentleman": 4488,
      "ĠRed": 4489,
      "gram": 4490,
      "xim": 4491,
      "Ġ26": 4492,
      "inging": 4493,
      "ivered": 4494,
      "Ġstiff": 4495,
      "Ġbitter": 4496,
      "mn": 4497,
      "rit": 4498,
      "Ġstories": 4499,
      "Ġgathered": 4500,
      "ĠGree": 4501,
      "Ġassume": 4502,
      "inced": 4503,
      "lled": 4504,
      "ĠAss": 4505,
      "ĠFrance": 4506,
      "Ġlistening": 4507,
      "27": 4508,
      "Ġcreature": 4509,
      "Ġnervous": 4510,
      "Ġmissed": 4511,
      "ĠBet": 4512,
      "alley": 4513,
      "orough": 4514,
      "Ġattract": 4515,
      "Ġstudied": 4516,
      "Ġcro": 4517,
      "sec": 4518,
      "ĠGab": 4519,
      "Ġcult": 4520,
      "ĠJac": 4521,
      "Ġrace": 4522,
      "Ġincluding": 4523,
      "igned": 4524,
      "Ġcoo": 4525,
      "cer": 4526,
      "Ġcentury": 4527,
      "Ġavail": 4528,
      "Ġadvantage": 4529,
      "Ġaccomp": 4530,
      "28": 4531,
      "Ġresist": 4532,
      "EL": 4533,
      "Ġfocus": 4534,
      "Ġprefer": 4535,
      "iments": 4536,
      "Ġpictures": 4537,
      "Ġpattern": 4538,
      "Ġtwelve": 4539,
      "Ġwondering": 4540,
      "Ġconcern": 4541,
      "Ġneare": 4542,
      "ĠÎµ": 4543,
      "Ġexperi": 4544,
      "Be": 4545,
      "Ġ27": 4546,
      "Ġhoping": 4547,
      "essel": 4548,
      "ĠPres": 4549,
      "Ġep": 4550,
      "ulty": 4551,
      "uments": 4552,
      "Ġconver": 4553,
      "Ġgolden": 4554,
      "atory": 4555,
      "ĠTy": 4556,
      "Ġgrace": 4557,
      "Ġworst": 4558,
      "Ġsweat": 4559,
      "Ġstreets": 4560,
      "AC": 4561,
      "Ġrout": 4562,
      "Ġcircumstances": 4563,
      "Ġgather": 4564,
      "Ġgrim": 4565,
      "Ġengine": 4566,
      "ĠHigh": 4567,
      "Ġspecies": 4568,
      "ira": 4569,
      "umber": 4570,
      "Ġrelative": 4571,
      "bb": 4572,
      "Ġappears": 4573,
      "40": 4574,
      "org": 4575,
      "ĠHel": 4576,
      "isters": 4577,
      "imp": 4578,
      "Ġdescend": 4579,
      "Ġegg": 4580,
      "ppy": 4581,
      "Ġconcerned": 4582,
      "Ġfemale": 4583,
      "aves": 4584,
      "Ġspeech": 4585,
      "Ġaccur": 4586,
      "ĠCharles": 4587,
      "Ġinstance": 4588,
      "Ġsucceed": 4589,
      "Ġmuttered": 4590,
      "Ġhurried": 4591,
      "terday": 4592,
      "Ġconnected": 4593,
      "Ġbathroom": 4594,
      "OM": 4595,
      "Ġstare": 4596,
      "Ġforms": 4597,
      "Ġwoods": 4598,
      "Ġfreed": 4599,
      "Â·": 4600,
      "Ġfly": 4601,
      "eps": 4602,
      "ayed": 4603,
      "Ġofficers": 4604,
      "Ġwooden": 4605,
      "Ġtear": 4606,
      "Ġholds": 4607,
      "Ġecho": 4608,
      "ĠÎ·": 4609,
      "Ġsem": 4610,
      "ĠNorth": 4611,
      "lyn": 4612,
      "duc": 4613,
      "Ġfrowned": 4614,
      "cking": 4615,
      "Ġjump": 4616,
      "Ġspoken": 4617,
      "ĠII": 4618,
      "Ġspecific": 4619,
      "ception": 4620,
      "onna": 4621,
      "AM": 4622,
      "Sh": 4623,
      "arrass": 4624,
      "Ġspin": 4625,
      "Because": 4626,
      "Ġlistened": 4627,
      "Ġpink": 4628,
      "Ġdistinct": 4629,
      "ĠÎĵ": 4630,
      "isa": 4631,
      "Ġrelationship": 4632,
      "Ġshake": 4633,
      "erve": 4634,
      "Ġachie": 4635,
      "ĠLy": 4636,
      "Ġpour": 4637,
      "Ġwand": 4638,
      "eren": 4639,
      "gment": 4640,
      "ĠRes": 4641,
      "Ġchoose": 4642,
      "Ġspell": 4643,
      "Ġsaf": 4644,
      "pet": 4645,
      "Ġcred": 4646,
      "ections": 4647,
      "iation": 4648,
      "Ġsake": 4649,
      "uted": 4650,
      "Ġbirds": 4651,
      "eling": 4652,
      "Ġourselves": 4653,
      "Ġdemanded": 4654,
      "Ġinvolved": 4655,
      "Ġshoes": 4656,
      "Ġperformance": 4657,
      "ĠÐ²": 4658,
      "Ġcompar": 4659,
      "Ġ:=": 4660,
      "ĠThough": 4661,
      "ĠParis": 4662,
      "Ġpositive": 4663,
      "Ġdistr": 4664,
      "Ġforever": 4665,
      "lessly": 4666,
      "Ġ100": 4667,
      "aps": 4668,
      "Ġstandard": 4669,
      "Ġshadows": 4670,
      "Ġhabit": 4671,
      "aken": 4672,
      "jo": 4673,
      "ĠSouth": 4674,
      "Ġsleeping": 4675,
      "olt": 4676,
      "ĠMother": 4677,
      "ĠLemma": 4678,
      "ĠBur": 4679,
      "Ġcig": 4680,
      "Ġproved": 4681,
      "Ġ28": 4682,
      "Ġregret": 4683,
      "ĠMel": 4684,
      "ĠJew": 4685,
      "Ġfailed": 4686,
      "Ġapproached": 4687,
      "clock": 4688,
      "Ġbeast": 4689,
      "ÏĨ": 4690,
      "Ġweather": 4691,
      "Ġbenef": 4692,
      "Ġpassage": 4693,
      "Ġintellig": 4694,
      "Ġhospital": 4695,
      "Ġpapers": 4696,
      "Ġfashion": 4697,
      "Ġexcited": 4698,
      "Ġstretched": 4699,
      "inated": 4700,
      "ĠPrince": 4701,
      ".âĢĻ": 4702,
      "Ġprovided": 4703,
      "Ġexperiment": 4704,
      "iversity": 4705,
      "ĠSil": 4706,
      "Ġta": 4707,
      "ĠAND": 4708,
      "zing": 4709,
      "Ġrefused": 4710,
      "alk": 4711,
      "Ġforty": 4712,
      "ects": 4713,
      "Ġmale": 4714,
      "Ġcott": 4715,
      "Ġunable": 4716,
      "Ġgraph": 4717,
      "ĠChapter": 4718,
      "ĠÂ»": 4719,
      "rem": 4720,
      "Ġconsist": 4721,
      "Ġrooms": 4722,
      "Ġliqu": 4723,
      "uts": 4724,
      "Ġpleasant": 4725,
      "Ġdynam": 4726,
      "Ġproblems": 4727,
      "Ġpage": 4728,
      "oul": 4729,
      "ounted": 4730,
      "Ġyield": 4731,
      "Ġaccident": 4732,
      "Ġbridge": 4733,
      "Ġclub": 4734,
      "Ġuncle": 4735,
      "Ġtender": 4736,
      "Ġmaintain": 4737,
      "Ġfrag": 4738,
      "Ġfought": 4739,
      "29": 4740,
      "utions": 4741,
      "hens": 4742,
      "Ġscreen": 4743,
      "itz": 4744,
      "Ġmanage": 4745,
      "Ġvamp": 4746,
      "hal": 4747,
      "Ġthinks": 4748,
      "Ġintended": 4749,
      "Ġinterp": 4750,
      "Ġasp": 4751,
      "Ġshell": 4752,
      "Ġconscious": 4753,
      "onn": 4754,
      "Ġdozen": 4755,
      "Ġdeeply": 4756,
      "order": 4757,
      "Ġdistant": 4758,
      "Ġvessel": 4759,
      "otic": 4760,
      "Ġ/": 4761,
      "Ġshel": 4762,
      "ping": 4763,
      "Ġfunctions": 4764,
      "Re": 4765,
      "Ġwaves": 4766,
      "Ġburned": 4767,
      "Ġexcit": 4768,
      "Ġamb": 4769,
      "Ġrang": 4770,
      "Ġchosen": 4771,
      "Ġapplic": 4772,
      "Ġlies": 4773,
      "Ġhotel": 4774,
      "Ġmatters": 4775,
      "ĠSy": 4776,
      "Ġdru": 4777,
      "ĠAmerica": 4778,
      "Ġtarget": 4779,
      "ĠColl": 4780,
      "Ġvirt": 4781,
      "Ġflight": 4782,
      "Ġremar": 4783,
      "ST": 4784,
      "Ġproduced": 4785,
      "Ġens": 4786,
      "ĠÃ©": 4787,
      "Ġequation": 4788,
      "hest": 4789,
      "Ġhearing": 4790,
      "Ġpresented": 4791,
      "Ġtit": 4792,
      "ĠAlthough": 4793,
      "Ġmurmured": 4794,
      "Ġembarrass": 4795,
      "ĠMal": 4796,
      "Ġblock": 4797,
      "andy": 4798,
      "Ġconfir": 4799,
      "ĠAngel": 4800,
      "ĠDra": 4801,
      "Ġhero": 4802,
      "ete": 4803,
      "Ġhonor": 4804,
      "ĠRy": 4805,
      "ĠDel": 4806,
      "wen": 4807,
      "IL": 4808,
      "Ġcalls": 4809,
      "aper": 4810,
      "Ġanalysis": 4811,
      "imum": 4812,
      "Ġillust": 4813,
      "Ġcheer": 4814,
      "Ġgle": 4815,
      "acle": 4816,
      "ares": 4817,
      "Ġsav": 4818,
      "Ġsteady": 4819,
      "ugg": 4820,
      "Ġaband": 4821,
      "Ġslam": 4822,
      "eck": 4823,
      "Ġintegr": 4824,
      "ĠÏķ": 4825,
      "eled": 4826,
      "Ġdespite": 4827,
      "Ġattend": 4828,
      "Ġbecomes": 4829,
      "Ġfarm": 4830,
      "osh": 4831,
      "Ġcomfortable": 4832,
      "rees": 4833,
      "Ġsociety": 4834,
      "Ġgrip": 4835,
      "Ġvel": 4836,
      "Ġdiss": 4837,
      "asted": 4838,
      "ĠKat": 4839,
      "Ġpotential": 4840,
      "Ġsail": 4841,
      "Ġmodern": 4842,
      "Ġghost": 4843,
      "Ġlimit": 4844,
      "ulf": 4845,
      "aire": 4846,
      "Ġbought": 4847,
      "Â«": 4848,
      "Ġsource": 4849,
      "Ġmilitary": 4850,
      "Î´": 4851,
      "Ġtrip": 4852,
      "ico": 4853,
      "Ġrum": 4854,
      "ĠOld": 4855,
      "uing": 4856,
      "tion": 4857,
      "Ġthrown": 4858,
      "Ġexcell": 4859,
      "ĠGrand": 4860,
      "iring": 4861,
      "Ġcow": 4862,
      "Ġconnection": 4863,
      "ĠStreet": 4864,
      "Ġeduc": 4865,
      "mmet": 4866,
      "Ġbi": 4867,
      "Ex": 4868,
      "Ġearn": 4869,
      "orph": 4870,
      "Ġladies": 4871,
      "Ġmurd": 4872,
      "Ġpsy": 4873,
      "ĠJon": 4874,
      "ĠBel": 4875,
      "Ġvast": 4876,
      "Ġprogress": 4877,
      "omfort": 4878,
      "atched": 4879,
      "ĠGo": 4880,
      "Ġpit": 4881,
      "essor": 4882,
      "rous": 4883,
      "Ġsystems": 4884,
      "ĠOther": 4885,
      "ĠNever": 4886,
      "Ġunderstanding": 4887,
      "ball": 4888,
      "Ġtells": 4889,
      "Ġinitial": 4890,
      "ais": 4891,
      "bes": 4892,
      "ĠInt": 4893,
      "ĠProp": 4894,
      "Ġshore": 4895,
      "Ġfields": 4896,
      "Ġtwisted": 4897,
      "aks": 4898,
      "Ġbond": 4899,
      "Ġnine": 4900,
      "Ġ$": 4901,
      "ĠStep": 4902,
      "Ð²": 4903,
      "Ġstands": 4904,
      "Ġsaved": 4905,
      "Ġplant": 4906,
      "Ġpatient": 4907,
      "Ġaverage": 4908,
      "Ġax": 4909,
      "aur": 4910,
      "tt": 4911,
      "Ġanywhere": 4912,
      "Ġwest": 4913,
      "Ġgreatest": 4914,
      "Ġinstinct": 4915,
      "yer": 4916,
      "Ġinches": 4917,
      "ĠEach": 4918,
      "orry": 4919,
      "Go": 4920,
      "Ġbul": 4921,
      "Ġrequire": 4922,
      "Ġintrodu": 4923,
      "ĠÃł": 4924,
      "Ġere": 4925,
      "ourt": 4926,
      "eral": 4927,
      "eal": 4928,
      "Ġrules": 4929,
      "Ġslave": 4930,
      "Ġarrange": 4931,
      "Ġordinary": 4932,
      "Ġobviously": 4933,
      "looking": 4934,
      "Ġlovely": 4935,
      "ompl": 4936,
      "Ġsecurity": 4937,
      "Ġfart": 4938,
      "Ġmas": 4939,
      "inger": 4940,
      "Ġsymp": 4941,
      "Ġcrew": 4942,
      "Ã±": 4943,
      "enth": 4944,
      "Ġvictim": 4945,
      "Ġuseful": 4946,
      "Ġlaughter": 4947,
      "ussy": 4948,
      "Ġelement": 4949,
      "iana": 4950,
      "Ġscared": 4951,
      "Ġsne": 4952,
      "mit": 4953,
      "Ġwings": 4954,
      "Ġoblig": 4955,
      "Ġgreet": 4956,
      "Ġmethods": 4957,
      "Ġtruck": 4958,
      "Ġguards": 4959,
      "Ġwake": 4960,
      "Ġpalm": 4961,
      "Please": 4962,
      "was": 4963,
      "Ġscent": 4964,
      "ĠNat": 4965,
      "ipl": 4966,
      "Ġhated": 4967,
      "Ġmistake": 4968,
      "ĠHal": 4969,
      "has": 4970,
      "ĠBob": 4971,
      "rence": 4972,
      "overn": 4973,
      "APTER": 4974,
      "Ġunto": 4975,
      "ĠHall": 4976,
      "Ġclimbed": 4977,
      "ĠHarry": 4978,
      "aging": 4979,
      "ogether": 4980,
      "Ġplans": 4981,
      "Ġren": 4982,
      "Ġpool": 4983,
      "Ġpoet": 4984,
      "ĠIN": 4985,
      "Ġpant": 4986,
      "Ġbill": 4987,
      "ĠSal": 4988,
      "Ġburied": 4989,
      "isions": 4990,
      "Ġfifteen": 4991,
      "Ġcy": 4992,
      "uded": 4993,
      "Ġflow": 4994,
      "ĠJud": 4995,
      "Ġsurely": 4996,
      "omed": 4997,
      "Ġtrade": 4998,
      "Ġadmitted": 4999,
      "Ġdying": 5000,
      "ida": 5001,
      "inter": 5002,
      "Ġ29": 5003,
      "Ġwanting": 5004,
      "Ġprovide": 5005,
      "One": 5006,
      "ulations": 5007,
      "Ġyounger": 5008,
      "Ġdoorway": 5009,
      "Ġpossess": 5010,
      ")(": 5011,
      "aud": 5012,
      "ĠPo": 5013,
      "Ġsafety": 5014,
      "Ġharder": 5015,
      "Ġlibr": 5016,
      "Ġdepth": 5017,
      "Ġhappens": 5018,
      "ĠSuch": 5019,
      "Ġchain": 5020,
      "Ġtaught": 5021,
      "icles": 5022,
      "col": 5023,
      "Ġyesterday": 5024,
      "Ġlunch": 5025,
      "Î·": 5026,
      "amn": 5027,
      "ĠSol": 5028,
      "Ġqueen": 5029,
      "Ġabsolutely": 5030,
      "Ġserve": 5031,
      "Ġchanges": 5032,
      "Look": 5033,
      "inate": 5034,
      "Ġrecognized": 5035,
      "Ġtrick": 5036,
      "Ġfavour": 5037,
      "Ġmaid": 5038,
      "rupted": 5039,
      "ĠThose": 5040,
      "Ġflash": 5041,
      "ĠUnited": 5042,
      "Ġdriving": 5043,
      "Ġideas": 5044,
      "Ġslept": 5045,
      "Ġnetwork": 5046,
      "Ġmatch": 5047,
      "Ġtransl": 5048,
      "Ã£": 5049,
      "Ġtrail": 5050,
      "ĠGar": 5051,
      "exp": 5052,
      "ĠWhich": 5053,
      "Ġcraw": 5054,
      "Ç«": 5055,
      "ĠBoth": 5056,
      "enger": 5057,
      "Ġteacher": 5058,
      "Ġshifted": 5059,
      "Ġwealth": 5060,
      "Ġthumb": 5061,
      "IG": 5062,
      "ĠPol": 5063,
      "Ġbringing": 5064,
      "Ġrestr": 5065,
      "Ġ.\"": 5066,
      "Ġstranger": 5067,
      "Ġna": 5068,
      "Ġcrying": 5069,
      "can": 5070,
      "Ġcouch": 5071,
      "Ġpra": 5072,
      "arse": 5073,
      "rog": 5074,
      "Ġreb": 5075,
      "eline": 5076,
      "Ġexerc": 5077,
      "Ġships": 5078,
      "Ã³n": 5079,
      "da": 5080,
      "Ġvac": 5081,
      "lebr": 5082,
      "Ġ40": 5083,
      "ĠWould": 5084,
      "bles": 5085,
      "ĠTw": 5086,
      "Ġeating": 5087,
      "nes": 5088,
      "CH": 5089,
      "Ġafterwards": 5090,
      "Ġbreaking": 5091,
      "Ġnoble": 5092,
      "gest": 5093,
      "rier": 5094,
      "Ġfund": 5095,
      "Ġthanks": 5096,
      "Ġrat": 5097,
      "Ġcous": 5098,
      "Ġfinish": 5099,
      "Ġrot": 5100,
      "33": 5101,
      "Ġafford": 5102,
      "Ġelev": 5103,
      "cean": 5104,
      "Ġmeat": 5105,
      "ĠRobert": 5106,
      "ante": 5107,
      "Ġinner": 5108,
      "cknow": 5109,
      "Ġvent": 5110,
      "Ġconfidence": 5111,
      "Ġmood": 5112,
      "ita": 5113,
      "Ġmountains": 5114,
      "olved": 5115,
      "Ġpersons": 5116,
      "Wh": 5117,
      "Ġforeign": 5118,
      "Ġreasons": 5119,
      "Ġvoices": 5120,
      "Ġdare": 5121,
      "Ġmatrix": 5122,
      "Fig": 5123,
      "ĠWhite": 5124,
      "ĠIr": 5125,
      "Ġjacket": 5126,
      "Ġhyp": 5127,
      "Ġcorresponding": 5128,
      "Ġzu": 5129,
      "âĢĶâĢĶ": 5130,
      "ĠOut": 5131,
      "Ġswallowed": 5132,
      "place": 5133,
      "Ġchat": 5134,
      "Ġapplied": 5135,
      "Ġ50": 5136,
      "ĠAp": 5137,
      "olic": 5138,
      "Ġconsid": 5139,
      "mo": 5140,
      "Ġserved": 5141,
      "Ġboots": 5142,
      "Ġcart": 5143,
      "ecting": 5144,
      "Ġreminded": 5145,
      "Ġjudge": 5146,
      "ĠNick": 5147,
      "Ġadop": 5148,
      "Ġreaction": 5149,
      "esty": 5150,
      "Ġhandsome": 5151,
      "Ġassumed": 5152,
      "Ġthroughout": 5153,
      "ĠâĪŀ": 5154,
      "ĠArt": 5155,
      "Have": 5156,
      "Ġclut": 5157,
      "Ġlat": 5158,
      "Ġdreams": 5159,
      "ĠRa": 5160,
      "which": 5161,
      "Ġuna": 5162,
      "ĠRoy": 5163,
      "Ġencou": 5164,
      "Ġfalse": 5165,
      "Ġcleared": 5166,
      "ĠSarah": 5167,
      "Ġlos": 5168,
      "ĠRoman": 5169,
      "Ġwise": 5170,
      "rig": 5171,
      "Ġwarning": 5172,
      "Here": 5173,
      "ĠUnder": 5174,
      "hered": 5175,
      "Ġintroduced": 5176,
      "Ġdriver": 5177,
      "Ġmillion": 5178,
      "Ġsimpl": 5179,
      "Ġwaved": 5180,
      "omen": 5181,
      "Ġbreasts": 5182,
      "OL": 5183,
      "Ġrefer": 5184,
      "Ġmarked": 5185,
      "Ġexcitement": 5186,
      "Ġhappening": 5187,
      "Ġlinear": 5188,
      "Ġcos": 5189,
      "ĠCome": 5190,
      "Ġelb": 5191,
      "Ġfaster": 5192,
      "Ġtub": 5193,
      "Ġrocks": 5194,
      "Ġreality": 5195,
      "ĠDef": 5196,
      "Ġbuck": 5197,
      "ĠAcc": 5198,
      "agged": 5199,
      "Ġprecise": 5200,
      "Ġeast": 5201,
      "Ġterror": 5202,
      "Ġexplan": 5203,
      "Ġannoy": 5204,
      "Ġdeck": 5205,
      "lle": 5206,
      "Ġlowered": 5207,
      "Ġeverywhere": 5208,
      "Ġcoast": 5209,
      "Ã§": 5210,
      "Ġregion": 5211,
      "Ġshower": 5212,
      "ĠAgain": 5213,
      "ipe": 5214,
      "Ġcelebr": 5215,
      "Ġcastle": 5216,
      "ints": 5217,
      "Ġprevent": 5218,
      "ache": 5219,
      "ox": 5220,
      "athy": 5221,
      "ĠSection": 5222,
      "Ġinstru": 5223,
      "rete": 5224,
      "ET": 5225,
      "Ġfinite": 5226,
      "Â´": 5227,
      "Ġbother": 5228,
      "Ġrow": 5229,
      "Ġeld": 5230,
      "Ġsacrif": 5231,
      "Ġwelcome": 5232,
      "Ġtied": 5233,
      "Ġgrate": 5234,
      "Ġsignal": 5235,
      "icity": 5236,
      "Ġprobability": 5237,
      "Ġdogs": 5238,
      "Ġich": 5239,
      "five": 5240,
      "illa": 5241,
      "Ġshield": 5242,
      "ĠEarth": 5243,
      "ĠLily": 5244,
      "Ġleaning": 5245,
      "Ġsi": 5246,
      "Ġpushing": 5247,
      "Ġavailable": 5248,
      "Ġrushed": 5249,
      "Ġelements": 5250,
      "Ġrelie": 5251,
      "umed": 5252,
      "Ġrubbed": 5253,
      "**": 5254,
      "Ġchecked": 5255,
      "Ġflew": 5256,
      "anch": 5257,
      "anda": 5258,
      "ĠAf": 5259,
      "Ġdistingu": 5260,
      "ĠÎ½": 5261,
      "Ġsurrounded": 5262,
      "itution": 5263,
      "mother": 5264,
      "ands": 5265,
      "Ġpad": 5266,
      "semb": 5267,
      "Ġflying": 5268,
      "icip": 5269,
      "Ġreported": 5270,
      "icit": 5271,
      "Ġplenty": 5272,
      "Ġdefinitely": 5273,
      "Ġow": 5274,
      "35": 5275,
      "Ġcontent": 5276,
      "uliar": 5277,
      "ĠBesides": 5278,
      "Ġaccess": 5279,
      "Ġsup": 5280,
      "Ġhoriz": 5281,
      "ault": 5282,
      "ĠBer": 5283,
      "Ġbones": 5284,
      "Ġstyle": 5285,
      "Ġaccompl": 5286,
      "Ġincred": 5287,
      "Ġproposed": 5288,
      "ĠSan": 5289,
      "ĠCharlie": 5290,
      "cript": 5291,
      "Ġliber": 5292,
      "ĠSund": 5293,
      "Ġweapon": 5294,
      "Ġsatisfied": 5295,
      "Ġstatement": 5296,
      "60": 5297,
      "Ġpowers": 5298,
      "Ġcomment": 5299,
      "ĠWithout": 5300,
      "Ġnotes": 5301,
      "jected": 5302,
      ",âĢĻ": 5303,
      "Ġcrim": 5304,
      "ulate": 5305,
      "uk": 5306,
      "uries": 5307,
      ");": 5308,
      "Ġpussy": 5309,
      "Ġpride": 5310,
      "ictor": 5311,
      "Ġagent": 5312,
      "Ġoccurred": 5313,
      "ĠÏĪ": 5314,
      "born": 5315,
      "Ġmission": 5316,
      "ĠAc": 5317,
      "vin": 5318,
      "Ġaccepted": 5319,
      "Ġexists": 5320,
      "ĠMil": 5321,
      "Ġswung": 5322,
      "Ġclosely": 5323,
      "Ġdecide": 5324,
      "Ġdiscover": 5325,
      "illing": 5326,
      "Ġbrow": 5327,
      "Ġgift": 5328,
      "ĠFar": 5329,
      "Ġimagined": 5330,
      "Ġauthority": 5331,
      "Ġunw": 5332,
      "34": 5333,
      "ros": 5334,
      "Ã£o": 5335,
      "alous": 5336,
      "Ġfate": 5337,
      "Ġuncertain": 5338,
      "Ġeasier": 5339,
      "Ġpeculiar": 5340,
      "Ġbecoming": 5341,
      "Ġdemonstr": 5342,
      "Ġerror": 5343,
      "Ġpara": 5344,
      "Ġphase": 5345,
      "ĠIndian": 5346,
      "ĠÎº": 5347,
      "Ġdeeper": 5348,
      "Ġmostly": 5349,
      "ternal": 5350,
      "Ġthorough": 5351,
      "omy": 5352,
      "ĠTherefore": 5353,
      "Ġhab": 5354,
      "ortion": 5355,
      "Î¾": 5356,
      ":âĢĶ": 5357,
      "With": 5358,
      "ĠSometimes": 5359,
      "unted": 5360,
      "Ġreaching": 5361,
      "Ġstock": 5362,
      "Ġnobody": 5363,
      "ĠPeople": 5364,
      "Ġequival": 5365,
      "Ġtemperature": 5366,
      "Ġreceive": 5367,
      "Ġfruit": 5368,
      "ĠJoe": 5369,
      "Ġdoc": 5370,
      "Ġrecall": 5371,
      "Ġcourage": 5372,
      "ini": 5373,
      "Ġhiding": 5374,
      "Ãª": 5375,
      "Ġbutt": 5376,
      "Ġpriest": 5377,
      "ishop": 5378,
      "ria": 5379,
      "Ġchamber": 5380,
      "Ġrush": 5381,
      "Ġsink": 5382,
      "Ġcook": 5383,
      "tle": 5384,
      "equ": 5385,
      "Ġmanif": 5386,
      "iot": 5387,
      "Ġbehavior": 5388,
      "Ġhurry": 5389,
      "Ġprofession": 5390,
      "Ġservant": 5391,
      "Ġcontract": 5392,
      "Ġfarther": 5393,
      "onent": 5394,
      "uten": 5395,
      "Ġgrey": 5396,
      "Ġseason": 5397,
      "ĠGovern": 5398,
      "Ġeffects": 5399,
      "Ġpalace": 5400,
      "Ġscreamed": 5401,
      "izes": 5402,
      "Ġdawn": 5403,
      "Ġsets": 5404,
      "Ġshame": 5405,
      "Ġbrill": 5406,
      "iance": 5407,
      "Ġcapable": 5408,
      ".]": 5409,
      "Ġcolumn": 5410,
      "ĠPal": 5411,
      "Ġneighbor": 5412,
      "ĠÎ©": 5413,
      "Ġfreedom": 5414,
      "Ġclo": 5415,
      "Ġcompared": 5416,
      "itable": 5417,
      "Ġplane": 5418,
      "Ġknight": 5419,
      "Ġmud": 5420,
      "Ġterrif": 5421,
      "umbling": 5422,
      "Ġqual": 5423,
      "irgin": 5424,
      "Ġsmart": 5425,
      "aid": 5426,
      "aws": 5427,
      "Ġbegun": 5428,
      "ĠWil": 5429,
      "urely": 5430,
      "Ch": 5431,
      "ĠJane": 5432,
      "Ġblond": 5433,
      "Ġextended": 5434,
      "lla": 5435,
      "Ġrode": 5436,
      "Ġintense": 5437,
      "agger": 5438,
      "Ġshared": 5439,
      "Ġrelated": 5440,
      "hus": 5441,
      "Ġimper": 5442,
      "ĠAlice": 5443,
      "ĠAugust": 5444,
      "Ġpolitical": 5445,
      "Ġcrime": 5446,
      "Ġconfused": 5447,
      "Ġhol": 5448,
      "ext": 5449,
      "Ġbrothers": 5450,
      "Ġinstantly": 5451,
      "ville": 5452,
      "ĠRose": 5453,
      "Ġacknow": 5454,
      "Ġcaut": 5455,
      "idently": 5456,
      "ĠChristmas": 5457,
      "Ġhungry": 5458,
      "Î¹": 5459,
      "ĠSpan": 5460,
      "vert": 5461,
      "Ġswim": 5462,
      "ÃŁ": 5463,
      "Ġapproxim": 5464,
      "Ġresearch": 5465,
      "Ġles": 5466,
      "ĠStr": 5467,
      "Ġdeclared": 5468,
      "Ġdragged": 5469,
      "ĠAnna": 5470,
      "Ġaccompan": 5471,
      "ĠPart": 5472,
      "Ġcrown": 5473,
      "Ġcreated": 5474,
      "Ġability": 5475,
      "ĠâĪ¼": 5476,
      "ĠEq": 5477,
      "Ġadvent": 5478,
      "Ġbeach": 5479,
      "bar": 5480,
      "eyed": 5481,
      "Ġparameters": 5482,
      "ns": 5483,
      "Ġsymb": 5484,
      "Ġdifficulty": 5485,
      "Ġstaff": 5486,
      "Ġhesitated": 5487,
      "Ġpants": 5488,
      "Ġgonna": 5489,
      "Ġconduct": 5490,
      "Ġservants": 5491,
      "Ġphil": 5492,
      "rill": 5493,
      "Ġblade": 5494,
      "ĠTable": 5495,
      "ĠâĢĻ": 5496,
      "Ġobjects": 5497,
      "ocr": 5498,
      "Ġworn": 5499,
      "Ġmeal": 5500,
      "Ġvisible": 5501,
      "Ġmuscles": 5502,
      "ĠCall": 5503,
      "Ġwarri": 5504,
      "Ġrear": 5505,
      "ĠThree": 5506,
      "otted": 5507,
      "ĠState": 5508,
      "erable": 5509,
      "ola": 5510,
      "ga": 5511,
      "Ġeventually": 5512,
      "Ġpsych": 5513,
      "Ġgods": 5514,
      "Ġargument": 5515,
      "Ġain": 5516,
      "ĠEliz": 5517,
      "Ġquarter": 5518,
      "Ġdise": 5519,
      "Ġgasped": 5520,
      "Ġclouds": 5521,
      "Ġhappiness": 5522,
      "Ġactual": 5523,
      "Tell": 5524,
      "icing": 5525,
      "achel": 5526,
      "Ġzero": 5527,
      "ĠEs": 5528,
      "Ġbetray": 5529,
      "acks": 5530,
      "Ġpause": 5531,
      "Ġceiling": 5532,
      "Ġdesperate": 5533,
      "Ġfist": 5534,
      "Ð´": 5535,
      "Ġweapons": 5536,
      "Ġdar": 5537,
      "Ġcit": 5538,
      "father": 5539,
      "itched": 5540,
      "ĠHu": 5541,
      "Ġsoldier": 5542,
      "Ġanxious": 5543,
      "lend": 5544,
      "Ġscarcely": 5545,
      "Î¿": 5546,
      "ĠCons": 5547,
      "Ġincrease": 5548,
      "Ġsteel": 5549,
      "ĠCont": 5550,
      "Ġfigured": 5551,
      "Ġgroups": 5552,
      "Ġaston": 5553,
      "Ġstones": 5554,
      "Ġapolog": 5555,
      "45": 5556,
      "Ġcloth": 5557,
      "omorph": 5558,
      "Ġscen": 5559,
      "Ġwheel": 5560,
      "sey": 5561,
      "Ġmember": 5562,
      "Ġwedding": 5563,
      "iron": 5564,
      "Ġtip": 5565,
      "Ġsuppl": 5566,
      "xx": 5567,
      "Ġbite": 5568,
      "Ġremaining": 5569,
      "Ġsending": 5570,
      "ĠRiver": 5571,
      "udden": 5572,
      "uary": 5573,
      "38": 5574,
      "Ġvolume": 5575,
      "Ġdirty": 5576,
      "Ġmyst": 5577,
      "ĠLie": 5578,
      "Ġspite": 5579,
      "´ï£": 5580,
      "anches": 5581,
      "Ġscale": 5582,
      "Ġcompet": 5583,
      "Ġwolf": 5584,
      "Ġmemories": 5585,
      "Ġcurtain": 5586,
      "ĠEmma": 5587,
      "ÅĤ": 5588,
      "Ġhighly": 5589,
      "Ġwrist": 5590,
      "Ġclust": 5591,
      "ĠPlease": 5592,
      "eve": 5593,
      "',": 5594,
      "Ġblinked": 5595,
      "vant": 5596,
      "Ġofficial": 5597,
      "Ġflood": 5598,
      "etch": 5599,
      "Ġ199": 5600,
      "Ġcorrid": 5601,
      "Ġlaws": 5602,
      "Ġmilk": 5603,
      "Ġbeer": 5604,
      "ĠSoph": 5605,
      "Ġmer": 5606,
      "Ġlake": 5607,
      "Per": 5608,
      "Ġknee": 5609,
      "Ġscient": 5610,
      "Ġpopular": 5611,
      "Ġembr": 5612,
      "Ġpoured": 5613,
      "tic": 5614,
      "Ġalgorithm": 5615,
      "ĠDor": 5616,
      "Ġdollars": 5617,
      "Ġunknown": 5618,
      "ĠZe": 5619,
      "Ġimportance": 5620,
      "iday": 5621,
      "tical": 5622,
      "Ġoil": 5623,
      "Ġincreased": 5624,
      "Ġmal": 5625,
      "gebra": 5626,
      "Ġpaint": 5627,
      "Ġretreat": 5628,
      "Ġbrave": 5629,
      "Ġdiam": 5630,
      "ĠMed": 5631,
      "Ġexhib": 5632,
      "orne": 5633,
      "awn": 5634,
      "Ġtightly": 5635,
      "ĠTim": 5636,
      "ĠAunt": 5637,
      "ĠLucy": 5638,
      "riff": 5639,
      "Ġswift": 5640,
      "ĠMur": 5641,
      "Ġhorror": 5642,
      "Ġforces": 5643,
      "Ġtotally": 5644,
      "Ġfond": 5645,
      "estern": 5646,
      "Ġ21": 5647,
      "Ġfunny": 5648,
      "Ġcruel": 5649,
      "Ġdisappear": 5650,
      "Ġdescription": 5651,
      "ĠÎ¾": 5652,
      "rant": 5653,
      "Ġtick": 5654,
      "ĠMany": 5655,
      "aints": 5656,
      "rim": 5657,
      "Ġswept": 5658,
      "Ġtil": 5659,
      "âī": 5660,
      "ĠScott": 5661,
      "otes": 5662,
      "Ġlift": 5663,
      "elly": 5664,
      "uated": 5665,
      "ĠSus": 5666,
      "Ġstronger": 5667,
      "Ġtyp": 5668,
      "Ġinch": 5669,
      "Ġreleased": 5670,
      "ĠProof": 5671,
      "Ġorg": 5672,
      "Ġconsiderable": 5673,
      "37": 5674,
      "Ġentertain": 5675,
      "thur": 5676,
      "Or": 5677,
      "Ġplat": 5678,
      "utation": 5679,
      "book": 5680,
      "iration": 5681,
      "Ġfirmly": 5682,
      "Ġprogram": 5683,
      "36": 5684,
      "Ġarrest": 5685,
      "ĠIts": 5686,
      "Ġpounds": 5687,
      "kward": 5688,
      "Ġhallway": 5689,
      "Ġslip": 5690,
      "Ġdrunk": 5691,
      "Some": 5692,
      "erved": 5693,
      "Ġfigures": 5694,
      "Ġresc": 5695,
      "Ġlibrary": 5696,
      "Ġwhenever": 5697,
      "Ġsomebody": 5698,
      "Ġum": 5699,
      "Ġcontain": 5700,
      "lar": 5701,
      "Ġcler": 5702,
      "ĠAdam": 5703,
      "Ġtreated": 5704,
      "ĠâĪļ": 5705,
      "otions": 5706,
      "phone": 5707,
      "ĠBay": 5708,
      "itic": 5709,
      "asped": 5710,
      "Ġsigns": 5711,
      "agn": 5712,
      "Ġcolour": 5713,
      "Ġcomputer": 5714,
      "Ġwithd": 5715,
      "Ġrage": 5716,
      "abeth": 5717,
      "Ġdriven": 5718,
      "Ġmental": 5719,
      "Ġrecent": 5720,
      "Ġrank": 5721,
      "ĠTal": 5722,
      "Ġinterrupted": 5723,
      "eper": 5724,
      "Ġlucky": 5725,
      "ENT": 5726,
      "lot": 5727,
      "Ġroyal": 5728,
      "Ġanaly": 5729,
      "Ġrepro": 5730,
      "):": 5731,
      "Ġrapidly": 5732,
      "fle": 5733,
      "Ġyards": 5734,
      "ctors": 5735,
      "vis": 5736,
      "ĠRos": 5737,
      "Ġnovel": 5738,
      "ds": 5739,
      "Ġhonour": 5740,
      "cast": 5741,
      "Ġtang": 5742,
      "IR": 5743,
      "Ġstrang": 5744,
      "Ġfamous": 5745,
      "ĠOct": 5746,
      "Ġswear": 5747,
      "inent": 5748,
      "ĠUp": 5749,
      "Ġknocked": 5750,
      "gent": 5751,
      "ĠCourt": 5752,
      "Ġbesides": 5753,
      "Ġtroops": 5754,
      "ĠSunday": 5755,
      "Ġcompanion": 5756,
      "overy": 5757,
      "Ġunl": 5758,
      "Any": 5759,
      "Ġtax": 5760,
      "Ġbloody": 5761,
      "Ġimprove": 5762,
      "Ġescaped": 5763,
      "Ġrespectively": 5764,
      "Ġawake": 5765,
      "ĠPark": 5766,
      "ige": 5767,
      "Ġupset": 5768,
      "ĠEverything": 5769,
      "ointment": 5770,
      "Ġfancy": 5771,
      "Ġcollege": 5772,
      "ĠCat": 5773,
      "Ġexcellent": 5774,
      "Ġshift": 5775,
      "ĠCle": 5776,
      "Ġaffection": 5777,
      "Ġdaily": 5778,
      "Ġ22": 5779,
      "iable": 5780,
      "abor": 5781,
      "Ġinstr": 5782,
      "uddenly": 5783,
      "ÑĤÐ¾": 5784,
      "Ġpier": 5785,
      "uls": 5786,
      "Ġdecor": 5787,
      "IV": 5788,
      "ĠTra": 5789,
      "Ġcere": 5790,
      "Ġfavorite": 5791,
      "Ġscience": 5792,
      "izz": 5793,
      "ĠAust": 5794,
      "Ġenorm": 5795,
      "Ġenjoyed": 5796,
      "ĠHave": 5797,
      "Ġcentral": 5798,
      "ĠÂ±": 5799,
      "ĠMen": 5800,
      "Ġproduce": 5801,
      "thy": 5802,
      "Ġedges": 5803,
      "isp": 5804,
      "Ġï": 5805,
      "Ġwaste": 5806,
      "Ġpas": 5807,
      "Ġweird": 5808,
      "Ġeen": 5809,
      "Ġawkward": 5810,
      "Ġproperties": 5811,
      "Ġassociated": 5812,
      "Ð¼": 5813,
      "Ġfolded": 5814,
      "Ġtour": 5815,
      "Ġends": 5816,
      "Ġate": 5817,
      "Ġstudents": 5818,
      "eding": 5819,
      "Ġawful": 5820,
      "Ġcontem": 5821,
      "pled": 5822,
      "oh": 5823,
      "Ġhills": 5824,
      "Ġkilling": 5825,
      "Ġmate": 5826,
      "ĠCity": 5827,
      "pha": 5828,
      "Ġblame": 5829,
      "gie": 5830,
      "Ġease": 5831,
      "Ġdensity": 5832,
      "met": 5833,
      "Ġbend": 5834,
      "Ġrom": 5835,
      "Ġoccupied": 5836,
      "Ġinterview": 5837,
      "Ġseek": 5838,
      "ĠKen": 5839,
      "Ġspark": 5840,
      "Ġdefine": 5841,
      "Ġimpression": 5842,
      "Will": 5843,
      "Ġsich": 5844,
      "Get": 5845,
      "Ġquality": 5846,
      "ĠRight": 5847,
      "ĠVictor": 5848,
      "ĠÐ¾": 5849,
      "Ġbreathe": 5850,
      "Ġbat": 5851,
      "then": 5852,
      "Ġtouching": 5853,
      "Ġdrinking": 5854,
      "omin": 5855,
      "ĠEast": 5856,
      "Ġrelation": 5857,
      "OT": 5858,
      "Ġflu": 5859,
      "Ġclasses": 5860,
      "Ġmic": 5861,
      "Ġtort": 5862,
      "Ġpages": 5863,
      "ĠFranc": 5864,
      "Ġlanded": 5865,
      "Ġrecently": 5866,
      "ĠNote": 5867,
      "Ġinnocent": 5868,
      "ĠOb": 5869,
      "Ġbold": 5870,
      "igen": 5871,
      "ĠLuke": 5872,
      "ĠVer": 5873,
      "actions": 5874,
      "ĠSimon": 5875,
      "while": 5876,
      "pless": 5877,
      "Ġaltern": 5878,
      "elling": 5879,
      "ĠPrinc": 5880,
      "Ġchose": 5881,
      "Ġsilk": 5882,
      "Ġhumans": 5883,
      "Ġnaturally": 5884,
      "Ġequally": 5885,
      "ĠRome": 5886,
      "Ġnicht": 5887,
      "Ġengaged": 5888,
      "chief": 5889,
      "Ġheavily": 5890,
      "ĠFred": 5891,
      "ĠJake": 5892,
      "80": 5893,
      "Ġeval": 5894,
      "sm": 5895,
      "iley": 5896,
      "Ġconsidering": 5897,
      "ĠKar": 5898,
      "Ġattached": 5899,
      "Ġpointing": 5900,
      "bly": 5901,
      "Ġfrust": 5902,
      "vy": 5903,
      "Ġsought": 5904,
      "Ar": 5905,
      "Ġinsisted": 5906,
      "ĠBoy": 5907,
      "ĠDen": 5908,
      "Ġtrem": 5909,
      "ĠMorgan": 5910,
      "Ġocean": 5911,
      "32": 5912,
      "Ġraise": 5913,
      "Ġseriously": 5914,
      "hern": 5915,
      "Ġpossibility": 5916,
      "Ġimpat": 5917,
      "ĠVan": 5918,
      "Ġcapital": 5919,
      "Ġglasses": 5920,
      "Ġindependent": 5921,
      "Ġbelt": 5922,
      "Ġtossed": 5923,
      "ĠAh": 5924,
      "ĠTem": 5925,
      "Ġbutter": 5926,
      "Ġsuffer": 5927,
      "39": 5928,
      "Ġridic": 5929,
      "Ġfab": 5930,
      "Ġseparate": 5931,
      "Ġdirt": 5932,
      "Ġsed": 5933,
      "Ġreturning": 5934,
      "fall": 5935,
      "ounds": 5936,
      "Ġexplanation": 5937,
      "acity": 5938,
      "Ġgiant": 5939,
      "Ġthread": 5940,
      "ĠConst": 5941,
      "Ġbelly": 5942,
      "Ġing": 5943,
      "lan": 5944,
      "Ġcarriage": 5945,
      "Ġdull": 5946,
      "ĠPen": 5947,
      "Ġbelief": 5948,
      "ĠChan": 5949,
      "Ġconstr": 5950,
      "ĠPort": 5951,
      "Ġnewsp": 5952,
      "Ġplanned": 5953,
      "His": 5954,
      "ĠDec": 5955,
      "âĪĨ": 5956,
      "Ġhet": 5957,
      "Ġsteam": 5958,
      "Ġpainted": 5959,
      "Ġbree": 5960,
      "Ġcigaret": 5961,
      "ĠOver": 5962,
      "Ġanticip": 5963,
      "Ġuncomfort": 5964,
      "Ġadvice": 5965,
      "Ġconvinced": 5966,
      "ĠST": 5967,
      "Ġfrightened": 5968,
      "Ġtur": 5969,
      "Ġmit": 5970,
      "vi": 5971,
      "Ġrope": 5972,
      "Ġauf": 5973,
      "ĠCent": 5974,
      "Ġflower": 5975,
      "ference": 5976,
      "ĠMill": 5977,
      "peror": 5978,
      "ĠMer": 5979,
      "ĠGal": 5980,
      "Ġliquid": 5981,
      "Ġdetail": 5982,
      "Ġvic": 5983,
      "Ġbuildings": 5984,
      "ĠCarol": 5985,
      "Ġbranches": 5986,
      "Ġleader": 5987,
      "Ġecon": 5988,
      "Ġlightly": 5989,
      "Ġscan": 5990,
      "ilty": 5991,
      "Ġrested": 5992,
      "gend": 5993,
      "âĬ": 5994,
      "Ġavo": 5995,
      "ĠMont": 5996,
      "ila": 5997,
      "Ġsearching": 5998,
      "Ġguns": 5999,
      "case": 6000,
      "ĠRec": 6001,
      "ensional": 6002,
      "uction": 6003,
      "Ġglow": 6004,
      "Ġmultip": 6005,
      "Ġetc": 6006,
      "Ġelectric": 6007,
      "Ġunus": 6008,
      "Ġautom": 6009,
      "ĠLittle": 6010,
      "Ġanswers": 6011,
      "Ġjustice": 6012,
      "ui": 6013,
      "riel": 6014,
      "Ġregarded": 6015,
      "Ġstrict": 6016,
      "Ġcontained": 6017,
      "Ġstair": 6018,
      "Ġprior": 6019,
      "pril": 6020,
      "Ġpopulation": 6021,
      "Ġvalley": 6022,
      "Ġpil": 6023,
      "Ġdas": 6024,
      "umps": 6025,
      "ĠUniversity": 6026,
      "Ġindust": 6027,
      "Me": 6028,
      "fted": 6029,
      "Ġphilos": 6030,
      "works": 6031,
      "Ġfactor": 6032,
      "Ġwarmth": 6033,
      "Ġrolling": 6034,
      "Ġwounded": 6035,
      "ĠLong": 6036,
      "Thanks": 6037,
      "Ġunlike": 6038,
      "Ġpurcha": 6039,
      "ĠCom": 6040,
      "stone": 6041,
      "Ġlabor": 6042,
      "Ġdisg": 6043,
      "Ġnoted": 6044,
      "Ġcollap": 6045,
      "Ġfortune": 6046,
      "Ġfocused": 6047,
      "Ġjeans": 6048,
      "war": 6049,
      "die": 6050,
      "Ġintention": 6051,
      "Ġprince": 6052,
      "och": 6053,
      "Ġmyster": 6054,
      "Ġcousin": 6055,
      "Ġnation": 6056,
      "Ġbench": 6057,
      "ĠUncle": 6058,
      "Ġignored": 6059,
      "ĠFa": 6060,
      "Ġassured": 6061,
      "Ġpuzz": 6062,
      "Ġbadly": 6063,
      "ID": 6064,
      "Ġdelicate": 6065,
      "Ġbutton": 6066,
      "quis": 6067,
      "Ġlosing": 6068,
      "Ġparameter": 6069,
      "Ġnav": 6070,
      "Ġchallen": 6071,
      "anny": 6072,
      "hole": 6073,
      "ĠJer": 6074,
      "ido": 6075,
      "ĠEv": 6076,
      "Ġshr": 6077,
      "acked": 6078,
      "Ġconfusion": 6079,
      "they": 6080,
      "ĠArthur": 6081,
      "Ġdescribe": 6082,
      "ĠJune": 6083,
      "onscious": 6084,
      "Ġbalance": 6085,
      "ĠEt": 6086,
      "AD": 6087,
      "Nothing": 6088,
      "Ġyard": 6089,
      "Ġextremely": 6090,
      "ĠBill": 6091,
      "Ġhorn": 6092,
      "Ġsees": 6093,
      "Every": 6094,
      "Ġvector": 6095,
      "Ġsqueezed": 6096,
      "Ġhoney": 6097,
      "Ġintent": 6098,
      "CT": 6099,
      "Ġju": 6100,
      "Ġkicked": 6101,
      "Ġhoo": 6102,
      "ounce": 6103,
      "ĠKate": 6104,
      "ĠÐ¸": 6105,
      "Ġheels": 6106,
      "Ġhath": 6107,
      "law": 6108,
      "ua": 6109,
      "utenant": 6110,
      "Ġforgot": 6111,
      "Ġreligious": 6112,
      "Ġleads": 6113,
      "Ġoptim": 6114,
      "Ã¡s": 6115,
      "Ġclock": 6116,
      "Ġblur": 6117,
      "Ġcream": 6118,
      "ĠSoc": 6119,
      "Ġtradition": 6120,
      "aving": 6121,
      "Ġupstairs": 6122,
      "Ġseated": 6123,
      "Ġimpress": 6124,
      "Ġgain": 6125,
      "Ġwaters": 6126,
      "Ġportion": 6127,
      "Ġ]": 6128,
      "Ġsymmet": 6129,
      "Ġexcuse": 6130,
      "ici": 6131,
      "Ġdestroyed": 6132,
      "ĠGray": 6133,
      "erves": 6134,
      "Ġtrembling": 6135,
      "ello": 6136,
      "Ġsche": 6137,
      "Ġfant": 6138,
      "ĠâĦĵ": 6139,
      "Ġabrupt": 6140,
      "ĠEdward": 6141,
      "Ġdevelopment": 6142,
      "Ġpoison": 6143,
      "Ġrequest": 6144,
      "ĠDaniel": 6145,
      "ĠTur": 6146,
      "Ġjealous": 6147,
      "Ġemotions": 6148,
      "Ġhighest": 6149,
      "Ġaid": 6150,
      "aren": 6151,
      "issed": 6152,
      "Ġenthus": 6153,
      "Ġtempor": 6154,
      "ĠFour": 6155,
      "Ġsupply": 6156,
      "ĠTime": 6157,
      "ĠNic": 6158,
      "Ġfacts": 6159,
      "ĠDick": 6160,
      "ĠJose": 6161,
      "fa": 6162,
      "iples": 6163,
      "Ġsilently": 6164,
      "Ġcontrast": 6165,
      "âĦĵ": 6166,
      "Ġrole": 6167,
      "isher": 6168,
      "Ġtreatment": 6169,
      "inding": 6170,
      "Sorry": 6171,
      "Ġnin": 6172,
      "Ġhasn": 6173,
      "Ġsequence": 6174,
      "had": 6175,
      "aron": 6176,
      "Ġimages": 6177,
      "ograp": 6178,
      "Ġprotection": 6179,
      "Ġpity": 6180,
      "ware": 6181,
      "Ġplanet": 6182,
      "Ġpace": 6183,
      "ĊĊĠĊĊ": 6184,
      "Ġclen": 6185,
      "Ġeyebrows": 6186,
      "ras": 6187,
      "iture": 6188,
      "rible": 6189,
      "Ġteach": 6190,
      "ĠGreen": 6191,
      "Ġsplit": 6192,
      "Ġwoke": 6193,
      "Ġsmiles": 6194,
      "ĠMarc": 6195,
      "Ġdancing": 6196,
      "ĠDuke": 6197,
      "ĠIsland": 6198,
      "Ġneat": 6199,
      "III": 6200,
      "Ġstruggle": 6201,
      "Ġsalt": 6202,
      "Ġgrateful": 6203,
      "amm": 6204,
      "ĠMarch": 6205,
      "Ġissue": 6206,
      "Ġbackground": 6207,
      "Ġthighs": 6208,
      "Ġcreatures": 6209,
      "Ġruns": 6210,
      "ĠEve": 6211,
      "Ġbasis": 6212,
      "Ġconven": 6213,
      "Ïķ": 6214,
      "Ġvig": 6215,
      "ĠDuring": 6216,
      "Ġveh": 6217,
      "ĠCast": 6218,
      "Ġstrike": 6219,
      "Ġplants": 6220,
      "itute": 6221,
      "Ġperce": 6222,
      "Ġnights": 6223,
      "Ġarrival": 6224,
      "ĠGet": 6225,
      "Ġadvance": 6226,
      "Ġpanic": 6227,
      "Ġcurve": 6228,
      "Ġcentre": 6229,
      "Ġjew": 6230,
      "RO": 6231,
      "Ġbast": 6232,
      "Ġrecognize": 6233,
      "Ġguilty": 6234,
      "ĠAsh": 6235,
      "Ġmassive": 6236,
      "Ġ35": 6237,
      "ĠElizabeth": 6238,
      "jesty": 6239,
      "ĠTor": 6240,
      "Ġenemies": 6241,
      "Ġarranged": 6242,
      "200": 6243,
      "ĠSuddenly": 6244,
      "ois": 6245,
      "Ġdeveloped": 6246,
      "Ġhence": 6247,
      "ĠLaw": 6248,
      "ifying": 6249,
      "75": 6250,
      "Ġfamilies": 6251,
      "31": 6252,
      "Ġdamp": 6253,
      "By": 6254,
      "See": 6255,
      "irts": 6256,
      "Ġsooner": 6257,
      ".''": 6258,
      "Ġhistor": 6259,
      "Ã¼r": 6260,
      "inity": 6261,
      "amped": 6262,
      "Ġabsence": 6263,
      "Ġbless": 6264,
      "uh": 6265,
      "Ġdefinition": 6266,
      "Ġestablished": 6267,
      "Ġriding": 6268,
      "Ġstaying": 6269,
      "Ġrelease": 6270,
      "Ġstable": 6271,
      "Ġtie": 6272,
      "Ġtrace": 6273,
      "urd": 6274,
      "Ġfrequently": 6275,
      "Ġfaded": 6276,
      "Ġfriendly": 6277,
      "Ġgigg": 6278,
      "Ġâİ": 6279,
      "Ġguests": 6280,
      "ijn": 6281,
      "Ġgrowth": 6282,
      "Ġaltogether": 6283,
      "ĠEmily": 6284,
      "Ġox": 6285,
      "ĠFur": 6286,
      "Ġversion": 6287,
      "Ġgrasp": 6288,
      "Ġsank": 6289,
      "four": 6290,
      "Ġdisplay": 6291,
      "orter": 6292,
      "Ġgrat": 6293,
      "Ġnative": 6294,
      "Ġult": 6295,
      "Ġemployed": 6296,
      "Ġwash": 6297,
      "Ġpossession": 6298,
      "Ġprayer": 6299,
      "Ġanybody": 6300,
      "Ġextent": 6301,
      "Ġforb": 6302,
      "ĠSun": 6303,
      "Ġlone": 6304,
      "ĠHon": 6305,
      "ishes": 6306,
      "Ġhelping": 6307,
      "Ġvain": 6308,
      "Ġblanket": 6309,
      "Ġfairly": 6310,
      "Ġtables": 6311,
      "Ġrust": 6312,
      "Ġspat": 6313,
      "Ġgut": 6314,
      "ĠJap": 6315,
      "Ġmixed": 6316,
      "Ġgrief": 6317,
      "Ġflashed": 6318,
      "...\"": 6319,
      "atively": 6320,
      "Ġstead": 6321,
      "ecture": 6322,
      "Ġmile": 6323,
      "Ġlink": 6324,
      "ĠColonel": 6325,
      "Ġstated": 6326,
      "Ġpractically": 6327,
      "Ġfed": 6328,
      "ĠDesp": 6329,
      "Ġunique": 6330,
      ")|": 6331,
      "rend": 6332,
      "ÏĪ": 6333,
      "Ġeverybody": 6334,
      "rep": 6335,
      "asket": 6336,
      "iverse": 6337,
      "Ġthousands": 6338,
      "ĠGrace": 6339,
      "year": 6340,
      "ĠRep": 6341,
      "Ġbone": 6342,
      "Ġhal": 6343,
      "road": 6344,
      "Ġexpressed": 6345,
      "rum": 6346,
      "Ġaccord": 6347,
      "ĠSmith": 6348,
      "Ġtorn": 6349,
      "Ġannounced": 6350,
      "theless": 6351,
      "ĠApril": 6352,
      "Ġvib": 6353,
      "point": 6354,
      "ributed": 6355,
      "ĠEveryone": 6356,
      "Ġnearby": 6357,
      "Ġthrowing": 6358,
      "olate": 6359,
      "Ġnipp": 6360,
      "gypt": 6361,
      "Ġpist": 6362,
      "ĠDem": 6363,
      "Ġham": 6364,
      "Ġknock": 6365,
      "Ġignor": 6366,
      "Ġabsor": 6367,
      "Ġradio": 6368,
      "Ġtrained": 6369,
      "After": 6370,
      "Ġreck": 6371,
      "Ġheading": 6372,
      "Ġefforts": 6373,
      "Ġreligion": 6374,
      "Ġproperly": 6375,
      "omic": 6376,
      "Ġgreatly": 6377,
      "Ġpark": 6378,
      "Ġappropri": 6379,
      "ĠSept": 6380,
      "ĠTell": 6381,
      "ĠCHAPTER": 6382,
      "Ġspirits": 6383,
      "Ġbrushed": 6384,
      "Ġsubs": 6385,
      "Ġchem": 6386,
      "Ġtwist": 6387,
      "Ġactions": 6388,
      "kins": 6389,
      "Ġtemple": 6390,
      "ÑģÑĤ": 6391,
      "expected": 6392,
      "Ġsatisfaction": 6393,
      "Ġexposed": 6394,
      "Ġunit": 6395,
      "ĠDun": 6396,
      "ĠLove": 6397,
      "ĠProposition": 6398,
      "'.": 6399,
      "Ġdwell": 6400,
      "don": 6401,
      "Ġyelled": 6402,
      "Ġvague": 6403,
      "Ġkingdom": 6404,
      "Ġminds": 6405,
      "ĠGra": 6406,
      "Ġreward": 6407,
      "rose": 6408,
      "Ġshoved": 6409,
      "Ġcave": 6410,
      "Ã©s": 6411,
      "irk": 6412,
      "Ġsevere": 6413,
      "Ġresemb": 6414,
      "orious": 6415,
      "Ġstab": 6416,
      "Sure": 6417,
      "Ġrend": 6418,
      "uman": 6419,
      "Ġstern": 6420,
      "Ġsob": 6421,
      "Ġbay": 6422,
      "ĠReg": 6423,
      "iah": 6424,
      "Ġdesired": 6425,
      "Ġcredit": 6426,
      "ĠJess": 6427,
      "Ġangle": 6428,
      "Ġcontains": 6429,
      "ĠEst": 6430,
      "ĠMadame": 6431,
      "Ġtens": 6432,
      "ĠHence": 6433,
      "Ġdrift": 6434,
      "Ġded": 6435,
      "aping": 6436,
      "Ġsuperior": 6437,
      "ĠBab": 6438,
      "Ġske": 6439,
      "ĠCould": 6440,
      "Ġunivers": 6441,
      "Ġcurios": 6442,
      "Ġcryst": 6443,
      "Ġsheet": 6444,
      "Ġfoolish": 6445,
      "Ġconqu": 6446,
      "ĠSupp": 6447,
      "Ġkinds": 6448,
      "UR": 6449,
      "Ġexpecting": 6450,
      "ĠHim": 6451,
      "ĠPri": 6452,
      "Ġcollar": 6453,
      "Ġcurled": 6454,
      "Ġsons": 6455,
      "44": 6456,
      "Ġwee": 6457,
      "Ġchap": 6458,
      "Ġclothing": 6459,
      "God": 6460,
      "outhern": 6461,
      "Very": 6462,
      "Ġpercent": 6463,
      "aze": 6464,
      "Ġassemb": 6465,
      "Ġoperation": 6466,
      "istics": 6467,
      "Ġwicked": 6468,
      "ĠCoun": 6469,
      "Ġclosing": 6470,
      "lling": 6471,
      "Ġpile": 6472,
      "Ġpressing": 6473,
      "Ġsexual": 6474,
      "pling": 6475,
      "Ġsuffered": 6476,
      "Îº": 6477,
      "rael": 6478,
      "Ġstarts": 6479,
      "racted": 6480,
      "vo": 6481,
      "Ġalarm": 6482,
      "Ġhorrible": 6483,
      "Ġsen": 6484,
      "ĠWashing": 6485,
      "pen": 6486,
      "Ġven": 6487,
      "Ġbriefly": 6488,
      "ĠMartin": 6489,
      "Ġdragon": 6490,
      "ĠScot": 6491,
      "Ġdevil": 6492,
      "gon": 6493,
      "Ġbreathed": 6494,
      "iated": 6495,
      "Ġbud": 6496,
      "70": 6497,
      "Ġadvanced": 6498,
      "Ġbore": 6499,
      "asha": 6500,
      "ĠIII": 6501,
      "Ġdiscussion": 6502,
      "SE": 6503,
      "Ð°Ð»": 6504,
      "ushes": 6505,
      "Ġinformed": 6506,
      "cks": 6507,
      "Ġpersu": 6508,
      "Ġlung": 6509,
      "ĠÐº": 6510,
      "Ġcode": 6511,
      "Ġsuccessful": 6512,
      "Ġeffective": 6513,
      "Ġdece": 6514,
      "bling": 6515,
      "ĠTre": 6516,
      "Ġtan": 6517,
      "Ġpractical": 6518,
      "Ġtower": 6519,
      "Ġcorridor": 6520,
      "ĠCur": 6521,
      "acc": 6522,
      "Ġcollection": 6523,
      "Ġconstruction": 6524,
      "Ġscreaming": 6525,
      "Ġsettle": 6526,
      "Ġsuffering": 6527,
      "Ġdrown": 6528,
      "ĠEgypt": 6529,
      "Ġactive": 6530,
      "Ġlover": 6531,
      "Ġhearts": 6532,
      "sect": 6533,
      "Ġremarkable": 6534,
      "Ġdirected": 6535,
      "mond": 6536,
      "Ġsan": 6537,
      "Ġcovering": 6538,
      "Ġlean": 6539,
      "ĠIndeed": 6540,
      "Ġvon": 6541,
      "Ġunexpected": 6542,
      "itory": 6543,
      "icted": 6544,
      "Ġcopy": 6545,
      "ĠDep": 6546,
      "icken": 6547,
      "Ġquantum": 6548,
      "Ġrhy": 6549,
      "Ġdefend": 6550,
      "Ġsuspected": 6551,
      "ĠLouis": 6552,
      "ainted": 6553,
      "Ġbowed": 6554,
      "Ġskill": 6555,
      "ĠSk": 6556,
      "Ġoh": 6557,
      "Ġtitle": 6558,
      "vet": 6559,
      "Ġfired": 6560,
      "Ġpossessed": 6561,
      "ĠMir": 6562,
      "ĠAct": 6563,
      "Ġstartled": 6564,
      "Ġwrit": 6565,
      "Ġcommunity": 6566,
      "Ġacting": 6567,
      "ĠBrown": 6568,
      "Ġrepresented": 6569,
      "Ġsinging": 6570,
      "Ġgesture": 6571,
      "Ġwashed": 6572,
      "ulting": 6573,
      "ords": 6574,
      "Ġcutting": 6575,
      "acious": 6576,
      "bably": 6577,
      "Ġexperienced": 6578,
      "Ġwiped": 6579,
      "acles": 6580,
      "ĠWashington": 6581,
      "Ġfaced": 6582,
      "Ġreduced": 6583,
      "Ġenormous": 6584,
      "Ġhollow": 6585,
      "ĠConn": 6586,
      "Ġmedical": 6587,
      "ĠAfric": 6588,
      "Ġcars": 6589,
      "ĠLand": 6590,
      "hol": 6591,
      "ĠHell": 6592,
      "ĠMoreover": 6593,
      "Right": 6594,
      "Ġgazed": 6595,
      "Ġrelieved": 6596,
      "ĠMod": 6597,
      "Ġworthy": 6598,
      "Ġunb": 6599,
      "41": 6600,
      "Ġsisters": 6601,
      "onder": 6602,
      "Ġpow": 6603,
      "Ġrecomm": 6604,
      "ela": 6605,
      "Ġaunt": 6606,
      "rer": 6607,
      "Ġactivity": 6608,
      "Ġslammed": 6609,
      "Ġprincipal": 6610,
      "Ġprinciple": 6611,
      "Ġmovements": 6612,
      "Ġsecure": 6613,
      "Ġbigger": 6614,
      "Ġobserve": 6615,
      "Ġtrial": 6616,
      "05": 6617,
      "Ġblew": 6618,
      "ommy": 6619,
      "Ġhelpless": 6620,
      "uine": 6621,
      "down": 6622,
      "onents": 6623,
      "based": 6624,
      "Ġoverw": 6625,
      "Ġnest": 6626,
      "berg": 6627,
      "Ġgodd": 6628,
      "Ġatm": 6629,
      "Ġearnest": 6630,
      "Ġdefe": 6631,
      "Ġpolite": 6632,
      "Ġsorrow": 6633,
      "Ġnumerous": 6634,
      "ĠRay": 6635,
      "friend": 6636,
      "ĠGreek": 6637,
      "Ġfourth": 6638,
      "Ġgrav": 6639,
      "Ġfacing": 6640,
      "unning": 6641,
      "Ġarchit": 6642,
      "Ġestablish": 6643,
      "Ġdeliber": 6644,
      "Ġprecious": 6645,
      "Ġresting": 6646,
      "Ġnurse": 6647,
      "Le": 6648,
      "ĠRev": 6649,
      "Ġwhist": 6650,
      "Ġrecon": 6651,
      "Ġdining": 6652,
      "ĠSomeone": 6653,
      "Ġperformed": 6654,
      "Ġformal": 6655,
      "Ġlod": 6656,
      "ags": 6657,
      "umble": 6658,
      "apping": 6659,
      "ĠNext": 6660,
      "Ġeggs": 6661,
      "Ġmole": 6662,
      "ago": 6663,
      "ĠDev": 6664,
      "anna": 6665,
      "ĠCarl": 6666,
      "Ġbrush": 6667,
      "Ġpublished": 6668,
      "ja": 6669,
      "Ġsubm": 6670,
      "Ġvampire": 6671,
      "Ġbrilliant": 6672,
      "ĠProf": 6673,
      "Ġexhausted": 6674,
      "Ġlou": 6675,
      "ĠWhatever": 6676,
      "isms": 6677,
      "Ġreference": 6678,
      "Ġadditional": 6679,
      "ober": 6680,
      "Ġsentence": 6681,
      "Ġpurple": 6682,
      "Ġsheep": 6683,
      "Ġgrowled": 6684,
      "Ġchuckled": 6685,
      "ĠRachel": 6686,
      "Ġfeather": 6687,
      "Ġsplend": 6688,
      "Ġgentlemen": 6689,
      "Ã¢": 6690,
      "bon": 6691,
      "Ñħ": 6692,
      "uzz": 6693,
      "bye": 6694,
      "Ġcared": 6695,
      "Ġjudgment": 6696,
      "Ġstudent": 6697,
      "Ġconsequence": 6698,
      "Ġdirections": 6699,
      "Ġrestaur": 6700,
      "ĠVen": 6701,
      "Ġsoot": 6702,
      "Ġvia": 6703,
      "amps": 6704,
      "ĠCass": 6705,
      "Ġplastic": 6706,
      "ĠTrans": 6707,
      "Her": 6708,
      "Ġgroaned": 6709,
      "ĠSur": 6710,
      "Ġguide": 6711,
      "Ġpainful": 6712,
      "Ġsignificant": 6713,
      "Qu": 6714,
      "just": 6715,
      "Ġbreeze": 6716,
      "Ġexception": 6717,
      "Ġexchange": 6718,
      "ĠLar": 6719,
      "48": 6720,
      "atically": 6721,
      "Un": 6722,
      "Ġprepar": 6723,
      "udes": 6724,
      "Ġactiv": 6725,
      "Ġinput": 6726,
      "Ġmoves": 6727,
      "Ġimmediate": 6728,
      "ĠJoseph": 6729,
      "Ġoffering": 6730,
      "Ġvariety": 6731,
      "ĠItal": 6732,
      "Ġimagination": 6733,
      "Ġbru": 6734,
      "ĠJuly": 6735,
      "inese": 6736,
      "Ġsolemn": 6737,
      "Ġcareer": 6738,
      "mann": 6739,
      "Ġunfortun": 6740,
      "Ġintr": 6741,
      "Ġseized": 6742,
      "Ġboundary": 6743,
      "Ġphotograph": 6744,
      "Ġvide": 6745,
      "Ġagreement": 6746,
      "Ġstruggled": 6747,
      "Ġextraord": 6748,
      "Ġcamera": 6749,
      "Ġstring": 6750,
      "Ġkeeps": 6751,
      "ĠClaire": 6752,
      "ĠBook": 6753,
      "dim": 6754,
      "Ġdiscussed": 6755,
      "ĠDet": 6756,
      "uable": 6757,
      "Ġbund": 6758,
      "Ġnowhere": 6759,
      "iner": 6760,
      "ĠTO": 6761,
      "ĠâĹ¦": 6762,
      "ÃĹ": 6763,
      "Ã©e": 6764,
      "ĠLook": 6765,
      "ĠGold": 6766,
      "Ġcav": 6767,
      "Ġguilt": 6768,
      "Ġamazing": 6769,
      "Ġsurprising": 6770,
      "ĠSub": 6771,
      "Ġstudies": 6772,
      "Ġchairs": 6773,
      "Ġthunder": 6774,
      "Ġvul": 6775,
      "ĠShan": 6776,
      "Ġboss": 6777,
      "eff": 6778,
      "Ġglory": 6779,
      "Ġprosp": 6780,
      "Ġtap": 6781,
      "ĠBilly": 6782,
      "Ġharsh": 6783,
      "ĠÎ£": 6784,
      "Like": 6785,
      "Ġgenuine": 6786,
      "erent": 6787,
      "Ġdign": 6788,
      "Ġsharply": 6789,
      "Ġholy": 6790,
      "Ġbitch": 6791,
      "Ġ36": 6792,
      "Ġcitiz": 6793,
      "ĠHor": 6794,
      "01": 6795,
      "ĠJam": 6796,
      "ĠMarg": 6797,
      "issa": 6798,
      "Ġpartner": 6799,
      "cel": 6800,
      "Ġproportion": 6801,
      "Ġloving": 6802,
      "gence": 6803,
      "AB": 6804,
      "Ġwing": 6805,
      "adem": 6806,
      "Ġcuriosity": 6807,
      "Ġspun": 6808,
      "Ġinvited": 6809,
      "Ġank": 6810,
      "Ġchanging": 6811,
      "Ġorange": 6812,
      "ĠThank": 6813,
      "ona": 6814,
      "Ġwarned": 6815,
      "Ġconstantly": 6816,
      "Ġeducation": 6817,
      "ĠPet": 6818,
      "Ġbowl": 6819,
      "THE": 6820,
      "Ġatmosp": 6821,
      "Ġshining": 6822,
      "olves": 6823,
      "Ġcells": 6824,
      "ĠRen": 6825,
      "ĠBal": 6826,
      "Ġequations": 6827,
      "Ġreplaced": 6828,
      "Ġsuspect": 6829,
      "aph": 6830,
      "Ġoverwhel": 6831,
      "Ġincreasing": 6832,
      "Ġdeliver": 6833,
      "Ġcateg": 6834,
      "Ġbelonged": 6835,
      "ounded": 6836,
      "arian": 6837,
      "ĠPre": 6838,
      "kend": 6839,
      "Ġimpact": 6840,
      "Ġcompanions": 6841,
      "ĠDam": 6842,
      "ĠRel": 6843,
      "Ġresponsible": 6844,
      "ba": 6845,
      "Ġapproaching": 6846,
      "Ġdistur": 6847,
      "isten": 6848,
      "Ġsevent": 6849,
      "ĠRussian": 6850,
      ",[": 6851,
      "ĠGreg": 6852,
      "ĠStar": 6853,
      "Ġintim": 6854,
      "ĠHy": 6855,
      "Ġscattered": 6856,
      "Ġhint": 6857,
      "Ġhunting": 6858,
      "ran": 6859,
      "Ġsucceeded": 6860,
      "Ġreven": 6861,
      "Ġrelaxed": 6862,
      "Ġmoral": 6863,
      "Ġdenote": 6864,
      "eav": 6865,
      "Ġbegins": 6866,
      "Ġballs": 6867,
      "ĠJapan": 6868,
      "Ġcontroll": 6869,
      "Ġdegrees": 6870,
      "Ġsensation": 6871,
      "ĠÂłĠÂł": 6872,
      "IM": 6873,
      "omial": 6874,
      "Ġnearest": 6875,
      "Ġspare": 6876,
      "ĠLog": 6877,
      "ĠLi": 6878,
      "Ġgames": 6879,
      "Ġtale": 6880,
      "ĠHoly": 6881,
      "Ġarticle": 6882,
      "uits": 6883,
      "ĠLight": 6884,
      "ĠJacob": 6885,
      "Ġlanding": 6886,
      "ĠGermany": 6887,
      "Ġplanning": 6888,
      "47": 6889,
      "Ġdisease": 6890,
      "Ġfasc": 6891,
      "Ġreflect": 6892,
      "Ġprisoner": 6893,
      "rium": 6894,
      "Ġincluded": 6895,
      "Ġfalls": 6896,
      "ĠIndians": 6897,
      "Ġcontrary": 6898,
      "ourse": 6899,
      "46": 6900,
      "Ġclimb": 6901,
      "Ġaccompanied": 6902,
      "99": 6903,
      "ĠHard": 6904,
      "Ġkissing": 6905,
      "umes": 6906,
      "Ġabandoned": 6907,
      "ORD": 6908,
      "ĠTake": 6909,
      "ya": 6910,
      "Ġscrew": 6911,
      "Ġlimited": 6912,
      "Cl": 6913,
      "Ġconclusion": 6914,
      "rick": 6915,
      "Ġfan": 6916,
      "Ġfer": 6917,
      "Ġmedic": 6918,
      "Ġshocked": 6919,
      "Ġapply": 6920,
      "Ġrevealed": 6921,
      "Ġamuse": 6922,
      "Ġouter": 6923,
      "uffled": 6924,
      "Perhaps": 6925,
      "´ï£´ï£": 6926,
      "Ġclever": 6927,
      "Ġpretend": 6928,
      "Ġreass": 6929,
      "ÐµÐ½": 6930,
      "Ġcritical": 6931,
      "Ġideal": 6932,
      "ĠPhys": 6933,
      "Ġpredict": 6934,
      "Ġfeared": 6935,
      "Ġsniff": 6936,
      "annah": 6937,
      "Ġvanished": 6938,
      "Ġremarked": 6939,
      "Ġmonster": 6940,
      "Ġfabric": 6941,
      "Ġsingular": 6942,
      "Ġpulls": 6943,
      "Ġexceed": 6944,
      "Ġvisited": 6945,
      "ĠSqu": 6946,
      "Ġjoke": 6947,
      "Ġom": 6948,
      "Ġoperator": 6949,
      "ĠMount": 6950,
      "thern": 6951,
      "Ġgown": 6952,
      "Ġphr": 6953,
      "Ġcreate": 6954,
      "there": 6955,
      "Ġincident": 6956,
      "ĠMess": 6957,
      "Ġclenched": 6958,
      "rm": 6959,
      "Ġdesert": 6960,
      "uration": 6961,
      "icate": 6962,
      "low": 6963,
      "Ġcontinuous": 6964,
      "atural": 6965,
      "uer": 6966,
      "urance": 6967,
      "tes": 6968,
      "steps": 6969,
      "loe": 6970,
      "Ġsoil": 6971,
      "ensions": 6972,
      "artment": 6973,
      "neath": 6974,
      "Ġflames": 6975,
      "aturday": 6976,
      "car": 6977,
      "Ä±": 6978,
      "Ġ60": 6979,
      "ĠSum": 6980,
      "Ġattacked": 6981,
      "Ġfile": 6982,
      "ĠJackson": 6983,
      "ĠËĨ": 6984,
      "Ġlun": 6985,
      "wr": 6986,
      "Ġprisoners": 6987,
      "Ġplatform": 6988,
      "Ġshade": 6989,
      "Ġflut": 6990,
      "ĠIsrael": 6991,
      "astern": 6992,
      "ĠMid": 6993,
      "ĠNorm": 6994,
      "Ġ\"'": 6995,
      "Ġconfident": 6996,
      "Ġaudience": 6997,
      "Ġchannel": 6998,
      "opher": 6999,
      "standing": 7000,
      "Ġstub": 7001,
      "ĠTod": 7002,
      "Ġmask": 7003,
      "Ġunp": 7004,
      "Ġsample": 7005,
      "Ġtypes": 7006,
      "Ġcliff": 7007,
      "Ġdamage": 7008,
      "ĠWorld": 7009,
      "Ġ!": 7010,
      "isk": 7011,
      "iveness": 7012,
      "acon": 7013,
      "Ġuncomfortable": 7014,
      "ĠÇ«": 7015,
      "Ġflame": 7016,
      "vest": 7017,
      "ĠDou": 7018,
      "Ġreluct": 7019,
      "Ġhundreds": 7020,
      "ĠLat": 7021,
      "ĠThrough": 7022,
      "geon": 7023,
      "ĠChinese": 7024,
      "ĠGa": 7025,
      "Would": 7026,
      "ums": 7027,
      "Ġresour": 7028,
      "Ġviolent": 7029,
      "Ġtucked": 7030,
      "oop": 7031,
      "ĠFel": 7032,
      "ĠWood": 7033,
      "ardon": 7034,
      "ĠLee": 7035,
      "Ġroot": 7036,
      "Ãº": 7037,
      "Ġ186": 7038,
      "ĠFort": 7039,
      "ĠBell": 7040,
      "gly": 7041,
      "Ġhem": 7042,
      "inder": 7043,
      "Ġbearing": 7044,
      "Ġkeys": 7045,
      "irm": 7046,
      "Ġbeard": 7047,
      "Ġbranch": 7048,
      "Ġscheme": 7049,
      "Ġbackward": 7050,
      "Ġbub": 7051,
      "Ġdrank": 7052,
      "ĠBa": 7053,
      "Ġtransfer": 7054,
      "Ġnegative": 7055,
      "ĠLau": 7056,
      "Ġexped": 7057,
      "Ġsliding": 7058,
      "Ġcards": 7059,
      "Î©": 7060,
      "Ġguest": 7061,
      "Ġdespair": 7062,
      "Ġjerked": 7063,
      "Ġendeav": 7064,
      "US": 7065,
      "othes": 7066,
      "Ġstrongly": 7067,
      "bor": 7068,
      "Ġsugar": 7069,
      "inen": 7070,
      "Ġfeature": 7071,
      "ÑĪ": 7072,
      "Ġaffairs": 7073,
      "Ġprotest": 7074,
      "Ġparties": 7075,
      "boy": 7076,
      "Ġstriking": 7077,
      "Ġevidently": 7078,
      "Ġsenses": 7079,
      "Ġdang": 7080,
      "Ġloves": 7081,
      "Ġlust": 7082,
      "geant": 7083,
      "Ġpig": 7084,
      "ĠAmy": 7085,
      "Ġprompt": 7086,
      "Ġcorn": 7087,
      "ĠDay": 7088,
      "keeper": 7089,
      "Ġfilling": 7090,
      "Ġtension": 7091,
      "ĠCa": 7092,
      "non": 7093,
      "ĠFrancis": 7094,
      "wing": 7095,
      "ĠHol": 7096,
      "Ġyeah": 7097,
      "ÐµÑĤ": 7098,
      "anked": 7099,
      "\"âĢĶ": 7100,
      "attering": 7101,
      "long": 7102,
      "Ġstopping": 7103,
      "Ġgates": 7104,
      "Ġneighbour": 7105,
      "Ġcorrel": 7106,
      "ĠLife": 7107,
      "Ġskirt": 7108,
      "Ġobst": 7109,
      "Ġruin": 7110,
      "Ġfrozen": 7111,
      "Ġdatas": 7112,
      "Ġporch": 7113,
      "Ġgradually": 7114,
      "Ġsway": 7115,
      "this": 7116,
      "Ġling": 7117,
      "raged": 7118,
      "encies": 7119,
      "Ġloudly": 7120,
      "arc": 7121,
      "Ġwire": 7122,
      "ĠLo": 7123,
      "ĠÏĩ": 7124,
      "ano": 7125,
      "Ġloyal": 7126,
      "ĠDespite": 7127,
      "Ġremove": 7128,
      "Ġliterature": 7129,
      "Ġmighty": 7130,
      "Ġimplies": 7131,
      "ĠSecond": 7132,
      "Ġward": 7133,
      "Ġobservation": 7134,
      "ĠOctober": 7135,
      "90": 7136,
      "ules": 7137,
      "Ġflick": 7138,
      "Ġmarks": 7139,
      "ĠHill": 7140,
      "Ġorn": 7141,
      "win": 7142,
      "Ġalgebra": 7143,
      "Ġhug": 7144,
      "ĠTurn": 7145,
      "42": 7146,
      "Ġpron": 7147,
      "Ġlikes": 7148,
      "Ġconcept": 7149,
      "Ġdelivered": 7150,
      "Ġenviron": 7151,
      "retched": 7152,
      "Ġdug": 7153,
      "ilst": 7154,
      "ĠEric": 7155,
      "Ġagents": 7156,
      "agg": 7157,
      "Ġ''": 7158,
      "Ġmild": 7159,
      "Ġthrone": 7160,
      "Ġparking": 7161,
      "umin": 7162,
      "Ġexperiments": 7163,
      "Ġextend": 7164,
      "ipt": 7165,
      "ĠErin": 7166,
      "ĠÎĽ": 7167,
      "fr": 7168,
      "Ġbeating": 7169,
      "Ġestate": 7170,
      "Ġpregn": 7171,
      "Ġnotion": 7172,
      "Ġseparated": 7173,
      "Ġkick": 7174,
      "Ġattitude": 7175,
      "Ġproduc": 7176,
      "Ġih": 7177,
      "Ġconsc": 7178,
      "ocity": 7179,
      "Ġequivalent": 7180,
      "Ġcrowded": 7181,
      "Ġlands": 7182,
      "Does": 7183,
      "ĠSel": 7184,
      "ĠDark": 7185,
      "ucle": 7186,
      "ĠTV": 7187,
      "Ġinvari": 7188,
      "Ġunusual": 7189,
      "Ġtraffic": 7190,
      "ilton": 7191,
      "ĠMaggie": 7192,
      "ĠMike": 7193,
      "Ġsofa": 7194,
      "Ġskull": 7195,
      "Ġfled": 7196,
      "Ġlamp": 7197,
      "Ġscal": 7198,
      "ĠAndrew": 7199,
      "//": 7200,
      "ĠSaturday": 7201,
      "Ġscru": 7202,
      "Ġdownstairs": 7203,
      "Ġcharged": 7204,
      "dro": 7205,
      "55": 7206,
      "Ġinterior": 7207,
      "edy": 7208,
      "Ġaffair": 7209,
      "Ġarmed": 7210,
      "ĠFurther": 7211,
      "Ġnarrowed": 7212,
      "iral": 7213,
      "ĠTay": 7214,
      "Ġdish": 7215,
      "mark": 7216,
      "Ġhopes": 7217,
      "osure": 7218,
      "arant": 7219,
      "Ġcore": 7220,
      "bec": 7221,
      "Ġparall": 7222,
      "Ġresponded": 7223,
      "Ġwalks": 7224,
      "cont": 7225,
      "Ġcigarette": 7226,
      "TH": 7227,
      "Ġslide": 7228,
      "Ġthoroughly": 7229,
      "Ġobliged": 7230,
      "ava": 7231,
      "Ġintelligence": 7232,
      "Ġbars": 7233,
      "Ġhorizon": 7234,
      "ĠAnne": 7235,
      "49": 7236,
      "âĪĤ": 7237,
      "Ġgrandmother": 7238,
      "Ġshiver": 7239,
      "Ġundert": 7240,
      "Wait": 7241,
      "Ġscow": 7242,
      "Ġprecisely": 7243,
      "two": 7244,
      "shirt": 7245,
      "Ġuniverse": 7246,
      "ĠSpanish": 7247,
      "Ġ),": 7248,
      "Ġneut": 7249,
      "reshold": 7250,
      "Ġlux": 7251,
      "Ġpulse": 7252,
      "Ġchallenge": 7253,
      "Tr": 7254,
      "Ġunn": 7255,
      "Ġunha": 7256,
      "Ġlayer": 7257,
      "Ġintroduce": 7258,
      "ilib": 7259,
      "Ġmode": 7260,
      "Ġpaying": 7261,
      "Ġsucked": 7262,
      "Ġviolence": 7263,
      "Ġcontaining": 7264,
      "Ġmistress": 7265,
      "Ġcrou": 7266,
      "Ġshed": 7267,
      "Ġcub": 7268,
      "Ġcum": 7269,
      "Ġretain": 7270,
      "Îĵ": 7271,
      "ĠHeaven": 7272,
      "Ġpleas": 7273,
      "á½": 7274,
      "ĠBrian": 7275,
      "Ġpolicy": 7276,
      "Ġexercise": 7277,
      "Ġraw": 7278,
      "AG": 7279,
      "Ġveget": 7280,
      "Ġfever": 7281,
      "ĠHaw": 7282,
      "Ġconsp": 7283,
      "Ġpunishment": 7284,
      "ĠSever": 7285,
      "Ġarrive": 7286,
      "Ġmicro": 7287,
      "Ġshooting": 7288,
      "Ġcomparison": 7289,
      "Ġridiculous": 7290,
      "Take": 7291,
      "Ġdesigned": 7292,
      "sters": 7293,
      "Ġnarr": 7294,
      "Ġadmin": 7295,
      "ĠRow": 7296,
      "Ġsurrounding": 7297,
      "Ġeleg": 7298,
      "Ġdomin": 7299,
      "OD": 7300,
      "Ġsubjects": 7301,
      "Ġmystery": 7302,
      "Ġfriendship": 7303,
      "Ġimpatient": 7304,
      "Ġreflection": 7305,
      "Ġbeam": 7306,
      "kind": 7307,
      "Ġpp": 7308,
      "ĠJosh": 7309,
      "Ġgripped": 7310,
      "fect": 7311,
      "ĠNik": 7312,
      "Ġfinds": 7313,
      "ĠJeff": 7314,
      "Ġperman": 7315,
      "Ġutterly": 7316,
      "imm": 7317,
      "Ġbuzz": 7318,
      "ĠJean": 7319,
      "Ġappreciate": 7320,
      "ĠTri": 7321,
      "ĠÎ¦": 7322,
      "hetic": 7323,
      "iate": 7324,
      "Ġshat": 7325,
      "Ġobsc": 7326,
      "ĠGovernment": 7327,
      "Ġguessed": 7328,
      "Ġengage": 7329,
      "Ġforgive": 7330,
      "Ġclaimed": 7331,
      "Ġquantity": 7332,
      "ĠVirgin": 7333,
      "Ġsilly": 7334,
      "Ġ?": 7335,
      "Ġsurvive": 7336,
      "Ġpillow": 7337,
      "Ġdrops": 7338,
      "!âĢĶ": 7339,
      "ww": 7340,
      "Ġidentity": 7341,
      "Ġglob": 7342,
      "ĠLind": 7343,
      "obody": 7344,
      "Ġugly": 7345,
      "aying": 7346,
      "Ġmercy": 7347,
      "Ġoccasionally": 7348,
      "uge": 7349,
      "Ġil": 7350,
      "essa": 7351,
      "Ġcomposed": 7352,
      "ĠAbout": 7353,
      "Ġowner": 7354,
      "Ġtunnel": 7355,
      "Ġfierce": 7356,
      "Ġdisgust": 7357,
      "Ġtransp": 7358,
      "Ġvalid": 7359,
      "Â°": 7360,
      "Ġkeen": 7361,
      "Ġpreced": 7362,
      "Ġevolution": 7363,
      "armed": 7364,
      "Ġcommitted": 7365,
      "may": 7366,
      "Ġcompre": 7367,
      "ĠAle": 7368,
      "ĠSoon": 7369,
      "Ġvaluable": 7370,
      "ĠLes": 7371,
      "ĠLu": 7372,
      "ĠEmp": 7373,
      "Ġcloak": 7374,
      "Ġwitch": 7375,
      "Ġtightened": 7376,
      "Ġmovie": 7377,
      "ructed": 7378,
      "Ġfortun": 7379,
      "Ġbasket": 7380,
      "Ġreview": 7381,
      "Ġangel": 7382,
      "Ġdomain": 7383,
      "gency": 7384,
      "Ġstraw": 7385,
      "Ġleaf": 7386,
      "Ġscram": 7387,
      "Ġinsist": 7388,
      "Ġphen": 7389,
      "Ġgang": 7390,
      "Ġanxiety": 7391,
      "Ġcarpet": 7392,
      "Ġdecre": 7393,
      "ston": 7394,
      "Ġamongst": 7395,
      "ĠRuth": 7396,
      "ĠDiv": 7397,
      "outs": 7398,
      "Ġthreatened": 7399,
      "ĠNove": 7400,
      "atherine": 7401,
      "ÐµÑĢ": 7402,
      "agram": 7403,
      "Ġdistrict": 7404,
      "Ġsupper": 7405,
      "Ġpermission": 7406,
      "Ġ38": 7407,
      "Ġmidst": 7408,
      "ender": 7409,
      "ĠAlso": 7410,
      "Ġdram": 7411,
      "Ġcord": 7412,
      "dimensional": 7413,
      "Ġmeasures": 7414,
      "Ġbot": 7415,
      "ĠKn": 7416,
      "Ġcenturies": 7417,
      "Ġindicated": 7418,
      "ĠNoah": 7419,
      "Ġpicking": 7420,
      "ĠSat": 7421,
      "Ġrequires": 7422,
      "Ġmour": 7423,
      "ito": 7424,
      "omething": 7425,
      "rison": 7426,
      "lim": 7427,
      "erer": 7428,
      "Ġsufficiently": 7429,
      "Ġquarters": 7430,
      "ĠMatt": 7431,
      "Ġirrit": 7432,
      "Ġextraordinary": 7433,
      "Ġhood": 7434,
      "Ġcash": 7435,
      "Ġneighborhood": 7436,
      "Ġmultiple": 7437,
      "Ġacquaint": 7438,
      "From": 7439,
      "ĠMerc": 7440,
      "ĠJason": 7441,
      "Ġglared": 7442,
      "ĠCong": 7443,
      "ements": 7444,
      "ĠBec": 7445,
      "isible": 7446,
      "Ġindex": 7447,
      "Ġdepends": 7448,
      "Ġcommanded": 7449,
      "Ġslaves": 7450,
      "Ġdivided": 7451,
      "ĠHun": 7452,
      "Ġfleet": 7453,
      "alls": 7454,
      "ĠEle": 7455,
      "Ġoperations": 7456,
      "vals": 7457,
      "Ġadult": 7458,
      "Ġ37": 7459,
      "43": 7460,
      "Ġinhabit": 7461,
      "Ġcollected": 7462,
      "Ġproced": 7463,
      "Ġaddressed": 7464,
      "Ġcompact": 7465,
      "Ġdetermine": 7466,
      "Ġelbow": 7467,
      "Ġunderneath": 7468,
      "Ġgained": 7469,
      "Ġabruptly": 7470,
      "rons": 7471,
      "ĠFre": 7472,
      "after": 7473,
      "raft": 7474,
      "Ġtore": 7475,
      "Ġcontext": 7476,
      "ributions": 7477,
      "Ġera": 7478,
      "pent": 7479,
      "tis": 7480,
      "ieur": 7481,
      "Ġgal": 7482,
      "Ġgeneration": 7483,
      "oded": 7484,
      "Ġuseless": 7485,
      "Ġevident": 7486,
      "part": 7487,
      "Ġexplos": 7488,
      "Ġformula": 7489,
      "raction": 7490,
      "olar": 7491,
      "Ġnational": 7492,
      "sch": 7493,
      "empted": 7494,
      "hast": 7495,
      "Ġbounded": 7496,
      "bury": 7497,
      "Ġfurniture": 7498,
      "burg": 7499,
      "who": 7500,
      "Ġspiritual": 7501,
      "entially": 7502,
      "Ġexamined": 7503,
      "ĠHist": 7504,
      "Ġgoal": 7505,
      "gered": 7506,
      "Ġtempt": 7507,
      "Ġfury": 7508,
      "Ġgif": 7509,
      "ĠCouncil": 7510,
      "Ġgorge": 7511,
      "ĠHaving": 7512,
      "Ġcolors": 7513,
      "Ġenjoying": 7514,
      "gid": 7515,
      "Ġbrings": 7516,
      "OW": 7517,
      "rical": 7518,
      "ĠItalian": 7519,
      "cr": 7520,
      "usive": 7521,
      "Ġlonely": 7522,
      "ggy": 7523,
      "umph": 7524,
      "Ġscra": 7525,
      "Ġelder": 7526,
      "Ġboo": 7527,
      "Ġspine": 7528,
      "Ġstol": 7529,
      "Ġplus": 7530,
      "Ġwishes": 7531,
      "ĠPresident": 7532,
      "Ġuses": 7533,
      "Ð¾Ð²": 7534,
      "Ġroute": 7535,
      "Ġseed": 7536,
      "ressing": 7537,
      "ĠDie": 7538,
      "azed": 7539,
      "Ġsteep": 7540,
      "ĠToo": 7541,
      "Ġsympathy": 7542,
      "Ġlan": 7543,
      "Ġcoord": 7544,
      "AY": 7545,
      "water": 7546,
      "Ġcities": 7547,
      "Ġsacred": 7548,
      "acht": 7549,
      "ĠBra": 7550,
      "Ġpeered": 7551,
      "je": 7552,
      "Ġped": 7553,
      "Ġrubbing": 7554,
      "Ġeleven": 7555,
      "lotte": 7556,
      "rary": 7557,
      "Ġinclude": 7558,
      "Ġrarely": 7559,
      "Ġmes": 7560,
      "Ġstudying": 7561,
      "lers": 7562,
      "Ġmidnight": 7563,
      "Ġartist": 7564,
      "Ġcurse": 7565,
      "Ġspaces": 7566,
      "rating": 7567,
      "Ġcracked": 7568,
      "Ġessential": 7569,
      "Ġbenefit": 7570,
      "Ġthreshold": 7571,
      "Ġlawyer": 7572,
      "Ġsacrifice": 7573,
      "Mrs": 7574,
      "Ġeaten": 7575,
      "Ġestimate": 7576,
      "Ġtin": 7577,
      "Ġplot": 7578,
      "ĠIV": 7579,
      "Ġdiscovery": 7580,
      "Ġze": 7581,
      "Ġignore": 7582,
      "Ġpartly": 7583,
      "Ġsecrets": 7584,
      "://": 7585,
      "Ġachieve": 7586,
      "Ġprincess": 7587,
      "ĠÂ«": 7588,
      "lich": 7589,
      "Ġcrossing": 7590,
      "Ġlocation": 7591,
      "Ġadjust": 7592,
      "foot": 7593,
      "abb": 7594,
      "Ġweekend": 7595,
      "Ġelectron": 7596,
      "Ġrights": 7597,
      "Ġbunch": 7598,
      "Ġsque": 7599,
      "Ġ).": 7600,
      "Ġwisdom": 7601,
      "Ġlungs": 7602,
      "ĠLaura": 7603,
      "ĠRoyal": 7604,
      "itty": 7605,
      "Ġ~": 7606,
      "ĠMex": 7607,
      "Ġsubsequ": 7608,
      "yes": 7609,
      "Ġgir": 7610,
      "ĠPap": 7611,
      "Ġsmelled": 7612,
      "ĠSav": 7613,
      "Ġcraft": 7614,
      "Ġrecover": 7615,
      "Ġallowing": 7616,
      "Ġlately": 7617,
      "Ġcontempl": 7618,
      "ĠSophie": 7619,
      "Ġpurse": 7620,
      "orous": 7621,
      "Ġrepresentation": 7622,
      "ĠNone": 7623,
      "Ġpainting": 7624,
      "Ġash": 7625,
      "Ġtrunk": 7626,
      "Ġproceeded": 7627,
      "Ġstal": 7628,
      "ĠRand": 7629,
      "aba": 7630,
      "ollow": 7631,
      "Ġshaft": 7632,
      "ĠBern": 7633,
      "Ġshelter": 7634,
      "Ġconsciousness": 7635,
      "Ġbatt": 7636,
      "________": 7637,
      "Ġgeomet": 7638,
      "Ġgay": 7639,
      "Ġlimbs": 7640,
      "Ġter": 7641,
      "Ġsunlight": 7642,
      "Ġleaders": 7643,
      "ĠMajesty": 7644,
      "Ġvariables": 7645,
      "Ġdynamics": 7646,
      "ĠSie": 7647,
      "Ġsprang": 7648,
      "Ġimmense": 7649,
      "Ġbirthday": 7650,
      "Ġflung": 7651,
      "Ġreputation": 7652,
      "ĠSeptember": 7653,
      "Ġtas": 7654,
      "ĠRog": 7655,
      "Ġcloset": 7656,
      "Ġmetric": 7657,
      "Ġrestaurant": 7658,
      "Ġsnar": 7659,
      "ĠTH": 7660,
      "ĠâĬĤ": 7661,
      "xture": 7662,
      "ĠÐ´": 7663,
      "Ġdropping": 7664,
      "thm": 7665,
      "Ġdivine": 7666,
      "ifer": 7667,
      "Ġapplication": 7668,
      "Ġrefuse": 7669,
      "Was": 7670,
      "Ġsheets": 7671,
      "Ġfootsteps": 7672,
      "ĠVol": 7673,
      "ĠÑĤ": 7674,
      "Ġmeasured": 7675,
      "Ġnods": 7676,
      "ĠÐ¼": 7677,
      "Ġceased": 7678,
      "lict": 7679,
      "Ġblo": 7680,
      "ĠChloe": 7681,
      "immer": 7682,
      "ĠArab": 7683,
      "uate": 7684,
      "Ġsite": 7685,
      "Ġcausing": 7686,
      "Ġreader": 7687,
      "Ġsolutions": 7688,
      "Ġduties": 7689,
      "Ġhid": 7690,
      "Ġsouls": 7691,
      "ĠGer": 7692,
      "Ġsupported": 7693,
      "Ġremo": 7694,
      "aver": 7695,
      "Ġteaching": 7696,
      "Ġcombination": 7697,
      "Ġfulf": 7698,
      "Ġmysterious": 7699,
      "Ġting": 7700,
      "Ġaloud": 7701,
      "Ġcorp": 7702,
      "bal": 7703,
      "Ġkne": 7704,
      "Ġconcerning": 7705,
      "Ġbacked": 7706,
      "Ġatmosphere": 7707,
      "onsieur": 7708,
      "Ġurge": 7709,
      "Ġvictory": 7710,
      "hh": 7711,
      "Ġrings": 7712,
      "Ġtrap": 7713,
      "iÃ³n": 7714,
      "Ġsits": 7715,
      "ĠBig": 7716,
      "Ġsore": 7717,
      "unction": 7718,
      "olve": 7719,
      "Ġsang": 7720,
      "Ġsched": 7721,
      "Ab": 7722,
      "vision": 7723,
      "ĠâĪ©": 7724,
      "ĠRom": 7725,
      "elia": 7726,
      "Ġvoy": 7727,
      "95": 7728,
      "Ġ45": 7729,
      "Ġacknowled": 7730,
      "Ġbid": 7731,
      "Ġdamned": 7732,
      "ategy": 7733,
      "Ġlifting": 7734,
      "ĠHelen": 7735,
      "Ġcaptured": 7736,
      "Ġdesperately": 7737,
      "ufact": 7738,
      "ĠDeath": 7739,
      "Ġspotted": 7740,
      "Ġpenet": 7741,
      "ivia": 7742,
      "Ġinterpret": 7743,
      "Ġtransition": 7744,
      "odes": 7745,
      "Ġsaddle": 7746,
      "ĠDis": 7747,
      "Ġfailure": 7748,
      "lands": 7749,
      "Ġeyebrow": 7750,
      "ĠDoes": 7751,
      "Ġcandle": 7752,
      "hend": 7753,
      "Ġappropriate": 7754,
      "Ġboot": 7755,
      "Ġputs": 7756,
      "EM": 7757,
      "Ġupward": 7758,
      "ĠFire": 7759,
      "Ġacts": 7760,
      "Ġparted": 7761,
      "Ġol": 7762,
      "ashes": 7763,
      "Ġstruggling": 7764,
      "Ġmotor": 7765,
      "rec": 7766,
      "Ġmaximum": 7767,
      "Ġamid": 7768,
      "Ġinvestigation": 7769,
      "Ġstumbled": 7770,
      "Ġdeny": 7771,
      "Ġremote": 7772,
      "Ġcorners": 7773,
      "Ġblocks": 7774,
      "Ġraising": 7775,
      "Ġsearched": 7776,
      "uding": 7777,
      "section": 7778,
      "leg": 7779,
      "ĠËľ": 7780,
      "ĠVery": 7781,
      "Ġattempted": 7782,
      "umping": 7783,
      "Ġfinanc": 7784,
      "ĠMass": 7785,
      "rad": 7786,
      "estic": 7787,
      "Ġinternal": 7788,
      "Ġ#": 7789,
      "Ġconsideration": 7790,
      "Ġlur": 7791,
      "Ġselected": 7792,
      "abel": 7793,
      "Ġhousehold": 7794,
      "Ġdared": 7795,
      "Ġrude": 7796,
      "ĠðĿĲ": 7797,
      "Ġdisappointed": 7798,
      "Ġgathering": 7799,
      "Ġrecords": 7800,
      "Ġtransport": 7801,
      "Ġexamples": 7802,
      "Ġchapter": 7803,
      "Pro": 7804,
      "Ġload": 7805,
      "Ġdried": 7806,
      "oked": 7807,
      "ĠSyl": 7808,
      "Ġexisted": 7809,
      "ustomed": 7810,
      "Ġaffected": 7811,
      "Never": 7812,
      "Ġboxes": 7813,
      "Ġconstruct": 7814,
      "Ġkisses": 7815,
      "ntil": 7816,
      "Ġmaps": 7817,
      "Ġrent": 7818,
      "anta": 7819,
      "uffed": 7820,
      "Ġsensitive": 7821,
      "uations": 7822,
      "Ġhaul": 7823,
      "Ġmiserable": 7824,
      "Ġreaches": 7825,
      "Ġcottage": 7826,
      "ĠIrish": 7827,
      "Ġnearer": 7828,
      "ĠHan": 7829,
      "Ġgap": 7830,
      "ĠSon": 7831,
      "ĠWhe": 7832,
      "ĠArch": 7833,
      "Ġanch": 7834,
      "Ġfence": 7835,
      "Ġshouting": 7836,
      "Ġpacked": 7837,
      "Ġpalms": 7838,
      "Ġsixty": 7839,
      "Ġequip": 7840,
      "Ġholes": 7841,
      "78": 7842,
      "ĠBlake": 7843,
      "ĠâĹı": 7844,
      "ĠAz": 7845,
      "vol": 7846,
      "OS": 7847,
      "Ġweakness": 7848,
      "Ġstretch": 7849,
      "Ġnecessity": 7850,
      "Ġgoods": 7851,
      "ulating": 7852,
      "Ġpockets": 7853,
      "ĠBlood": 7854,
      "greg": 7855,
      "add": 7856,
      "Ġderived": 7857,
      "Ġreact": 7858,
      "ĠTommy": 7859,
      "ĠFore": 7860,
      "inkled": 7861,
      "Ġservices": 7862,
      "Ġbags": 7863,
      "Ġinterests": 7864,
      "Ġintellect": 7865,
      "Ġstress": 7866,
      "Ġinfinite": 7867,
      "Ġchamp": 7868,
      "Ġbasic": 7869,
      "oning": 7870,
      "Ġhunt": 7871,
      "kered": 7872,
      "Ġstrategy": 7873,
      "Ġ(âĪĴ": 7874,
      "Ġpreviously": 7875,
      "Ġchill": 7876,
      "Ġcatching": 7877,
      "ogue": 7878,
      "erior": 7879,
      "ĠTar": 7880,
      "Ġinstructions": 7881,
      "rait": 7882,
      "mod": 7883,
      "ĠBlue": 7884,
      "Ġreveal": 7885,
      "Ġstroke": 7886,
      "Ġemerged": 7887,
      "rine": 7888,
      "Ġlots": 7889,
      "Ġcries": 7890,
      "ĠBre": 7891,
      "herent": 7892,
      "Ġmagnific": 7893,
      "mony": 7894,
      "Ġfid": 7895,
      "Ġhyper": 7896,
      "Ġparallel": 7897,
      "Ġreflected": 7898,
      "Ġwriter": 7899,
      "ĠMus": 7900,
      "Ġreferred": 7901,
      "ĠCath": 7902,
      "Ġmarble": 7903,
      "zo": 7904,
      "bell": 7905,
      "vial": 7906,
      "irs": 7907,
      "amental": 7908,
      "his": 7909,
      "ÏĤ": 7910,
      "Ġlined": 7911,
      "usions": 7912,
      "Ġfists": 7913,
      "Ġiv": 7914,
      "Ġflour": 7915,
      "ĠSpec": 7916,
      "ĠPrincess": 7917,
      "utch": 7918,
      "Ġga": 7919,
      "Ġadventure": 7920,
      "Ġbrows": 7921,
      "Ġsuck": 7922,
      "ĠNa": 7923,
      "esp": 7924,
      "Ġelevator": 7925,
      "sper": 7926,
      "Ġindign": 7927,
      "Ġgau": 7928,
      "Ġtrusted": 7929,
      "Ġprofessional": 7930,
      "Ġshortly": 7931,
      "anks": 7932,
      "Ġoutl": 7933,
      "Ġsafely": 7934,
      "Ġdeserve": 7935,
      "Ġpup": 7936,
      "irled": 7937,
      "Ġik": 7938,
      "Ġcauses": 7939,
      "Ġcharming": 7940,
      "Ġbegged": 7941,
      "Ġmail": 7942,
      "ĠCharlotte": 7943,
      "Ġkindly": 7944,
      "Ġinclined": 7945,
      "vation": 7946,
      "Ġwre": 7947,
      "Ġconsum": 7948,
      "ĠAlexander": 7949,
      "Ġechoed": 7950,
      "Ġmounted": 7951,
      "angle": 7952,
      "Ġcircles": 7953,
      "ĠWall": 7954,
      "Ġinev": 7955,
      "ĠNature": 7956,
      "asses": 7957,
      "Ġlegal": 7958,
      "Ġbastard": 7959,
      "stein": 7960,
      "Ġdepos": 7961,
      "ĠGrant": 7962,
      "Ġresid": 7963,
      "oding": 7964,
      "Ġchildhood": 7965,
      "mes": 7966,
      "Ġacted": 7967,
      "itated": 7968,
      "Ġintensity": 7969,
      "85": 7970,
      "Ġrecovered": 7971,
      "angs": 7972,
      "Ġ`": 7973,
      "Ġlightning": 7974,
      "Ġpolit": 7975,
      "ĠSin": 7976,
      "Ġshy": 7977,
      "Ġdrug": 7978,
      "Ġabund": 7979,
      "Ġdimension": 7980,
      "atching": 7981,
      "ĠTaylor": 7982,
      "Ġcontents": 7983,
      "Ġacid": 7984,
      "iolet": 7985,
      "Ġadding": 7986,
      "Ġupright": 7987,
      "Ġscore": 7988,
      "Ġdumb": 7989,
      "asty": 7990,
      "ĠMet": 7991,
      "ez": 7992,
      "Ġconfess": 7993,
      "Ġwounds": 7994,
      "Ġexpensive": 7995,
      "ĠSaint": 7996,
      "bridge": 7997,
      "Ġknelt": 7998,
      "Ġsuspicion": 7999,
      "ĠÂ§": 8000,
      "Ġarrow": 8001,
      "Ġimplement": 8002,
      "uan": 8003,
      "ĠMaria": 8004,
      "fol": 8005,
      "roup": 8006,
      "Ġplun": 8007,
      "Ġnerves": 8008,
      "06": 8009,
      "Ġexcess": 8010,
      "Ġals": 8011,
      "Ġbrick": 8012,
      "Ġcompleted": 8013,
      "unched": 8014,
      "ĠNovember": 8015,
      "ĠLORD": 8016,
      "ĠAllah": 8017,
      "Really": 8018,
      "ĠPan": 8019,
      "ĠLake": 8020,
      "ĠChief": 8021,
      "Ġparticip": 8022,
      "Ġcoinc": 8023,
      "Ñİ": 8024,
      "Ġcalculated": 8025,
      "hire": 8026,
      "Ġpipe": 8027,
      "Ġboats": 8028,
      "ĠSen": 8029,
      "Ġinstrument": 8030,
      "Ġlargest": 8031,
      "Ġ;": 8032,
      "ĠMargaret": 8033,
      "Ġargue": 8034,
      "itter": 8035,
      "Ð¾Ð¼": 8036,
      "Ġscre": 8037,
      "Ġreports": 8038,
      "Ġoverhead": 8039,
      "Ġexpert": 8040,
      "enses": 8041,
      "ĠPhilip": 8042,
      "ben": 8043,
      "Ġindiff": 8044,
      "Ġguarant": 8045,
      "âĢĶ'": 8046,
      "Ġmarch": 8047,
      "Ġcher": 8048,
      "Ġbullet": 8049,
      "Ġscientific": 8050,
      "Hello": 8051,
      "ili": 8052,
      "Ġgenius": 8053,
      "Cha": 8054,
      "ibilities": 8055,
      "even": 8056,
      "Ġrepresents": 8057,
      "bru": 8058,
      "Ġthrob": 8059,
      "rett": 8060,
      "Ġprinciples": 8061,
      "Ġadopted": 8062,
      "eem": 8063,
      "anding": 8064,
      "ĠDa": 8065,
      "Ġcheap": 8066,
      "Ġhip": 8067,
      "ooper": 8068,
      "opy": 8069,
      "Ġparked": 8070,
      "Ġpod": 8071,
      "Ġcrept": 8072,
      "Ġgrounds": 8073,
      "Ġdestruction": 8074,
      "Ġdelay": 8075,
      "ĠNight": 8076,
      "Ġpond": 8077,
      "Ġcommunication": 8078,
      "Ġreasonable": 8079,
      "Ġtoler": 8080,
      "Ġterrified": 8081,
      "Ġflag": 8082,
      "Ġrifle": 8083,
      "Ð¾Ð»": 8084,
      "Ġpersp": 8085,
      "Ġvert": 8086,
      "Ġswallow": 8087,
      "Ġ31": 8088,
      "Ġ32": 8089,
      "Ġdick": 8090,
      "oster": 8091,
      "Ġweary": 8092,
      "Ġexecution": 8093,
      "Ġpurposes": 8094,
      "Ġdiamond": 8095,
      "Ġfaithful": 8096,
      "Ġencoun": 8097,
      "Ġconj": 8098,
      "faced": 8099,
      "Ġdelighted": 8100,
      "Ġwagon": 8101,
      "Mar": 8102,
      "Ġdies": 8103,
      "ĠâĢ¦\"": 8104,
      "rations": 8105,
      "Ġinvisible": 8106,
      "ĠBry": 8107,
      "Ġemphas": 8108,
      "76": 8109,
      "Ġflushed": 8110,
      "Ġsatisfy": 8111,
      "Â»": 8112,
      "Ġsym": 8113,
      "Ġamused": 8114,
      "Ġcharm": 8115,
      "Ġnucle": 8116,
      "Ġprem": 8117,
      "Ġindul": 8118,
      "Ġenvironment": 8119,
      "Ġtransm": 8120,
      "andra": 8121,
      "Ġfrequency": 8122,
      "ima": 8123,
      "astian": 8124,
      "Ġinsect": 8125,
      "Ġcountries": 8126,
      "Ġregions": 8127,
      "Ġglowing": 8128,
      "ĠPut": 8129,
      "ĠHamilton": 8130,
      "haired": 8131,
      "ĠBrand": 8132,
      "Ġpatience": 8133,
      "Ġnewspaper": 8134,
      "box": 8135,
      "Ġrepeat": 8136,
      "ĠÂ¯": 8137,
      "Ġslope": 8138,
      "icial": 8139,
      "Ġsigned": 8140,
      "ÄĻ": 8141,
      "rying": 8142,
      "Ġsorts": 8143,
      "Ġminor": 8144,
      "Ġkiller": 8145,
      "ĠWind": 8146,
      "Ġvideo": 8147,
      "Ġunconscious": 8148,
      "Ġlatt": 8149,
      "Ġages": 8150,
      "Ġconfirmed": 8151,
      "ĠFro": 8152,
      "Ġbew": 8153,
      "ĠDefinition": 8154,
      "stri": 8155,
      "Ġwhilst": 8156,
      "Ġheal": 8157,
      "ĠCy": 8158,
      "cut": 8159,
      "ĠMajor": 8160,
      "hamed": 8161,
      "ĠðĿľ": 8162,
      "ĠProfessor": 8163,
      "ĠBas": 8164,
      "Ġmuscle": 8165,
      "\",": 8166,
      "cember": 8167,
      "Ġdrifted": 8168,
      "Ġseeking": 8169,
      "96": 8170,
      "when": 8171,
      "Ġfears": 8172,
      "force": 8173,
      "Ġsurvey": 8174,
      "Ġcollect": 8175,
      "udder": 8176,
      "Ġvariable": 8177,
      "Ġsuitable": 8178,
      "Ġimpressed": 8179,
      "ilibrium": 8180,
      "Ġfellows": 8181,
      "unned": 8182,
      "Ġsymbol": 8183,
      "Ġtoes": 8184,
      "Ġattain": 8185,
      "Ġmanufact": 8186,
      "Ġdil": 8187,
      "Ġdetect": 8188,
      "Ġefficient": 8189,
      "Ġtracks": 8190,
      "gain": 8191,
      "Ġrhythm": 8192,
      "Ġobservations": 8193,
      "Ãµ": 8194,
      "ailing": 8195,
      "Ġtray": 8196,
      "Ġclearing": 8197,
      "sell": 8198,
      "Ġassistance": 8199,
      "Ġconvince": 8200,
      "Ġpounding": 8201,
      "ĠIre": 8202,
      "ĠWater": 8203,
      "04": 8204,
      "ulted": 8205,
      "Ġplates": 8206,
      "Ġruined": 8207,
      "Ġvehicle": 8208,
      "ĠMond": 8209,
      "Ġjournal": 8210,
      "Ġpreferred": 8211,
      "Ġhomes": 8212,
      "una": 8213,
      "Ġist": 8214,
      "Ġsurre": 8215,
      "ĠMas": 8216,
      "olation": 8217,
      "Ġmortal": 8218,
      "ĠJay": 8219,
      "ĠGen": 8220,
      "Ġproduction": 8221,
      "ĠEqu": 8222,
      "Ġtilted": 8223,
      "ĠBost": 8224,
      "Ġappointed": 8225,
      "ĠDaddy": 8226,
      "Ġhissed": 8227,
      "Ġfee": 8228,
      "ĠLast": 8229,
      "ĠOff": 8230,
      "ĠGabriel": 8231,
      "Ġmoaned": 8232,
      "UL": 8233,
      "ĠTen": 8234,
      "avy": 8235,
      "Ġcontempt": 8236,
      "ATION": 8237,
      "ĠSn": 8238,
      "Ġlesson": 8239,
      "Ġroots": 8240,
      "ĠdÃ©": 8241,
      "erie": 8242,
      "Ġstolen": 8243,
      "iques": 8244,
      "ÐµÐ»": 8245,
      "Ġcapacity": 8246,
      "Ġallows": 8247,
      "Ġbits": 8248,
      "88": 8249,
      "aughters": 8250,
      "Ġeigen": 8251,
      "ĠUsing": 8252,
      "Ġcovers": 8253,
      "Ġdistinguished": 8254,
      "Ġworship": 8255,
      "Ġresponsibility": 8256,
      "Ġframework": 8257,
      "Ġgrandfather": 8258,
      "quar": 8259,
      "Ġpairs": 8260,
      "ittee": 8261,
      "ĊĊĊĊ": 8262,
      "Ġcharacters": 8263,
      "Ġcomo": 8264,
      "Ġnecessarily": 8265,
      "ĠNumber": 8266,
      "56": 8267,
      "Ġinher": 8268,
      "Ġvelocity": 8269,
      "Ġfucked": 8270,
      "Ġlimits": 8271,
      "Ġintern": 8272,
      "ptions": 8273,
      "heart": 8274,
      "Ġratt": 8275,
      "Ġconsists": 8276,
      "aleb": 8277,
      "Ġopens": 8278,
      "Ġcasual": 8279,
      "ĠJanuary": 8280,
      "Ġmurdered": 8281,
      "Ġtapped": 8282,
      "Ġforcing": 8283,
      "iforn": 8284,
      "Ġadminist": 8285,
      "Ġcurves": 8286,
      "ĠFair": 8287,
      "Ġarbit": 8288,
      "Ġprepare": 8289,
      "ĠAaron": 8290,
      "},": 8291,
      "Ġveins": 8292,
      "Ġassign": 8293,
      "Ġmagaz": 8294,
      "Ġhealthy": 8295,
      "Ġfeast": 8296,
      "Ġaccuracy": 8297,
      "thew": 8298,
      "erate": 8299,
      "Ġvary": 8300,
      "Ġcapture": 8301,
      "Ġembarrassed": 8302,
      "ĠFriday": 8303,
      "bby": 8304,
      "ĠWay": 8305,
      "ĠSi": 8306,
      "Ġentering": 8307,
      "Ġfloating": 8308,
      "ĠJones": 8309,
      "Ġinterval": 8310,
      "Ġteen": 8311,
      "Ġeighteen": 8312,
      "Ġsaving": 8313,
      "Ġcombined": 8314,
      "âĢĺ": 8315,
      "irable": 8316,
      "Ġlegend": 8317,
      "ĠConf": 8318,
      "formation": 8319,
      "Ġovert": 8320,
      "Ġashamed": 8321,
      "Ġlevels": 8322,
      "Ġboyfriend": 8323,
      "Ġcarved": 8324,
      "Ġflex": 8325,
      "Ã¥": 8326,
      "Ġbored": 8327,
      "Ġmathem": 8328,
      "Ġoutput": 8329,
      "pert": 8330,
      "Ġsnap": 8331,
      "Ġshone": 8332,
      "ĠEarl": 8333,
      "Ġwo": 8334,
      "Ġembrace": 8335,
      "Ġtools": 8336,
      "Ġdressing": 8337,
      "Ġforming": 8338,
      "ĠJamie": 8339,
      "Ġblast": 8340,
      "ĠRod": 8341,
      "98": 8342,
      "ĠCompany": 8343,
      "Ġresolution": 8344,
      "Ġcalmly": 8345,
      "Ġborrow": 8346,
      "Ġfest": 8347,
      "ĠJulian": 8348,
      "fire": 8349,
      "Ġrein": 8350,
      "ĠâĨ": 8351,
      "Ġaccent": 8352,
      "Ġripped": 8353,
      "phan": 8354,
      "ĠIl": 8355,
      "ĠBack": 8356,
      "ĠSa": 8357,
      "Ġdevoted": 8358,
      "ĠBrad": 8359,
      "ĠPass": 8360,
      "Ġliberty": 8361,
      "Ġdescended": 8362,
      "ĠBu": 8363,
      "Ġtrapped": 8364,
      "Ġjoint": 8365,
      "Ġbanks": 8366,
      "ophy": 8367,
      "Ãł": 8368,
      "irit": 8369,
      "Ġglare": 8370,
      "hor": 8371,
      "esc": 8372,
      "iger": 8373,
      "Only": 8374,
      "nels": 8375,
      "Ġconcrete": 8376,
      "Ġtowel": 8377,
      "Ġresolved": 8378,
      "chers": 8379,
      "Ġwandered": 8380,
      "oub": 8381,
      "ĠIll": 8382,
      "arently": 8383,
      "ĠAmong": 8384,
      "oration": 8385,
      "ĠMist": 8386,
      "Ġstroked": 8387,
      "Ġclassical": 8388,
      "Ġhij": 8389,
      "Ġrobe": 8390,
      "Ġexplicit": 8391,
      "ĠArmy": 8392,
      "}.": 8393,
      "yard": 8394,
      "wed": 8395,
      "Ġreturns": 8396,
      "ĠBeing": 8397,
      "ĠMia": 8398,
      "riet": 8399,
      "world": 8400,
      "Ġawa": 8401,
      "Ġanswering": 8402,
      "Ġsplendid": 8403,
      "lfriend": 8404,
      "iour": 8405,
      "Ġpositions": 8406,
      "ĠSpe": 8407,
      "Ġremembering": 8408,
      "erences": 8409,
      "Ġbol": 8410,
      "Ġkindness": 8411,
      "Ġcontrad": 8412,
      "Ġpistol": 8413,
      "ĠProt": 8414,
      "Ġbelongs": 8415,
      "mat": 8416,
      "hall": 8417,
      "ications": 8418,
      "Ġinquir": 8419,
      "Ġhtt": 8420,
      "ĠâĬĨ": 8421,
      "Ġchoc": 8422,
      ".Â«": 8423,
      "Ġfog": 8424,
      "Ġpatterns": 8425,
      "Stop": 8426,
      "Ġ\\": 8427,
      "ician": 8428,
      "âī¤": 8429,
      "Ġshakes": 8430,
      "ĠSpr": 8431,
      "Ġwarn": 8432,
      "Ġcattle": 8433,
      "ĠNeither": 8434,
      "ĠCamp": 8435,
      "ĠBeth": 8436,
      "Ġpolyn": 8437,
      "Ġtheorem": 8438,
      "ĠDer": 8439,
      "Ġassumption": 8440,
      "Ġstim": 8441,
      "ĠIndia": 8442,
      "Ġamusement": 8443,
      "Ġsus": 8444,
      "ĠMama": 8445,
      "ĠSeveral": 8446,
      "ĠPers": 8447,
      "Ġmoist": 8448,
      "isation": 8449,
      "Ġwidened": 8450,
      "ĠRick": 8451,
      "Ġdreadful": 8452,
      "Ġì": 8453,
      "ĠUS": 8454,
      "Ġdealing": 8455,
      "ldom": 8456,
      "Ġcandid": 8457,
      "Ġorgasm": 8458,
      "ĠCole": 8459,
      "Ġstraightened": 8460,
      "ĠCas": 8461,
      "vas": 8462,
      "coming": 8463,
      "arded": 8464,
      "Ġsavage": 8465,
      "ĠCross": 8466,
      "agan": 8467,
      "Jo": 8468,
      "ĠCaliforn": 8469,
      "Ð½Ð¾": 8470,
      "Ġnetworks": 8471,
      "ĠMcC": 8472,
      "Ġtough": 8473,
      "Ġshove": 8474,
      "Ġancest": 8475,
      "Ġattractive": 8476,
      "Ġcotton": 8477,
      "Ġslender": 8478,
      "EE": 8479,
      "Ġpert": 8480,
      "³Ð¾": 8481,
      "Ġlic": 8482,
      "ĠSara": 8483,
      "ĠStone": 8484,
      "Ġstirred": 8485,
      "ĠLisa": 8486,
      "bour": 8487,
      "osal": 8488,
      "Ġstops": 8489,
      "Ġpresident": 8490,
      "ĠSchool": 8491,
      "Ġsupplies": 8492,
      "Ġphoto": 8493,
      "Ġcharacteristic": 8494,
      "top": 8495,
      "ĠAdd": 8496,
      "eration": 8497,
      "Ġdelicious": 8498,
      "Ġwarrior": 8499,
      "Ġoverl": 8500,
      "ĠChina": 8501,
      "ĠÃ¼": 8502,
      "Ġspeaks": 8503,
      "Ġcomplicated": 8504,
      "PS": 8505,
      "Ġfuneral": 8506,
      "iciency": 8507,
      "bro": 8508,
      "Ġuniversal": 8509,
      "scape": 8510,
      "ĠDoctor": 8511,
      "Ġsources": 8512,
      "upp": 8513,
      "Ġrescue": 8514,
      "ĠAccording": 8515,
      "Ġmixture": 8516,
      "attoo": 8517,
      "Ġdun": 8518,
      "ĠItaly": 8519,
      "Ġexhaust": 8520,
      "02": 8521,
      "ĠDecember": 8522,
      "Ġsentiment": 8523,
      "eman": 8524,
      "Ġcoal": 8525,
      "Ġglancing": 8526,
      "Ġric": 8527,
      "Ġchecking": 8528,
      "Ġzijn": 8529,
      "Ġnations": 8530,
      "Ġviews": 8531,
      "Ġsnorted": 8532,
      "Ġhandful": 8533,
      "Ġinhabitants": 8534,
      "Ġcomponents": 8535,
      "lets": 8536,
      "Ġsteal": 8537,
      "Hi": 8538,
      "rot": 8539,
      "Ġdense": 8540,
      "inations": 8541,
      "Ġpatch": 8542,
      "iament": 8543,
      "arn": 8544,
      "ario": 8545,
      "ugs": 8546,
      "Ġsust": 8547,
      "IA": 8548,
      "Ġappe": 8549,
      "Ġshudd": 8550,
      "Sp": 8551,
      "Ġdoct": 8552,
      "Ġcage": 8553,
      "Ġconvenient": 8554,
      "ĠRoss": 8555,
      "á¼": 8556,
      "ordan": 8557,
      "sk": 8558,
      "Ġcritic": 8559,
      "Ġmemor": 8560,
      "impse": 8561,
      "Ġattended": 8562,
      "Ġentry": 8563,
      "Ġcouncil": 8564,
      "De": 8565,
      "ĠEmperor": 8566,
      "Ġgestured": 8567,
      "Ġaccustomed": 8568,
      "Ġregarding": 8569,
      "chen": 8570,
      "Ġhalfway": 8571,
      "isha": 8572,
      "Ġjet": 8573,
      "inth": 8574,
      "Ġretrie": 8575,
      "Â±": 8576,
      "Ġfraction": 8577,
      "ĠIan": 8578,
      "Ġpasses": 8579,
      "irling": 8580,
      "Ġselect": 8581,
      "Ġidentify": 8582,
      "Ġprivile": 8583,
      "Ġgranted": 8584,
      "erring": 8585,
      "Ġlouder": 8586,
      "Ġslightest": 8587,
      "Ġah": 8588,
      "Ġlicked": 8589,
      "Ġresistance": 8590,
      "Ġconvey": 8591,
      "shot": 8592,
      "Ġcheese": 8593,
      "Ġelabor": 8594,
      "Ġelsewhere": 8595,
      "ĠÐ±": 8596,
      "Ġglimpse": 8597,
      "âĪĩ": 8598,
      "Sir": 8599,
      "Ġunhappy": 8600,
      "Ġpolynomial": 8601,
      "Ġqui": 8602,
      "Ġgenerous": 8603,
      "illian": 8604,
      "ĠAtl": 8605,
      "asions": 8606,
      "ĠSix": 8607,
      "Ġwhereas": 8608,
      "Ġidiot": 8609,
      "ĠWalter": 8610,
      "Ġtugged": 8611,
      "Ġnails": 8612,
      "Ġaus": 8613,
      "Ġtriumph": 8614,
      "Ġindicate": 8615,
      "ban": 8616,
      "Ġbos": 8617,
      "Ġseats": 8618,
      "Ġstrode": 8619,
      "Am": 8620,
      "Ġspear": 8621,
      "Ġcontinu": 8622,
      "Ġfroze": 8623,
      "Ġarticles": 8624,
      "Ġterritory": 8625,
      "ĠRu": 8626,
      "Ġhunger": 8627,
      "Ġchim": 8628,
      "ĠTony": 8629,
      "Ġsexy": 8630,
      "Ġdiagram": 8631,
      "ĠStan": 8632,
      "Ġquad": 8633,
      "?âĢĶ": 8634,
      "istry": 8635,
      "Ġstructures": 8636,
      "velope": 8637,
      "Ġlawn": 8638,
      "Ġau": 8639,
      "ĠBoston": 8640,
      "Ġtomb": 8641,
      "ĠMean": 8642,
      "Bl": 8643,
      "Ġspray": 8644,
      "Ġsyn": 8645,
      "ador": 8646,
      "Ġindividuals": 8647,
      "Ġfurious": 8648,
      "Ġabsurd": 8649,
      "ĠHope": 8650,
      "Ġcompass": 8651,
      "Ġdans": 8652,
      "ĠSU": 8653,
      "Ġmajority": 8654,
      "lings": 8655,
      "ogen": 8656,
      "Ġsquir": 8657,
      "ĠChris": 8658,
      "onsense": 8659,
      "Ġspecim": 8660,
      "Ġconsequences": 8661,
      "ĠGard": 8662,
      "azz": 8663,
      "Ġbeings": 8664,
      "ĠEnd": 8665,
      ".;": 8666,
      "aus": 8667,
      "Ġprocesses": 8668,
      "Ġresulting": 8669,
      "inating": 8670,
      "xi": 8671,
      "engers": 8672,
      "duction": 8673,
      "Ġrushing": 8674,
      "Ġvirtue": 8675,
      "Ġarrangement": 8676,
      "Ġroar": 8677,
      "Ġhier": 8678,
      "ĠCase": 8679,
      "Ġoptimal": 8680,
      "from": 8681,
      "orth": 8682,
      "Ġblessed": 8683,
      "quet": 8684,
      "Ġfluid": 8685,
      "Ġdanced": 8686,
      "Ġ×": 8687,
      "CE": 8688,
      "leton": 8689,
      "mble": 8690,
      "Ġinfant": 8691,
      "Ð°Ðº": 8692,
      "Ġaspect": 8693,
      "Ġreception": 8694,
      "Ġglorious": 8695,
      "Fine": 8696,
      "Ġprovides": 8697,
      "86": 8698,
      "Ġconcentration": 8699,
      "ĠMatthew": 8700,
      "Ġeyel": 8701,
      "iden": 8702,
      "ĠGiven": 8703,
      "Ġdetective": 8704,
      "Ġmagnetic": 8705,
      "enance": 8706,
      "useum": 8707,
      "Ġsip": 8708,
      "Ġfare": 8709,
      "Ġpregnant": 8710,
      "Ġours": 8711,
      "Ġverte": 8712,
      "oting": 8713,
      "Ġshallow": 8714,
      "ĠRam": 8715,
      "Ġpolic": 8716,
      "ĠOx": 8717,
      "uffs": 8718,
      "Ġfinancial": 8719,
      "Ġdaughters": 8720,
      "Ġembed": 8721,
      "ĠLew": 8722,
      "olas": 8723,
      "Ġexamine": 8724,
      "ĠLooking": 8725,
      "sion": 8726,
      "Ġapproaches": 8727,
      "Ġunm": 8728,
      "ester": 8729,
      "Ġgrant": 8730,
      "Ġgorgeous": 8731,
      "Ġintend": 8732,
      "Ġpreparing": 8733,
      "Ã¨re": 8734,
      "Ġstrangers": 8735,
      "Ġdial": 8736,
      "weet": 8737,
      "Ġalley": 8738,
      "Ġwaving": 8739,
      "ĠLeon": 8740,
      "Ġfreely": 8741,
      "Ġdarling": 8742,
      ")]": 8743,
      "Ġstepping": 8744,
      "Ġtypical": 8745,
      "plex": 8746,
      "Ġstrain": 8747,
      "ollen": 8748,
      "ĠShad": 8749,
      "Ġendless": 8750,
      "Ġstole": 8751,
      "89": 8752,
      "Ġbarn": 8753,
      "ample": 8754,
      "Our": 8755,
      "Ġequipment": 8756,
      "udge": 8757,
      "Ġsixteen": 8758,
      "77": 8759,
      "ĠNational": 8760,
      "aign": 8761,
      "Ġplanted": 8762,
      "ĠHay": 8763,
      "Ġdepartment": 8764,
      "aux": 8765,
      "teenth": 8766,
      "Ġswing": 8767,
      "Ġinterf": 8768,
      "unte": 8769,
      "En": 8770,
      "ĠSuppose": 8771,
      "walk": 8772,
      "Ġfolk": 8773,
      "ĠSea": 8774,
      "Ġliterally": 8775,
      "Ġpowder": 8776,
      "ogene": 8777,
      "Ġpitch": 8778,
      "Ġbin": 8779,
      "Ġbride": 8780,
      "cribed": 8781,
      "Ġdepths": 8782,
      "Ġratio": 8783,
      "ĠPier": 8784,
      "ayer": 8785,
      "Ġrecalled": 8786,
      "will": 8787,
      "ĠMonday": 8788,
      "Ġpanel": 8789,
      "Ġprocedure": 8790,
      "ooped": 8791,
      "Ġdecent": 8792,
      "Ġenvelope": 8793,
      "Ġsolve": 8794,
      "emon": 8795,
      "itors": 8796,
      "hings": 8797,
      "cription": 8798,
      "Ġkin": 8799,
      "Ġderiv": 8800,
      "iasm": 8801,
      "ĠShould": 8802,
      "Ð¿": 8803,
      "Ġdrinks": 8804,
      "Ġtreasure": 8805,
      "ĠXX": 8806,
      "ĠIsa": 8807,
      "Ġimpul": 8808,
      "Ġpraise": 8809,
      "Ġbacks": 8810,
      "arer": 8811,
      "Ġrecoll": 8812,
      "Ġeagerly": 8813,
      "ĠLieutenant": 8814,
      "Ġpresents": 8815,
      "Ã´": 8816,
      "Ġoption": 8817,
      "ques": 8818,
      "Ġgirlfriend": 8819,
      "some": 8820,
      "ĠOd": 8821,
      "Ġslapped": 8822,
      "asper": 8823,
      "headed": 8824,
      "akers": 8825,
      "Ġowned": 8826,
      "Ġhumanity": 8827,
      "Ġexit": 8828,
      "Ġaccounts": 8829,
      "ecess": 8830,
      "Ġconfig": 8831,
      "Ġsleeve": 8832,
      "shine": 8833,
      ")-": 8834,
      "Ġurged": 8835,
      "Ġbundle": 8836,
      "bruary": 8837,
      "Ġdisappointment": 8838,
      "Ġseldom": 8839,
      "Ġlaz": 8840,
      "Ġrows": 8841,
      "Ġconcluded": 8842,
      "Ġtense": 8843,
      "ÑģÑı": 8844,
      "Ġtasks": 8845,
      "ĠServ": 8846,
      "Ġdifferen": 8847,
      "NA": 8848,
      "vari": 8849,
      "Ġdeparture": 8850,
      "ĠSusan": 8851,
      "kel": 8852,
      "ĠJimmy": 8853,
      "âĹ": 8854,
      "Ġdignity": 8855,
      "zes": 8856,
      "agers": 8857,
      "pa": 8858,
      "Ġorbit": 8859,
      "resses": 8860,
      "Ġtherm": 8861,
      "92": 8862,
      "sers": 8863,
      "Ġpresently": 8864,
      "gun": 8865,
      "Ġalco": 8866,
      "ĠNich": 8867,
      "Ġcitizens": 8868,
      "Ġspan": 8869,
      "ĠRussia": 8870,
      "liament": 8871,
      "Ġcondem": 8872,
      "Ġsurf": 8873,
      "Ġdecomp": 8874,
      "Ġpopped": 8875,
      "Ġhook": 8876,
      "gger": 8877,
      "Ġinjured": 8878,
      "ĠShar": 8879,
      "Ġsuggestion": 8880,
      "Ġswitch": 8881,
      "ĠTob": 8882,
      "Ġflipped": 8883,
      "Ġbust": 8884,
      "Ġhappily": 8885,
      "Ġconstructed": 8886,
      "Ġtheat": 8887,
      "Ġtelephone": 8888,
      "etime": 8889,
      "ĠExcept": 8890,
      "ĠGeorg": 8891,
      "urt": 8892,
      "Ġbleeding": 8893,
      "Ġnorthern": 8894,
      "Ġrevol": 8895,
      "Äħ": 8896,
      "Ġpear": 8897,
      "ĠSpain": 8898,
      "ĠFer": 8899,
      "Ġowe": 8900,
      "âĪ¥": 8901,
      "Ġassigned": 8902,
      "Ġribs": 8903,
      "ĠEsp": 8904,
      "ader": 8905,
      "Ġcommander": 8906,
      "ih": 8907,
      "Ġmedicine": 8908,
      "These": 8909,
      "Ġsubtle": 8910,
      "Ġcursed": 8911,
      "Ġpip": 8912,
      "Ġrejo": 8913,
      "Ġitems": 8914,
      "Ġtattoo": 8915,
      "Ġtid": 8916,
      "Ġmarched": 8917,
      "ĠCalifornia": 8918,
      "Ġhumor": 8919,
      "inks": 8920,
      "bot": 8921,
      "wich": 8922,
      "lace": 8923,
      "Ġrender": 8924,
      "Ġnu": 8925,
      "fortunately": 8926,
      "UT": 8927,
      "Ġplacing": 8928,
      "ĠBishop": 8929,
      "Ġfolks": 8930,
      "ĠSociety": 8931,
      "ĠRich": 8932,
      "Ġwherever": 8933,
      "Ġ80": 8934,
      "Ġknot": 8935,
      "Ġencl": 8936,
      "Ġroads": 8937,
      "Ġcolored": 8938,
      "Ġpenc": 8939,
      "Ġcrystal": 8940,
      "Ġripp": 8941,
      "Ġconscience": 8942,
      "ĠSeth": 8943,
      "ĠSteve": 8944,
      "eron": 8945,
      "rive": 8946,
      "Ġalike": 8947,
      "iend": 8948,
      "Ġsport": 8949,
      "Ġinequ": 8950,
      "Ġunple": 8951,
      "Ġglances": 8952,
      "ĠMiles": 8953,
      "Ġmast": 8954,
      "Ġrational": 8955,
      "Ġcategory": 8956,
      "Ġprey": 8957,
      "Ġacceler": 8958,
      "amente": 8959,
      "Ġspreading": 8960,
      "Ġsouthern": 8961,
      "Ġunfortunate": 8962,
      "bet": 8963,
      "Ġfi": 8964,
      "osa": 8965,
      "Ġbon": 8966,
      "aneously": 8967,
      "Ġtool": 8968,
      "Ġfingert": 8969,
      "ĠÑĩ": 8970,
      "ĠKit": 8971,
      "Ġrigid": 8972,
      "inch": 8973,
      "Ġwholly": 8974,
      "Ġampl": 8975,
      "Ġbuff": 8976,
      "Ġlion": 8977,
      "fulness": 8978,
      "Ġvisual": 8979,
      "Ġgarage": 8980,
      "Ġarou": 8981,
      "Ġidentified": 8982,
      "Ġgreeted": 8983,
      "Ġtide": 8984,
      "Ġtroubled": 8985,
      "Ġdrawer": 8986,
      "Ġmanifest": 8987,
      "Ġcontinues": 8988,
      "wart": 8989,
      "Ġsuspicious": 8990,
      "ouch": 8991,
      "ĠCorn": 8992,
      "Ġvessels": 8993,
      "Ġagony": 8994,
      "ĠJenny": 8995,
      "uv": 8996,
      "58": 8997,
      "Ġsecured": 8998,
      "ucky": 8999,
      "ertainly": 9000,
      "ĠRub": 9001,
      "Ġprinted": 9002,
      "Ġmultipl": 9003,
      "Even": 9004,
      "Ġwrists": 9005,
      "izard": 9006,
      "bey": 9007,
      "Ġformation": 9008,
      "Ġaccomplished": 9009,
      "Ġarmor": 9010,
      "Ġthir": 9011,
      "Ġdevice": 9012,
      "oused": 9013,
      "Fuck": 9014,
      "Ġfrank": 9015,
      "Ġtowns": 9016,
      "Ã¡n": 9017,
      "stract": 9018,
      "97": 9019,
      "Ġconfirm": 9020,
      "Ġming": 9021,
      "Ġselection": 9022,
      "aneous": 9023,
      "po": 9024,
      "Ġburden": 9025,
      "Ġdifferences": 9026,
      "Ġupd": 9027,
      "Ġminister": 9028,
      "Ġhealing": 9029,
      "RI": 9030,
      "Ġaffect": 9031,
      "ĠMs": 9032,
      "Ġnoon": 9033,
      "olds": 9034,
      "ĠEuropean": 9035,
      "Ġec": 9036,
      "Which": 9037,
      "Ġpermitted": 9038,
      "Ġmaterials": 9039,
      "Ġwhispers": 9040,
      "Ġobed": 9041,
      "shaped": 9042,
      "ĠHom": 9043,
      "Ġenthusiasm": 9044,
      "Ġpaths": 9045,
      "ĠRef": 9046,
      "Ġnois": 9047,
      "fit": 9048,
      "ifully": 9049,
      "ĠGil": 9050,
      "Ġcommission": 9051,
      "ĠSurely": 9052,
      "ËĻ": 9053,
      "ĠDown": 9054,
      "Ġeyed": 9055,
      "ĠScar": 9056,
      "Ġdocument": 9057,
      "Ġinduced": 9058,
      "Ġhed": 9059,
      "omorphism": 9060,
      "ĠScotland": 9061,
      "ĠSher": 9062,
      "Ġtank": 9063,
      "Two": 9064,
      "iro": 9065,
      "Ġhugged": 9066,
      "Ġfilm": 9067,
      "ĠMarcus": 9068,
      "Ġdashed": 9069,
      "Ġdefense": 9070,
      "Ġfairy": 9071,
      "Ġnap": 9072,
      "Ġexisting": 9073,
      "Ġalert": 9074,
      "Ġcounted": 9075,
      "alem": 9076,
      "ĠÐ¿ÑĢ": 9077,
      "Ġhypothes": 9078,
      "Ġborder": 9079,
      "Ġresources": 9080,
      "lad": 9081,
      "Ġdimin": 9082,
      "Ġretired": 9083,
      "Ġloaded": 9084,
      "Ġtheore": 9085,
      "ĊĊÂł": 9086,
      "Ġsensed": 9087,
      "Ġarched": 9088,
      "Ġinvent": 9089,
      "Ġcops": 9090,
      "ĠUntil": 9091,
      "Ġmu": 9092,
      "ĠBehind": 9093,
      "Ġcriminal": 9094,
      "asi": 9095,
      "Ġceremony": 9096,
      "Ġbrut": 9097,
      "Ġwarriors": 9098,
      "Ġsteadily": 9099,
      "adel": 9100,
      "Ġstrip": 9101,
      "Ġexternal": 9102,
      "Ġlaughs": 9103,
      "oard": 9104,
      "Ġcake": 9105,
      "ĠMort": 9106,
      "Ġareas": 9107,
      "Ġaltar": 9108,
      "ĠHolly": 9109,
      "amma": 9110,
      "Ġquit": 9111,
      "Ġinvitation": 9112,
      "ĠEthan": 9113,
      "Ġscrap": 9114,
      "Ïĩ": 9115,
      "oping": 9116,
      "ĠChild": 9117,
      "87": 9118,
      "Ġchoo": 9119,
      "ĠJews": 9120,
      "Ġfrequent": 9121,
      "cia": 9122,
      "Ġarose": 9123,
      "Ġequilibrium": 9124,
      "Ġdeadly": 9125,
      "Ġmistaken": 9126,
      "Ġhither": 9127,
      "Ġnipples": 9128,
      "Ġoccurs": 9129,
      "ography": 9130,
      "Ġhastily": 9131,
      "lleng": 9132,
      "Ġensure": 9133,
      "Ġexpressions": 9134,
      "Ġdiscipl": 9135,
      "Ġgloves": 9136,
      "ÑĤÑĮ": 9137,
      "Ġshudder": 9138,
      "Ġannoyed": 9139,
      "Ġshivered": 9140,
      "Ġgoss": 9141,
      "Ġthreatening": 9142,
      "Ġmant": 9143,
      "Ġsubstance": 9144,
      "Ġemotional": 9145,
      "Ġeh": 9146,
      "ĠLib": 9147,
      "Ġdragging": 9148,
      "Ġfires": 9149,
      "Ġascend": 9150,
      "ĠDist": 9151,
      "Ġencourage": 9152,
      "Ġexpans": 9153,
      "ĠRad": 9154,
      "Ġ46": 9155,
      "Ġovercome": 9156,
      "Ġprospect": 9157,
      "07": 9158,
      "Ġswiftly": 9159,
      "Ġpoetry": 9160,
      "Ġcultiv": 9161,
      "Ġcruc": 9162,
      "Ġroughly": 9163,
      "inction": 9164,
      "Ġcompare": 9165,
      "ĠVi": 9166,
      "Ġmoonlight": 9167,
      "Ġchemical": 9168,
      "ĠCooper": 9169,
      "unting": 9170,
      "Ġspar": 9171,
      "endix": 9172,
      "Ġfishing": 9173,
      "Ġraced": 9174,
      "ĠFebruary": 9175,
      "Ġgazing": 9176,
      "ĠOp": 9177,
      "Ġphrase": 9178,
      "Ġobey": 9179,
      "anging": 9180,
      "regular": 9181,
      "Ġdeserted": 9182,
      "Ġfrustration": 9183,
      "57": 9184,
      "Ġintelligent": 9185,
      "Ġjar": 9186,
      "ĠMem": 9187,
      "Ġperpet": 9188,
      "ĠBri": 9189,
      "ĠLeo": 9190,
      "Ġshuddered": 9191,
      "Ġoath": 9192,
      "Ġmagnificent": 9193,
      "ĠGre": 9194,
      "Ġwhoever": 9195,
      "Ind": 9196,
      "Ġvest": 9197,
      "sen": 9198,
      "ĠYoung": 9199,
      "Ġdetermination": 9200,
      "Ġgasp": 9201,
      "Ġcrawled": 9202,
      "ĠSE": 9203,
      "Ġbrand": 9204,
      "Ġclimbing": 9205,
      "Ġtiss": 9206,
      "Ġissues": 9207,
      "Ġâī¡": 9208,
      "Ġchains": 9209,
      "Ġchances": 9210,
      "ĠSeb": 9211,
      "ĠBible": 9212,
      "Xiv": 9213,
      "ĠâĪĩ": 9214,
      "Ġcomposition": 9215,
      "linear": 9216,
      "Ġmart": 9217,
      "Ġchocolate": 9218,
      "OK": 9219,
      "Ġconflict": 9220,
      "Ġoccasional": 9221,
      "Ġcomponent": 9222,
      "Ġincredible": 9223,
      "Ġintimate": 9224,
      "urg": 9225,
      "ĠMarie": 9226,
      "Ġreadily": 9227,
      "Ġbatter": 9228,
      "Ġbeloved": 9229,
      "Â¨": 9230,
      "ĠEp": 9231,
      "Ġnerve": 9232,
      "Ġinsane": 9233,
      "Ġapple": 9234,
      "Ġidentical": 9235,
      "ĠFal": 9236,
      "ilet": 9237,
      "Ġconduc": 9238,
      "iac": 9239,
      "Ġslipping": 9240,
      "ribute": 9241,
      "ĠLucas": 9242,
      "Ġalien": 9243,
      "athan": 9244,
      "Ġrevel": 9245,
      "Ġspending": 9246,
      "Ġparticles": 9247,
      "Ġdeserved": 9248,
      "rial": 9249,
      "NN": 9250,
      "ipper": 9251,
      "Ne": 9252,
      "Ġprofound": 9253,
      "03": 9254,
      "Ġoak": 9255,
      "Ġassure": 9256,
      "Ġlattice": 9257,
      "ĠAfrica": 9258,
      "Ġrendered": 9259,
      "Ġpatted": 9260,
      "ormal": 9261,
      "Ġpuzzled": 9262,
      "ĠClara": 9263,
      "quarters": 9264,
      "Ġlied": 9265,
      "ĠHot": 9266,
      "ĠJun": 9267,
      "Ġdistracted": 9268,
      "Ġconve": 9269,
      "Ġpoly": 9270,
      "zer": 9271,
      "ĠMason": 9272,
      "ĠJulia": 9273,
      "rily": 9274,
      "Ġdetailed": 9275,
      "beat": 9276,
      "Ġinquired": 9277,
      "Ġfactors": 9278,
      "Ġgn": 9279,
      "Ġbomb": 9280,
      "ĠFle": 9281,
      "Ġcolon": 9282,
      "isl": 9283,
      "Ġ}": 9284,
      "Ġvulner": 9285,
      "town": 9286,
      "Ġmyth": 9287,
      "ieties": 9288,
      "kerchief": 9289,
      "atus": 9290,
      "Ġdivision": 9291,
      "Ġmulti": 9292,
      "ĠBarb": 9293,
      "olding": 9294,
      "itching": 9295,
      "Ġexplore": 9296,
      "Ġrelatively": 9297,
      "ĠSecret": 9298,
      "Ġoccasions": 9299,
      "Ġglobal": 9300,
      "Ġacquaintance": 9301,
      "Ġspots": 9302,
      "Ġdisturb": 9303,
      "Ġmagical": 9304,
      "Ġinterrupt": 9305,
      "ĠImp": 9306,
      "agues": 9307,
      "Uh": 9308,
      "Ġprotected": 9309,
      "ĠNobody": 9310,
      "ĠThanks": 9311,
      "ĠJour": 9312,
      "Ġcurtains": 9313,
      "AND": 9314,
      "\".": 9315,
      "Ġll": 9316,
      "Ġwha": 9317,
      "hearted": 9318,
      "ĠOkay": 9319,
      "Ġmanners": 9320,
      "Ġstunned": 9321,
      "Ġromantic": 9322,
      "Ġchicken": 9323,
      "Ġpassenger": 9324,
      "Ġrates": 9325,
      "ĠId": 9326,
      "Ġalle": 9327,
      "igo": 9328,
      "Ġgravity": 9329,
      "Ġblonde": 9330,
      "iano": 9331,
      "acking": 9332,
      "onic": 9333,
      "Ġsheer": 9334,
      "Ġmisery": 9335,
      "Ġstrictly": 9336,
      "Ġcollapsed": 9337,
      "ĠWere": 9338,
      "Ġvictims": 9339,
      "Ġvoc": 9340,
      "rels": 9341,
      "Ġconsistent": 9342,
      "ĠAut": 9343,
      "ĠÎ¶": 9344,
      "Ġclam": 9345,
      "reek": 9346,
      "called": 9347,
      "Ġbeaten": 9348,
      "Ġsurvived": 9349,
      "Ġcrash": 9350,
[...]
